, 135595
the 126084
. 100160
of 67863
to 64865
and 59398
in 44265
a 43258
that 30850
is 30306
@-@ 28127
&apos;s 23511
&quot; 20164
for 19233
- 15335
be 15056
as 14329
The 13644
are 13628
on 13502
it 13405
with 12612
not 12228
by 11861
has 11084
have 10893
will 9817
an 9474
from 8830
its 8760
their 8639
more 8323
or 7516
was 7316
at 6968
But 6962
would 6830
this 6711
they 6653
US 6156
countries 6107
than 6052
but 5941
which 5790
In 5734
can 5378
world 5337
( 4774
) 4773
all 4693
economic 4641
been 4629
% 4502
China 4484
one 4475
only 4118
government 4069
Europe 3947
new 3929
other 3862
we 3852
should 3832
about 3831
political 3766
: 3750
also 3705
global 3670
growth 3646
no 3639
his 3598
were 3501
; 3492
people 3459
who 3428
most 3420
such 3410
if 3399
European 3377
could 3332
so 3319
even 3312
now 3283
financial 3224
many 3184
country 3173
years 3108
when 3058
This 3049
un@@ 2951
do 2896
there 2885
economy 2868
time 2848
must 2846
may 2823
It 2815
policy 2807
these 2793
EU 2790
into 2773
some 2771
what 2626
over 2621
had 2616
re@@ 2597
crisis 2591
he 2581
much 2573
power 2572
up 2535
? 2534
long 2533
them 2520
out 2516
because 2484
Russia 2420
es 2410
in@@ 2403
America 2383
public 2293
between 2271
well 2250
year 2221
like 2211
market 2178
ed 2166
international 2162
two 2162
ing 2114
I 2039
those 2031
As 2027
A 2010
s 2008
United 1988
debt 1981
state 1967
any 1962
less 1959
our 1956
And 1952
against 1929
first 1925
di@@ 1912
way 1909
need 1891
while 1835
system 1819
both 1812
how 1782
For 1731
interest 1728
term 1728
markets 1727
trade 1719
far 1705
too 1700
high 1698
If 1694
just 1689
after 1682
change 1680
make 1675
rate 1657
leaders 1646
become 1644
American 1637
$ 1629
support 1612
yang 1581
national 1575
banks 1569
governments 1565
rates 1558
able 1549
own 1545
military 1540
example 1533
Indeed 1529
foreign 1514
al 1495
investment 1493
where 1486
last 1484
led 1480
today 1467
war 1467
important 1460
ting 1457
same 1435
current 1432
c@@ 1425
policies 1424
social 1423
being 1411
future 1409
President 1406
real 1405
end 1395
large 1395
us 1390
Japan 1389
capital 1384
does 1383
might 1366
likely 1362
dan 1354
y 1354
States 1350
ted 1348
recent 1344
prices 1339
risk 1326
Germany 1319
right 1317
ation 1308
development 1303
Chinese 1301
still 1298
through 1285
since 1280
without 1280
take 1274
made 1266
good 1265
security 1255
economies 1252
fiscal 1244
GDP 1240
work 1235
cannot 1234
under 1228
use 1222
oil 1220
better 1219
part 1219
ated 1215
energy 1211
That 1210
states 1209
including 1202
nuclear 1201
India 1200
major 1193
course 1187
problem 1187
human 1186
result 1165
So 1161
very 1160
low 1158
past 1157
did 1146
de@@ 1144
often 1138
Iran 1137
demand 1137
t 1136
fact 1135
Israel 1134
billion 1132
i 1131
help 1126
ating 1114
co@@ 1113
There 1112
s@@ 1112
health 1107
e 1104
central 1101
then 1100
Iraq 1094
Union 1087
tax 1085
&apos;t 1083
Bank 1082
before 1081
income 1076
institutions 1069
con@@ 1068
private 1068
higher 1066
We 1064
They 1051
another 1049
a@@ 1041
Moreover 1038
already 1035
three 1035
p@@ 1034
little 1028
o@@ 1020
eurozone 1012
rather 1007
ding 1004
order 1004
democracy 1003
price 1003
en@@ 998
ti@@ 997
down 990
money 988
ate 987
few 984
ber@@ 983
free 979
role 976
increase 970
problems 970
e@@ 969
East 966
process 965
pre@@ 963
among 961
inflation 960
France 958
around 958
rights 957
Obama 956
To 955
needed 955
c 950
least 950
u@@ 950
West 948
y@@ 947
sector 946
back 943
li@@ 939
region 939
spending 937
million 935
Putin 931
poor 929
based 928
developing 925
needs 921
point 918
Asia 914
means 914
se@@ 909
reform 901
women 899
whether 898
especially 896
come 893
however 892
next 891
clear 890
World 889
g@@ 889
rise 889
during 888
short 886
monetary 884
di 883
century 882
case 879
k 875
When 874
costs 873
cost 870
members 870
different 868
set 868
companies 866
t@@ 862
Bush 861
domestic 857
ded 856
strong 856
currency 852
almost 851
ri@@ 851
de 848
others 845
labor 844
With 843
why 841
ly 839
used 839
within 839
reforms 838
si@@ 836
climate 835
itself 835
life 833
remains 833
society 831
ago 829
ally 827
longer 826
seems 824
men@@ 823
control 822
education 822
peace 822
law 821
At 816
you 816
exchange 815
emerging 814
remain 814
force 811
ter@@ 809
election 805
growing 804
off 804
regime 804
ers 802
put 801
called 798
d@@ 798
la@@ 798
place 796
democratic 794
d 792
decades 792
Africa 791
best 791
ling 790
kan 786
business 784
level 784
citizens 783
i@@ 783
difficult 780
er 779
ts 774
face 773
non 772
Western 771
greater 768
politics 767
ever 766
common 764
interests 763
population 763
euro 762
One 761
S@@ 761
continue 761
go 761
Arab 760
provide 758
say 757
Russian 756
per@@ 751
v@@ 749
benefits 747
further 746
each 743
key 743
A@@ 741
resources 741
Turkey 739
number 739
These 738
approach 738
enough 737
increasingly 736
ar@@ 735
never 733
thus 733
After 731
toward 731
over@@ 729
second 729
left 728
run 728
yet 728
per 727
Greece 726
making 725
themselves 725
b@@ 724
Yet 723
value 723
see 722
day 721
ous 721
While 719
ations 719
bank 718
given 716
20 715
question 714
stability 714
great 713
pro@@ 713
f@@ 711
ma@@ 711
South 710
every 710
IMF 709
forces 709
member 705
possible 704
French 702
By 701
Even 701
particularly 700
services 696
children 695
workers 695
War 692
ra@@ 691
believe 690
regional 689
history 688
terms 687
anti 686
self 685
UN 684
want 683
dollar 682
though 682
What 681
efforts 680
know 680
issues 679
potential 679
ve 678
risks 677
once 676
view 676
Middle 675
reduce 674
small 674
tion 674
her 673
lead 673
old 673
former 671
lower 671
hard 670
unemployment 670
rising 669
ro@@ 669
early 668
recently 668
get 667
dis@@ 664
share 664
credit 662
conflict 659
president 658
ability 657
decade 657
half 657
sense 656
again 654
rule 650
agreement 648
balance 648
effective 648
ty 648
finance 647
red 646
ch@@ 644
care 642
parties 642
administration 641
North 640
reason 637
ds 636
home 636
under@@ 634
create 633
Of 632
cally 632
On 631
party 630
pen@@ 629
le@@ 628
strategy 628
him 625
le 625
serious 622
Korea 620
investors 620
m@@ 620
rules 620
simply 620
budget 619
&amp; 616
P@@ 614
zed 614
inter@@ 613
Some 612
form 612
ment 611
2008 610
issue 609
poverty 609
sts 609
C@@ 608
Americans 607
find 605
my 605
me 604
action 602
negara 602
Ukraine 600
o 600
p 600
rich 600
account 599
impact 597
always 590
true 590
German 588
ent 588
te 586
local 584
research 584
leadership 583
out@@ 583
developed 582
open 582
late 581
ways 581
l 580
systems 579
big 578
British 577
turn 577
deficit 575
fall 575
increased 574
violence 574
or@@ 572
community 569
mis@@ 568
mi@@ 567
w@@ 567
Minister 566
seem 565
jobs 564
pay 563
challenges 562
age 561
information 561
untuk 561
He 560
po@@ 559
times 559
full 557
technology 557
politicians 556
access 555
together 555
ze 554
despite 553
k@@ 553
h@@ 552
measures 552
cal 548
deal 548
levels 548
gu@@ 547
failed 546
groups 546
Soviet 545
line 545
return 545
side 545
challenge 542
significant 542
conditions 541
perhaps 541
across 540
relations 540
ini 539
j@@ 539
act 537
said 537
ce 536
post 535
whose 531
er@@ 530
mo@@ 530
until 530
Party 529
officials 529
think 529
Britain 528
civil 527
ism 527
Council 526
decision 526
model 526
th@@ 526
ction 525
cause 524
threat 524
u 524
weapons 523
International 522
New 522
firms 522
lo@@ 522
ates 519
necessary 519
als 518
program 518
rest 518
ensure 517
T@@ 516
advanced 516
main 516
Palestinian 515
Syria 514
areas 514
progress 514
hope 512
lack 512
sa@@ 512
2 510
Central 509
recession 509
akan 508
decline 508
ha@@ 508
me@@ 508
modern 507
coming 506
months 506
success 506
ying 505
it@@ 504
influence 503
employment 502
food 502
men 502
require 502
ans 501
start 501
ors 500
requires 500
elections 499
em@@ 499
sing 499
similar 498
using 498
an@@ 497
changes 497
consequences 497
away 496
increasing 496
m 496
seen 496
idea 494
pressure 494
response 494
al@@ 493
bo@@ 493
r@@ 493
taking 493
Many 492
ci@@ 492
da@@ 492
look 492
ap@@ 491
leading 491
tions 491
wealth 491
done 490
found 490
man 489
ECB 488
ct 488
fear 488
1 487
Re@@ 487
Fed 486
assets 486
banking 486
taken 486
B@@ 485
Pakistan 485
debate 484
infrastructure 484
move 484
NATO 483
do@@ 483
productivity 483
position 482
powerful 482
became 481
majority 481
Today 480
opportunity 480
effects 479
single 479
ad@@ 478
average 477
consumption 477
created 477
gas 477
goods 477
ho@@ 477
makes 477
exports 475
se 474
zation 474
UK 473
address 473
largest 473
values 473
production 472
be@@ 471
ge 471
young 471
Japanese 470
at@@ 470
effort 470
Italy 469
Islamic 468
failure 468
programs 468
opposition 467
M@@ 465
five 465
globalization 465
ant 464
benefit 464
beyond 464
Such 463
massive 463
pi@@ 463
third 463
us@@ 463
media 462
campaign 461
cut 461
effect 460
pe@@ 460
re 460
sp@@ 460
ex@@ 459
keep 459
really 459
focus 458
zing 458
50 457
strategic 457
legal 456
lost 456
aid 455
capacity 455
th 455
began 454
ar 453
close 452
confidence 451
gra@@ 451
3 450
Muslim 450
living 450
natural 450
several 450
alone 449
funds 449
group 448
period 448
ving 448
Europeans 447
particular 447
working 446
Commission 445
indeed 445
cooperation 444
E@@ 443
bi@@ 443
prevent 443
structural 443
10 442
experience 442
huge 442
land 442
sub@@ 442
up@@ 442
Latin 441
l@@ 441
bad 440
solution 440
hold 439
lives 439
presidential 439
achieve 438
defense 438
mem@@ 438
sh@@ 438
data 437
Afghanistan 436
scale 436
First 435
Fund 435
vi@@ 435
give 434
policymakers 434
top 434
vote 434
Prime 433
live 433
tra@@ 433
Egypt 432
fundamental 432
play 432
tive 432
N@@ 431
deficits 431
something 431
du@@ 429
largely 429
official 429
nothing 428
collapse 427
Israeli 426
having 426
pa@@ 426
/ 425
emissions 425
L@@ 424
F@@ 423
Instead 423
supply 423
water 423
later 422
recovery 422
ties 422
allow 418
environment 418
n 417
dari 416
ging 416
job 416
leader 416
G 414
religious 414
situation 414
evidence 413
All 412
Brazil 412
carbon 412
comes 412
imp@@ 412
probably 412
so@@ 412
annual 411
either 411
ence 411
integration 411
ons 411
des 410
limited 410
rapid 410
h 409
kind 409
ru@@ 409
shift 409
ves 409
30 408
ak@@ 408
voters 408
--@@ 407
ck 407
is@@ 407
tic 407
agenda 406
four 406
total 406
doing 405
decisions 404
expected 404
he@@ 404
ments 404
G@@ 403
H@@ 403
es@@ 403
fo@@ 403
hand 403
ure 403
O@@ 402
for@@ 402
popular 402
te@@ 402
thing 402
sure 401
ten 401
Most 400
ne@@ 400
1990 399
traditional 399
Given 397
Trump 397
behind 397
bring 397
corruption 397
soon 397
ac@@ 396
building 396
cu@@ 396
ents 396
nearly 396
negotiations 396
su@@ 395
ab@@ 394
freedom 394
individual 394
bu@@ 393
she 393
took 393
things 392
bonds 391
governance 391
status 391
comp@@ 390
qu@@ 390
taxes 390
union 390
Now 389
Security 389
reality 389
matter 388
mean 388
na@@ 388
2009 387
attention 387
economists 387
industry 387
relatively 387
cases 386
ch 386
ke@@ 386
on@@ 386
worse 386
ba@@ 385
K@@ 384
cting 384
est 384
ity 384
2010 383
fi@@ 383
terrorism 383
Asian 382
Saudi 382
contrast 382
highly 382
held 381
reach 381
build 380
res@@ 380
step 380
cs 377
Con@@ 376
8 375
More 375
plan 375
powers 375
wa@@ 375
Spain 374
reasons 374
wrong 374
authorities 373
alternative 372
competition 372
st 372
successful 372
tidak 372
wing 372
R@@ 371
moral 371
ary 370
came 370
science 370
standards 370
sustainable 370
responsibility 368
actually 367
direct 367
nation 367
Nations 366
ged 366
ble 365
ist 365
Although 364
Since 364
fully 363
avoid 362
ms 362
nya 362
ance 361
following 361
produce 361
relative 361
call 360
family 360
investments 360
stock 360
ces 359
ter 359
ut@@ 358
W@@ 357
industrial 356
attacks 355
basic 355
era 355
sed 355
car@@ 354
show 354
African 353
goal 353
improve 353
known 353
weak 353
wi@@ 353
class 352
gi@@ 352
news 352
15 351
ni@@ 351
relationship 350
reserves 350
understand 350
outside 349
owing 349
allowed 348
everyone 348
words 348
deep 347
protect 347
to@@ 347
D@@ 346
Y@@ 346
el@@ 346
independent 346
behavior 345
cted 345
larger 345
movement 345
6 344
elsewhere 344
quickly 344
st@@ 344
certainly 343
mer@@ 343
outcome 343
size 343
b 342
consider 342
ctions 342
culture 342
minister 342
n@@ 342
sive 342
stop 342
Kingdom 341
becoming 341
cuts 341
forced 341
har@@ 341
near 341
fight 340
sta@@ 340
No 339
external 339
reducing 339
ses 339
ess 338
export 338
don 337
sions 337
accept 336
brought 336
quality 336
boost 335
concerns 335
results 335
ur@@ 335
certain 334
clearly 334
commitment 334
entire 334
hi@@ 334
opportunities 334
Congress 333
air 333
am@@ 333
caused 333
cultural 333
4 332
general 332
internal 332
month 332
provided 332
tri@@ 332
unlikely 332
basis 331
creating 331
critical 331
easy 331
intervention 331
min@@ 331
Great 330
above 330
sti@@ 330
dengan 329
disease 329
performance 329
ters 329
creation 328
environmental 328
financing 328
light 328
asset 327
cor@@ 327
helped 327
thought 327
ul@@ 327
won 327
2007 326
40 326
alism 326
center 326
ful 326
let 326
revolution 326
si 326
State 325
currently 325
maintain 325
argue 324
middle 324
output 324
uni@@ 324
NEW 323
sho@@ 323
vision 323
ya 323
7 322
parts 322
Greek 321
ali@@ 321
claim 321
dangerous 321
death 321
include 321
inequality 321
management 321
trillion 321
ca@@ 320
sovereign 320
vo@@ 320
ah 319
city 319
les 319
liberal 319
membership 319
pada 319
path 319
recognize 319
crises 318
fa@@ 318
institutional 318
raise 318
au@@ 317
beginning 317
days 317
nor 316
corporate 315
elected 315
going 315
source 315
sur@@ 315
um@@ 315
dalam 314
established 314
loss 314
sides 314
austerity 313
dollars 313
here 313
Hamas 312
In@@ 312
cts 312
followed 312
nations 312
report 312
saving 312
essential 311
generation 311
target 311
am 310
cities 310
develop 310
products 310
# 309
prosperity 309
25 308
required 308
ry 308
willing 308
ang 307
millions 307
5 306
answer 306
appears 306
complex 306
ge@@ 306
knowledge 306
meet 306
proposed 306
stimulus 306
worldwide 305
I@@ 304
continued 304
eventually 304
leave 304
meeting 304
w 304
National 303
September 303
comm@@ 303
mon@@ 303
actions 302
der 302
el 302
independence 302
offer 302
Barack 301
prime 301
technologies 301
gain 300
ys 300
60 299
Mexico 299
reduced 299
seek 299
existing 298
ke 298
organizations 298
positive 298
Islam 297
border 297
stable 297
turned 297
Palestinians 296
as@@ 296
king 296
nature 296
paid 296
societies 296
Development 295
factors 295
negative 295
sanctions 295
tend 295
ved 295
&apos; 294
According 294
along 294
available 294
borders 294
housing 294
innovation 294
no@@ 294
z@@ 294
Internet 293
ality 293
choice 293
feel 293
ga@@ 293
increases 293
simple 293
economics 292
ely 292
roughly 292
try 292
2000 291
ck@@ 291
continues 291
loans 291
net 291
reduction 291
war@@ 291
Only 290
amount 290
due 290
individuals 290
merely 290
An 289
competitive 289
fail 289
Monetary 288
regions 288
regulation 288
six 288
mass 287
questions 287
George 286
effectively 286
grow 286
lin@@ 286
related 286
allies 285
tahun 285
um 285
Clinton 284
households 284
impossible 284
insurance 284
respect 284
welfare 284
gs 283
scientific 283
damage 282
sc@@ 282
victory 282
Second 281
U@@ 281
cing 281
concern 281
exp@@ 281
stronger 280
below 279
savings 279
we@@ 279
II 278
Poland 278
aimed 278
bur@@ 278
personal 278
suggests 278
thinking 278
treatment 278
Thus 277
framework 277
wants 277
warming 277
burden 276
therefore 276
authority 275
throughout 275
area 274
core 274
instead 274
wide 274
Secretary 273
ahead 273
assistance 273
body 273
ced 273
chance 273
difference 273
gains 273
ol@@ 273
promote 273
attack 272
establish 272
extreme 272
forward 272
office 272
stri@@ 272
Kremlin 271
facing 271
obvious 271
rec@@ 271
terrorist 271
trust 271
trying 271
ably 270
lebih 270
serve 270
supp@@ 270
ven@@ 270
wage 270
incentives 269
lending 269
service 269
Finally 268
agreed 268
expect 268
ges 268
rapidly 268
usually 268
ative 267
easily 267
g 267
ir@@ 267
school 267
sectors 267
spent 267
towards 267
ver 267
Cold 266
Unfortunately 266
ants 266
built 266
drug 266
flows 266
moment 266
sometimes 266
J@@ 265
additional 265
laws 265
wars 265
Despite 264
changed 264
equity 264
spread 264
whole 264
1980 263
Ma@@ 263
Meanwhile 263
fy 263
justice 263
2001 262
fuel 262
gap 262
structure 262
ultimately 262
Se@@ 261
boom 261
primary 261
project 261
protection 261
refugees 261
Argentina 260
company 260
consumer 260
immediate 260
targets 260
wages 260
et 259
events 259
ideas 259
ists 259
neighbors 259
views 259
9 258
begin 258
lines 258
ously 258
par@@ 258
politically 258
alized 257
driven 257
op@@ 257
transition 257
according 256
bar@@ 256
committed 256
fied 256
ins 256
points 256
projects 256
providing 256
round 256
slow 256
understanding 256
advantage 255
funding 255
il@@ 255
overall 255
save 255
thereby 255
zero 255
2011 254
Lebanon 254
head 254
ness 254
pro 254
seemed 254
Muslims 253
appear 253
demands 253
ked 253
losses 253
mp@@ 253
principle 253
General 252
achieved 252
argument 252
legitimacy 252
neither 252
ob@@ 252
reached 252
surplus 252
100 251
Economic 251
excessive 251
partners 251
record 251
sion 251
stage 251
Arabia 250
Eastern 250
V@@ 250
ep@@ 250
liquidity 250
sted 250
worth 250
des@@ 249
f 249
follow 249
solutions 249
abroad 248
becomes 248
cur@@ 248
den@@ 248
diplomatic 248
ined 248
win 248
your 248
pre 247
provides 247
steps 247
Federal 246
Likewise 246
asi 246
designed 246
himself 246
presidency 246
productive 246
severe 246
widely 246
2012 245
buy 245
coalition 245
competitiveness 245
directly 245
her@@ 245
police 245
responsible 245
talks 245
claims 244
crucial 244
property 244
referendum 244
stand 244
Gaza 243
reflects 243
consumers 242
fighting 242
sm 242
Similarly 241
Treaty 241
adopted 241
consensus 241
equal 241
regulatory 241
vast 241
How 240
YORK 240
efficient 240
ended 240
extent 240
goals 240
importance 240
secure 240
test 240
active 239
anything 239
historical 239
thousands 239
biggest 238
capitalism 238
faces 238
lies 238
shared 238
soft 238
substantial 238
vital 238
expansion 237
matters 237
standard 237
takes 237
11 236
2005 236
Co@@ 236
army 236
ches 236
contrary 236
forms 236
lose 236
spend 236
160 235
People 235
safety 235
trading 235
absence 234
can@@ 234
ently 234
falling 234
mind 234
pres@@ 234
subsidies 234
wor@@ 234
2015 233
2@@ 233
else 233
favor 233
ma 233
partly 233
ta@@ 233
uses 233
Because 232
businesses 232
ce@@ 232
efficiency 232
happen 232
ten@@ 232
calls 231
ground 231
summit 231
child 230
estimated 230
expectations 230
meng@@ 230
Perhaps 229
cked 229
ders 229
managed 229
med 229
range 229
safe 229
started 229
theory 229
worked 229
candidate 228
cking 228
industries 228
manufacturing 228
possibility 228
seeking 228
compared 227
opinion 227
produced 227
struggle 227
Its 226
ari@@ 226
game 226
ones 226
quarter 226
shows 226
sk@@ 226
ver@@ 226
x 226
Their 225
differences 225
direction 225
earlier 225
instability 225
normal 225
operations 225
From 224
Indian 224
Republican 224
ang@@ 224
ati@@ 224
currencies 224
asked 223
communities 223
cra@@ 223
doubt 223
en 223
et@@ 223
ethnic 223
mid 223
permanent 223
present 223
significantly 223
sovereignty 223
space 223
spe@@ 223
stic 223
suggest 223
During 222
Sarkozy 222
Those 222
activities 222
ju@@ 222
message 222
ning 222
plans 222
reflect 222
ring 222
sources 222
special 222
standing 222
threats 222
upon 222
vulnerable 222
C 221
deeply 221
gh@@ 221
man@@ 221
ming 221
regard 221
study 221
tried 221
2013 220
shown 220
week 220
December 219
agreements 219
argued 219
commercial 219
construction 219
cul@@ 219
mu@@ 219
push 219
technological 219
widespread 219
His 218
Not 218
November 218
factor 218
identity 218
lating 218
press 218
principles 218
strengthen 218
0.@@ 217
2004 217
D 217
John 217
cancer 217
counter 217
democracies 217
migration 217
running 217
Iranian 216
agree 216
candidates 216
default 216
manage 216
revenues 216
tes 216
trend 216
70 215
cy 215
expensive 215
invest 215
mostly 215
story 215
task 215
Both 214
Ireland 214
London 214
book 214
constitution 214
cre@@ 214
finally 214
mental 214
prospects 214
prove 214
ren@@ 214
tu@@ 214
ut 214
aan 213
collective 213
creditors 213
encourage 213
payments 213
skills 213
truth 213
2006 212
Republic 212
ass@@ 212
attempt 212
danger 212
ending 212
focused 212
inf@@ 212
limit 212
sin@@ 212
&apos;@@ 211
base 211
bri@@ 211
counter@@ 211
enormous 211
limits 211
medical 211
pem@@ 211
went 211
19@@ 210
Libya 210
causes 210
giving 210
household 210
immigration 210
mar@@ 210
Global 209
circumstances 209
depends 209
drugs 209
everything 209
final 209
models 209
saw 209
Reserve 208
Syrian 208
electoral 208
fell 208
lation 208
specific 208
whom 208
May 207
Per@@ 207
Washington 207
fair 207
fast 207
fund 207
guarantee 207
pursue 207
weeks 207
Though 206
appropriate 206
back@@ 206
bankers 206
ent@@ 206
faster 206
federal 206
latest 206
respond 206
supported 206
universal 206
addition 205
belief 205
continent 205
ctive 205
disaster 205
promise 205
students 205
vers 205
activity 204
alization 204
although 204
ban@@ 204
goes 204
gold 204
incomes 204
legislation 204
treaty 204
agencies 203
bilateral 203
commodity 203
ens 203
fication 203
hands 203
hit 203
macroeconomic 203
ur 203
auto@@ 202
ched 202
fe@@ 202
implies 202
imports 202
lu@@ 202
sign 202
speech 202
uncertainty 202
P 201
Sa@@ 201
W. 201
anti@@ 201
armed 201
context 201
gar@@ 201
house 201
ia 201
imposed 201
lot 201
nbsp 201
previous 201
remained 201
controls 200
farmers 200
go@@ 200
organization 200
ss@@ 200
told 200
.@@ 199
De@@ 199
afford 199
ag@@ 199
greatest 199
met 199
person 199
recognized 199
restore 199
rural 199
ste@@ 199
Al 198
Russians 198
capita 198
der@@ 198
poorest 198
priority 198
received 198
various 198
anyone 197
borrowing 197
choose 197
helping 197
ja@@ 197
name 197
places 197
resulting 197
tered 197
unable 197
break 196
combined 196
pla@@ 196
proposal 196
regimes 196
zone 196
12 195
Trade 195
accounts 195
heart 195
join 195
mb@@ 195
ordinary 195
peaceful 195
raising 195
sen@@ 195
smaller 195
tly 195
2003 194
CO2 194
Democratic 194
alliance 194
app@@ 194
che@@ 194
dapat 194
holding 194
sufficient 194
victims 194
Georgia 193
arms 193
broad 193
dependent 193
diseases 193
faced 193
happened 193
hundreds 193
imbalances 193
mainly 193
pp@@ 193
radical 193
wanted 193
Assad 192
Ro@@ 192
cer@@ 192
highest 192
protests 192
unless 192
Over 191
Su@@ 191
adjustment 191
bond 191
considered 191
drive 191
emerged 191
hal@@ 191
implement 191
worst 191
Iraqi 190
alize 190
constitutional 190
exist 190
generally 190
gue 190
hin@@ 190
ks 190
mission 190
promised 190
road 190
talk 190
wed 190
cies 189
depend 189
establishment 189
fuels 189
intelligence 189
language 189
medi@@ 189
option 189
training 189
wo@@ 189
adalah 188
announced 188
deliver 188
gers 188
ght 188
involved 188
ot@@ 188
participation 188
raised 188
supposed 188
troops 188
alists 187
conflicts 187
da 187
hor@@ 187
killed 187
pri@@ 187
ship 187
style 187
York 186
closer 186
ic 186
movements 186
ned 186
ot 186
reaching 186
sound 186
18@@ 185
Brexit 185
Comp@@ 185
LONDON 185
ak 185
cash 185
dly 185
families 185
initiative 185
list 185
mor@@ 185
sought 185
subject 185
associated 184
cation 184
conservative 184
decide 184
gre@@ 184
intellectual 184
kita 184
migrants 184
promises 184
rep@@ 184
rhetoric 184
tional 184
tre@@ 184
4@@ 183
ad 183
bed 183
bound 183
credibility 183
crimes 183
defined 183
degree 183
ish 183
looking 183
looks 183
1.@@ 182
However 182
Last 182
double 182
easing 182
firm 182
harus 182
launched 182
meant 182
practice 182
seriously 182
sharp 182
sustained 182
truly 182
v 182
March 181
ators 181
blame 181
ed@@ 181
intended 181
multilateral 181
played 181
succeed 181
80 180
aging 180
ai@@ 180
ant@@ 180
ational 180
bat@@ 180
deaths 180
dents 180
easier 180
improved 180
ongoing 180
ory 180
rely 180
strength 180
undermine 180
viewed 180
Another 179
ask 179
bisa 179
bubble 179
comprehensive 179
experts 179
ings 179
learn 179
leaving 179
lesson 179
necessarily 179
populations 179
shed 179
type 179
Korean 178
Third 178
agricultural 178
cutting 178
experienced 178
fying 178
green 178
mereka 178
precisely 178
temporary 178
terrorists 178
tersebut 178
zes 178
Court 177
clo@@ 177
getting 177
ran 177
twentieth 177
ve@@ 177
€ 177
Like 176
Nor 176
Why 176
added 176
broader 176
ger 176
inc@@ 176
parliament 176
2014 175
affairs 175
believed 175
bra@@ 175
col@@ 175
controlled 175
desire 175
excess 175
field 175
liberalization 175
patients 175
pun@@ 175
supporters 175
tensions 175
unprecedented 175
Taiwan 174
concerned 174
mat@@ 174
owned 174
populist 174
pu@@ 174
suffering 174
x@@ 174
July 173
June 173
Sunni 173
Vladimir 173
affect 173
cate 173
decided 173
determined 173
fossil 173
quite 173
returns 173
sharply 173
bahwa 172
besar 172
coal 172
diplomacy 172
generate 172
inevitable 172
ls 172
numbers 172
receive 172
regulations 172
rel@@ 172
resolution 172
ruling 172
sh 172
ward 172
willingness 172
January 171
debts 171
divided 171
ered 171
gone 171
learned 171
ots 171
poses 171
pping 171
profits 171
ready 171
solidarity 171
Without 170
cross 170
event 170
explain 170
il 170
impose 170
offers 170
percentage 170
prospect 170
the@@ 170
Is 169
Kosovo 169
Rather 169
Treasury 169
changing 169
conventional 169
fin@@ 169
moving 169
nation@@ 169
otherwise 169
parliamentary 169
version 169
violent 169
worry 169
Financial 168
Qaeda 168
Saddam 168
Shia 168
ator 168
barriers 168
economist 168
improving 168
legitimate 168
potentially 168
resistance 168
southern 168
tools 168
urban 168
House 167
analysis 167
cks 167
constitu@@ 167
continuing 167
destruction 167
dunia 167
elite 167
indi@@ 167
ished 167
outcomes 167
pension 167
rein@@ 167
resolve 167
spi@@ 167
weight 167
Al@@ 166
DC 166
Ex@@ 166
estate 166
everywhere 166
immigrants 166
overcome 166
2002 165
allowing 165
declared 165
room 165
schools 165
visit 165
2.@@ 164
bottom 164
bre@@ 164
entirely 164
mic 164
promoting 164
ratio 164
slowdown 164
twenty 164
typically 164
HIV 163
Then 163
cle@@ 163
considerable 163
host 163
kes@@ 163
loo@@ 163
measure 163
sell 163
structures 163
unity 163
Hong 162
causing 162
enable 162
est@@ 162
fears 162
flo@@ 162
geopolitical 162
hardly 162
im@@ 162
implemented 162
positions 162
son 162
stance 162
studies 162
tors 162
works 162
Organization 161
Paris 161
bear 161
cycle 161
deflation 161
ences 161
possibly 161
presence 161
publi@@ 161
ris@@ 161
signs 161
whereas 161
yed 161
1970 160
T 160
affected 160
authoritarian 160
combination 160
ev@@ 160
flow 160
ine 160
r 160
relief 160
scientists 160
shape 160
strengthening 160
underlying 160
Ad@@ 159
Democrats 159
Revolution 159
Taliban 159
Un@@ 159
colle@@ 159
court 159
def@@ 159
implications 159
kept 159
leverage 159
opening 159
planet 159
stands 159
tru@@ 159
turning 159
Be@@ 158
Lo@@ 158
Turkish 158
ach@@ 158
born 158
complete 158
contribute 158
electricity 158
els 158
estimates 158
fra@@ 158
revenue 158
setting 158
speci@@ 158
.5 157
Kong 157
die 157
far@@ 157
gave 157
ki@@ 157
oned 157
pace 157
product 157
strategies 157
ung@@ 157
AIDS 156
Indonesia 156
Parliament 156
choices 156
deeper 156
gained 156
historic 156
inci@@ 156
liber@@ 156
playing 156
proposals 156
securities 156
October 155
Under 155
Wall 155
ining 155
occurred 155
practices 155
sha@@ 155
transparency 155
Mo@@ 154
accepted 154
adopt 154
backed 154
civilian 154
co 154
compromise 154
continu@@ 154
died 154
friends 154
losing 154
mistake 154
objectives 154
occur 154
ration 154
reasonable 154
resource 154
surprise 154
developments 153
dialogue 153
dramatic 153
extremely 153
fallen 153
includes 153
minority 153
sting 153
Communist 152
Our 152
Z@@ 152
arrangements 152
ast@@ 152
balanced 152
date 152
fle@@ 152
grown 152
juga 152
mortgage 152
opponents 152
paying 152
renminbi 152
scenario 152
secular 152
suffer 152
summer 152
18 151
3@@ 151
Depression 151
Other 151
acy 151
aggregate 151
cen@@ 151
char@@ 151
closed 151
concept 151
moderate 151
nowadays 151
resi@@ 151
shocks 151
stra@@ 151
super@@ 151
whatever 151
CAMBRIDGE 150
Copenhagen 150
Euro 150
Merkel 150
baru 150
bio@@ 150
determine 150
disp@@ 150
dominated 150
dramatically 150
faith 150
fewer 150
front 150
ideological 150
mark 150
secara 150
served 150
solve 150
und@@ 150
Si@@ 149
ately 149
cri@@ 149
gan@@ 149
genetic 149
heavily 149
ideology 149
lessons 149
offered 149
posed 149
wn 149
word 149
Blair 148
acts 148
dence 148
ensuring 148
gen@@ 148
genuine 148
gly 148
issued 148
keeping 148
mel@@ 148
observers 148
prepared 148
regulators 148
restructuring 148
settlement 148
tell 148
ths 148
universities 148
An@@ 147
Or 147
Palestine 147
Will 147
bro@@ 147
ct@@ 147
distribution 147
edi@@ 147
exposed 147
formal 147
humanitarian 147
objective 147
oc@@ 147
oper@@ 147
proved 147
ra 147
religion 147
Gu@@ 146
Nobel 146
arti@@ 146
borrow 146
commitments 146
communist 146
demonstrated 146
race 146
sla@@ 146
speak 146
understood 146
via 146
Here 145
Islamist 145
cal@@ 145
compete 145
conference 145
crime 145
declining 145
defeat 145
dra@@ 145
driving 145
economically 145
educated 145
gin@@ 145
invasion 145
mechanism 145
none 145
pped 145
signed 145
transfer 145
transformation 145
ures 145
45 144
Ho@@ 144
Li@@ 144
Nevertheless 144
Republicans 144
University 144
board 144
dynamic 144
ency 144
ill 144
immediately 144
ka@@ 144
ker@@ 144
malaria 144
meaning 144
meny@@ 144
nationalist 144
perceived 144
represents 144
senior 144
sustain 144
tan@@ 144
technical 144
terror 144
unded 144
17 143
achieving 143
actors 143
aim 143
amp@@ 143
eight 143
gender 143
id 143
nationalism 143
priorities 143
ps 143
Hezbollah 142
Pacific 142
Two 142
addressed 142
advance 142
carry 142
cli@@ 142
credible 142
emerge 142
expanding 142
fer@@ 142
ft 142
options 142
polls 142
sharing 142
trans@@ 142
vari@@ 142
Australia 141
Israelis 141
Na@@ 141
alist 141
begun 141
cheap 141
conver@@ 141
defend 141
dent 141
divi@@ 141
generations 141
ka 141
ph@@ 141
says 141
suffered 141
surprising 141
useful 141
E 140
Just 140
capable 140
communism 140
confront 140
eli@@ 140
engage 140
happens 140
initiatives 140
linked 140
seven 140
sis 140
starting 140
surely 140
territory 140
votes 140
wider 140
En@@ 139
Me@@ 139
Vietnam 139
agriculture 139
amounts 139
amp 139
atau 139
bagi 139
contributed 139
elites 139
expand 139
knows 139
ler 139
modest 139
ong 139
perspective 139
pressures 139
que 139
recognition 139
repeatedly 139
reports 139
represent 139
tin@@ 139
trends 139
unlike 139
wind 139
500 138
Ab@@ 138
Le@@ 138
aggressive 138
air@@ 138
battle 138
bringing 138
ching 138
clean 138
criticism 138
fixed 138
flexibility 138
insi@@ 138
maintaining 138
mechanisms 138
met@@ 138
physical 138
proliferation 138
rejected 138
sli@@ 138
sort 138
sub 138
uring 138
Jewish 137
Kim 137
Pro@@ 137
comple@@ 137
dependence 137
enterprises 137
prop@@ 137
pushed 137
quantitative 137
restrictions 137
tual 137
virtually 137
! 136
aries 136
asi@@ 136
ban 136
eri@@ 136
exactly 136
felt 136
fueled 136
ger@@ 136
incentive 136
joint 136
leads 136
legacy 136
mandate 136
planning 136
reali@@ 136
scope 136
tradition 136
1989 135
Christian 135
ani@@ 135
bit 135
constraints 135
den 135
discussion 135
down@@ 135
emp@@ 135
enhance 135
menjadi 135
players 135
profound 135
sto@@ 135
survive 135
television 135
threatened 135
unsustainable 135
1999 134
appeal 134
cover 134
equivalent 134
exit 134
fate 134
fire 134
lat@@ 134
ministers 134
placed 134
purpose 134
putting 134
refugee 134
ster 134
supplies 134
tests 134
un 134
va@@ 134
90 133
Consider 133
Dutch 133
Foreign 133
completely 133
coun@@ 133
described 133
figure 133
fu@@ 133
healthy 133
iling 133
medium 133
northern 133
ori@@ 133
passed 133
relevant 133
stake 133
wan@@ 133
withdrawal 133
z 133
Moscow 132
Until 132
acting 132
blo@@ 132
capit@@ 132
cating 132
costly 132
ell 132
emergence 132
emergency 132
essentially 132
head@@ 132
hol@@ 132
imagine 132
moved 132
oleh 132
risky 132
treated 132
viable 132
yield 132
August 131
Sweden 131
angan 131
cles 131
corporations 131
educational 131
ese 131
extra 131
ner 131
ner@@ 131
plants 131
sel@@ 131
star@@ 131
systemic 131
ther 131
tro@@ 131
voting 131
· 131
1997 130
April 130
Committee 130
Italian 130
S 130
Serbia 130
actual 130
budgets 130
depression 130
design 130
ekonomi 130
expenditures 130
extended 130
girls 130
han 130
hopes 130
institution 130
pass 130
remaining 130
san@@ 130
series 130
supporting 130
survival 130
unique 130
Abe 129
Chancellor 129
Th@@ 129
asser@@ 129
bailout 129
condition 129
convinced 129
corrupt 129
enlargement 129
establishing 129
figures 129
grew 129
itu 129
lan@@ 129
multi@@ 129
peoples 129
predi@@ 129
reflected 129
rin@@ 129
stress 129
surpluses 129
trouble 129
volatility 129
т@@ 129
No@@ 128
OECD 128
Once 128
Portugal 128
assume 128
billions 128
bul@@ 128
compla@@ 128
failing 128
happy 128
ku@@ 128
networks 128
robust 128
rulers 128
sent 128
team 128
thy 128
trial 128
urgent 128
vis 128
woman 128
Cameron 127
Yes 127
appreciation 127
atory 127
brain 127
connected 127
consolidation 127
embrace 127
employees 127
ff 127
fis@@ 127
heads 127
holds 127
image 127
nu@@ 127
opposed 127
pattern 127
pose 127
producers 127
requirements 127
strongly 127
5@@ 126
Gulf 126
Netherlands 126
concerning 126
correc@@ 126
domin@@ 126
downturn 126
drop 126
dy 126
eing 126
estimate 126
got 126
heavy 126
hen@@ 126
hu@@ 126
importantly 126
inevitably 126
lea@@ 126
managing 126
not@@ 126
occupation 126
operate 126
perubahan 126
primarily 126
quo 126
soldiers 126
tor@@ 126
tough 126
viol@@ 126
weakness 126
Beijing 125
ah@@ 125
ard 125
aware 125
bes 125
closely 125
cru@@ 125
ert 125
form@@ 125
gan 125
humanity 125
included 125
integrated 125
lic@@ 125
nominal 125
notion 125
pain 125
ping 125
practical 125
qui@@ 125
rene@@ 125
replace 125
sales 125
ser@@ 125
shing 125
sign@@ 125
stay 125
Defense 124
Ne@@ 124
add 124
annually 124
arguments 124
attempts 124
attractive 124
badly 124
carried 124
centuries 124
dar@@ 124
ere@@ 124
ery 124
financed 124
ied 124
iklim 124
ise 124
kin@@ 124
latter 124
logic 124
opposite 124
shi@@ 124
speed 124
Governments 123
Nigeria 123
aling 123
apparent 123
cap@@ 123
doesn 123
earnings 123
fragile 123
function 123
gradually 123
homes 123
mere 123
oning 123
paper 123
profit 123
rea@@ 123
tain@@ 123
visible 123
vit@@ 123
wh@@ 123
youth 123
14 122
Atlantic 122
M 122
O 122
Stability 122
adequate 122
ages 122
atan 122
atives 122
ats 122
bing 122
consistent 122
eg@@ 122
encouraging 122
flexible 122
hours 122
ian 122
ignore 122
parents 122
partner 122
professional 122
prote@@ 122
pushing 122
regarded 122
remarkable 122
ron@@ 122
sequ@@ 122
shock 122
stagnation 122
transfers 122
200 121
Egyptian 121
N 121
contain 121
contracts 121
gives 121
ker 121
kers 121
multi 121
organized 121
package 121
replaced 121
ruled 121
welcome 121
Do@@ 120
Man@@ 120
Sea 120
Street 120
bubbles 120
calling 120
cells 120
chaos 120
chief 120
discipline 120
dream 120
equally 120
fli@@ 120
identify 120
killing 120
obligations 120
sexual 120
temp@@ 120
threaten 120
February 119
R 119
af@@ 119
cars 119
falls 119
hand@@ 119
instruments 119
lasting 119
marked 119
ological 119
os 119
pointed 119
stat@@ 119
wake 119
weaker 119
13 118
Growth 118
Jordan 118
QE 118
Still 118
analy@@ 118
cau@@ 118
centers 118
critics 118
ends 118
equality 118
explo@@ 118
extend 118
extra@@ 118
failures 118
ghter 118
notably 118
partnership 118
pollution 118
published 118
realize 118
saying 118
sely 118
sible 118
solar 118
stimulate 118
suggested 118
telah 118
weakening 118
1998 117
Cuba 117
England 117
Pen@@ 117
accompanied 117
ada 117
collapsed 117
contra@@ 117
criminal 117
equ@@ 117
ff@@ 117
forcing 117
lity 117
memper@@ 117
narrow 117
ownership 117
ran@@ 117
resulted 117
someone 117
ther@@ 117
wrote 117
75 116
Canada 116
F 116
Mubarak 116
My 116
So@@ 116
alike 116
any@@ 116
decisive 116
direc@@ 116
finding 116
harder 116
initial 116
joined 116
participants 116
processes 116
reported 116
root 116
stem 116
unions 116
Ba@@ 115
Jews 115
Mar@@ 115
Nonetheless 115
Social 115
cla@@ 115
courts 115
dominant 115
hab@@ 115
han@@ 115
ins@@ 115
person@@ 115
previously 115
reserve 115
sheets 115
supposedly 115
threatening 115
treat 115
unds 115
allows 114
concluded 114
eti@@ 114
functioning 114
ghts 114
humans 114
ies 114
imm@@ 114
implementation 114
inten@@ 114
managers 114
operation 114
proven 114
reaction 114
taxpayers 114
wave 114
1960 113
35 113
Any 113
Climate 113
True 113
Venezuela 113
addressing 113
backing 113
cast 113
charge 113
destroy 113
dictatorship 113
expressed 113
interventions 113
introduced 113
ir 113
ji@@ 113
kem@@ 113
material 113
minimum 113
mobile 113
mortgages 113
protecting 113
publicly 113
surprisingly 113
swe@@ 113
tech 113
transparent 113
б@@ 113
7@@ 112
Ha@@ 112
Hungary 112
Unlike 112
bel@@ 112
birth 112
daily 112
divide 112
exception 112
headed 112
ko@@ 112
parti@@ 112
pat@@ 112
periphery 112
refused 112
regardless 112
skilled 112
sy@@ 112
users 112
ws 112
у@@ 112
Much 111
WASHINGTON 111
bor@@ 111
claimed 111
devastating 111
discrimination 111
elements 111
gate 111
journalists 111
pol@@ 111
prison 111
promising 111
rational 111
roots 111
simultaneously 111
variety 111
voice 111
worried 111
1991 110
6@@ 110
appe@@ 110
bodies 110
bol@@ 110
buying 110
civilians 110
cyclical 110
demonstrate 110
executive 110
existence 110
eyes 110
gation 110
jo@@ 110
lon@@ 110
mm@@ 110
nineteenth 110
online 110
producing 110
seperti 110
shareholders 110
stated 110
undermining 110
1930 109
WTO 109
alizing 109
and@@ 109
ca 109
charges 109
consequence 109
define 109
enemy 109
engaged 109
enter 109
except 109
extraordinary 109
len@@ 109
mutual 109
newly 109
non@@ 109
olo@@ 109
opened 109
provo@@ 109
pul@@ 109
pursuing 109
refer@@ 109
reliable 109
resort 109
rose 109
species 109
strike 109
successfully 109
transport 109
turmoil 109
3.@@ 108
Berlin 108
Di@@ 108
Donald 108
Paul 108
boosting 108
conduct 108
contradi@@ 108
creates 108
dec@@ 108
din@@ 108
encouraged 108
energi 108
expense 108
facilities 108
gener@@ 108
intensi@@ 108
kinds 108
kon@@ 108
learning 108
mil@@ 108
mistakes 108
momentum 108
oriented 108
preventing 108
protest 108
ral 108
sal@@ 108
terhadap 108
university 108
valuable 108
warning 108
Ar@@ 107
Countries 107
Da@@ 107
Fortunately 107
Keynes 107
Kyoto 107
Wor@@ 107
advice 107
applied 107
ath 107
cat@@ 107
confrontation 107
dro@@ 107
escape 107
exercise 107
famous 107
foundation 107
hanya 107
inside 107
lie 107
lob@@ 107
mur@@ 107
read 107
somewhat 107
taining 107
usual 107
wealthy 107
д@@ 107
Human 106
contributions 106
coordination 106
correct 106
dealing 106
effectiveness 106
father 106
gro@@ 106
harm 106
helps 106
influ@@ 106
mention 106
moun@@ 106
purchases 106
quarters 106
recover 106
returned 106
sama 106
satu 106
stories 106
turns 106
16 105
1@@ 105
Polish 105
Spring 105
approval 105
bla@@ 105
black 105
blood 105
bly 105
bold 105
capabilities 105
chan@@ 105
compensation 105
coup 105
cr@@ 105
deb@@ 105
demographic 105
ep 105
explanation 105
expression 105
focusing 105
fore@@ 105
fundamentally 105
generated 105
identi@@ 105
insist 105
lying 105
medicine 105
mes 105
onto 105
organi@@ 105
pemerintah 105
responses 105
rises 105
showed 105
ss 105
stu@@ 105
table 105
е@@ 105
л@@ 105
қ@@ 105
19 104
David 104
St@@ 104
acc@@ 104
asan 104
assumed 104
car 104
conducted 104
embar@@ 104
investing 104
manner 104
micro@@ 104
network 104
nine 104
pra@@ 104
prece@@ 104
predict 104
remember 104
reverse 104
scar@@ 104
separate 104
statement 104
sustainability 104
territorial 104
ton 104
track 104
types 104
united 104
1990s 103
Chile 103
Constitution 103
Germans 103
Lu@@ 103
advances 103
ble@@ 103
cations 103
cell 103
coordinated 103
dan@@ 103
door 103
ele@@ 103
eliminate 103
empire 103
ets 103
facts 103
granted 103
hard@@ 103
je@@ 103
launch 103
lived 103
mainstream 103
poli@@ 103
search 103
showing 103
stopped 103
stor@@ 103
substantially 103
uan 103
ung 103
var@@ 103
voted 103
Brussels 102
admi@@ 102
aled 102
antly 102
aw@@ 102
brings 102
cent@@ 102
computer 102
contribution 102
delivered 102
directed 102
ear@@ 102
engagement 102
ess@@ 102
gn@@ 102
grounds 102
heard 102
hon@@ 102
hunger 102
import 102
law@@ 102
link 102
may@@ 102
orang 102
pan@@ 102
prefer 102
responsibilities 102
ships 102
short@@ 102
site 102
stabilize 102
strengthened 102
targeted 102
triggered 102
weakened 102
20@@ 101
Berlusconi 101
CA@@ 101
accounting 101
cated 101
cent 101
count 101
demanding 101
dened 101
eastern 101
ensu@@ 101
equipment 101
finances 101
high@@ 101
kil@@ 101
mobility 101
negotiating 101
operating 101
ored 101
ped 101
purchase 101
respon@@ 101
retirement 101
roads 101
slowly 101
sophisticated 101
tragedy 101
transform 101
ultimate 101
vigor@@ 101
wal@@ 101
wer 101
wish 101
м@@ 101
2030 100
Energy 100
Ri@@ 100
Spanish 100
Tunisia 100
alternatives 100
ambitious 100
ands 100
apparently 100
books 100
commit 100
cture 100
destroyed 100
enjoy 100
ero@@ 100
fit 100
generating 100
justify 100
ology 100
oni@@ 100
presidents 100
realistic 100
rightly 100
tics 100
val 100
weaken 100
Bar@@ 99
Furthermore 99
PARIS 99
Pact 99
She 99
Yemen 99
accused 99
adv@@ 99
ambitions 99
approaches 99
aring 99
aside 99
conclusion 99
cratic 99
diverse 99
dri@@ 99
female 99
gaining 99
gets 99
greenhouse 99
guarantees 99
illegal 99
innovative 99
patterns 99
pel@@ 99
released 99
renewed 99
rescue 99
sea 99
sentiment 99
unemployed 99
wisdom 99
yen 99
Pakistani 98
accountability 98
ade 98
arch@@ 98
attract 98
bankruptcy 98
bl@@ 98
capture 98
cti@@ 98
discussions 98
disputes 98
draw 98
enforcement 98
expanded 98
fails 98
fri@@ 98
funded 98
ier 98
inadequate 98
ki 98
minorities 98
mit@@ 98
occupied 98
ologi@@ 98
ories 98
pl@@ 98
preserve 98
proportion 98
rati@@ 98
responded 98
revolutionary 98
seemingly 98
successor 98
thirds 98
write 98
Dis@@ 97
Sudan 97
Vi@@ 97
accession 97
ased 97
bility 97
bran@@ 97
colleagues 97
crow@@ 97
debates 97
difficulties 97
disin@@ 97
displaced 97
drawn 97
ease 97
emphasis 97
happening 97
hei@@ 97
impressive 97
intensive 97
por@@ 97
smo@@ 97
subsequent 97
uncertain 97
weapon 97
2020 96
Burma 96
Mediterranean 96
academic 96
aftermath 96
believes 96
br@@ 96
digital 96
engineering 96
evident 96
exists 96
gl@@ 96
involvement 96
lied 96
mal@@ 96
measured 96
modi@@ 96
neighboring 96
regarding 96
suddenly 96
tool 96
ture 96
twice 96
upaya 96
8@@ 95
Mao 95
advantages 95
bill 95
cals 95
chronic 95
cious 95
cl@@ 95
communications 95
complicated 95
custo@@ 95
declined 95
deri@@ 95
dies 95
governmental 95
impe@@ 95
inclusive 95
inflows 95
insur@@ 95
invested 95
itable 95
kill 95
missile 95
norms 95
offset 95
overwhelming 95
planned 95
poorer 95
presented 95
quanti@@ 95
reass@@ 95
reputation 95
seats 95
sele@@ 95
sheet 95
shifting 95
sumber 95
surge 95
thanks 95
vie@@ 95
с@@ 95
1950 94
Denmark 94
Investment 94
absolute 94
affordable 94
ai 94
argues 94
broadly 94
division 94
examples 94
fre@@ 94
ised 94
leaves 94
obje@@ 94
openly 94
painful 94
participate 94
sebagai 94
seeks 94
selling 94
staff 94
tas 94
wait 94
а@@ 94
-@@ 93
Arabs 93
Before 93
Chirac 93
Rights 93
Thailand 93
abuse 93
appeared 93
archy 93
au 93
component 93
consistently 93
enemies 93
enses 93
ering 93
ethical 93
exclu@@ 93
fold 93
gradu@@ 93
ire 93
moves 93
my@@ 93
ns 93
original 93
ow@@ 93
predicted 93
proper 93
pursued 93
represented 93
rup@@ 93
spirit 93
starters 93
streets 93
tal@@ 93
transformed 93
uldn 93
white 93
written 93
... 92
Among 92
Comm@@ 92
Erdoğan 92
Singapore 92
You 92
acceptable 92
allo@@ 92
assi@@ 92
banyak 92
barely 92
bin@@ 92
extremism 92
facilitate 92
frequently 92
governing 92
hour 92
iled 92
implementing 92
makers 92
mer 92
off@@ 92
openness 92
pan 92
popularity 92
send 92
south 92
succeeded 92
tar@@ 92
ternal 92
transactions 92
winning 92
wonder 92
ал@@ 92
ISIS 91
La@@ 91
Ra@@ 91
Supreme 91
arri@@ 91
assessment 91
brutal 91
combat 91
creative 91
diversity 91
dness 91
employers 91
escal@@ 91
evolution 91
improvement 91
index 91
knew 91
neo 91
oral 91
pal@@ 91
power@@ 91
protected 91
rating 91
realities 91
reliance 91
reti@@ 91
shares 91
taxation 91
transi@@ 91
utes 91
vis@@ 91
yields 91
Abbas 90
California 90
Car@@ 90
Chávez 90
For@@ 90
Ju@@ 90
Ni@@ 90
abandon 90
ale 90
ath@@ 90
command 90
conf@@ 90
diversi@@ 90
gal@@ 90
ideal 90
int 90
lers 90
ment@@ 90
mus@@ 90
ng 90
peak 90
politician 90
reco@@ 90
representatives 90
repression 90
sia 90
sit 90
sters 90
undermined 90
vehicles 90
2016 89
Czech 89
Government 89
Medvedev 89
Others 89
Qu@@ 89
activists 89
agency 89
art 89
ay@@ 89
break@@ 89
broad@@ 89
carefully 89
cip@@ 89
dead 89
decre@@ 89
dispute 89
downward 89
facilit@@ 89
greatly 89
gri@@ 89
ide@@ 89
improvements 89
lacks 89
lier 89
liter@@ 89
minds 89
persu@@ 89
protectionism 89
resist 89
review 89
ries 89
runs 89
saved 89
significance 89
spring 89
squ@@ 89
ster@@ 89
street 89
tain 89
tionally 89
ute 89
к@@ 89
Bu@@ 88
Colombia 88
Fatah 88
Greenspan 88
Khamenei 88
King 88
Robert 88
Saharan 88
Senate 88
Stalin 88
aded 88
aff@@ 88
aking 88
animals 88
apply 88
assumption 88
bigger 88
bon@@ 88
borrowers 88
characterized 88
cho@@ 88
cism 88
clu@@ 88
convince 88
diss@@ 88
entrepreneurs 88
explained 88
generous 88
imperative 88
initially 88
istic 88
justified 88
maintained 88
panic 88
prevented 88
retain 88
shifts 88
soci@@ 88
solid 88
sudah 88
sum 88
tends 88
tho@@ 88
work@@ 88
-- 87
22 87
Ahmadinejad 87
Hussein 87
Recent 87
adap@@ 87
administ@@ 87
adverse 87
chemical 87
concentrated 87
constra@@ 87
ctors 87
depreciation 87
dest 87
doctors 87
earn 87
enabling 87
gement 87
gged 87
hear 87
inflationary 87
ited 87
lain 87
modernization 87
ne 87
negotiate 87
revealed 87
richer 87
secret 87
sensitive 87
sky 87
tionary 87
und 87
waste 87
with@@ 87
1992 86
27 86
300 86
Health 86
Xi 86
accountable 86
advocates 86
aged 86
aman 86
atten@@ 86
cement 86
deposits 86
diver@@ 86
epidemic 86
ession 86
extremists 86
fought 86
hedge 86
ignored 86
influential 86
ko 86
lement 86
links 86
marks 86
normali@@ 86
nur@@ 86
patient 86
plant 86
recru@@ 86
sensible 86
serving 86
struggling 86
suicide 86
thro@@ 86
undoubtedly 86
Agency 85
Agreement 85
Ameri@@ 85
Every 85
Romania 85
Sur@@ 85
ach 85
alle@@ 85
anniversary 85
comb@@ 85
deals 85
determination 85
discre@@ 85
hundred 85
iring 85
island 85
judge 85
limiting 85
looked 85
physi@@ 85
pragmatic 85
prolonged 85
purposes 85
repeated 85
scheme 85
sight 85
sold 85
spar@@ 85
strikes 85
ug@@ 85
unfair 85
English 84
Forum 84
Malaysia 84
TV 84
benefited 84
cyber 84
dangers 84
defe@@ 84
devaluation 84
enabled 84
evil 84
fasc@@ 84
fies 84
fresh 84
gam@@ 84
gradual 84
hoped 84
ils 84
im 84
lined 84
memory 84
minded 84
offering 84
oppose 84
outright 84
pe 84
perception 84
prosperous 84
quali@@ 84
refusal 84
travel 84
unification 84
urgently 84
ASEAN 83
Bill 83
Doha 83
Fa@@ 83
Musharraf 83
Netanyahu 83
Partnership 83
Q@@ 83
Reagan 83
Should 83
White 83
abandoned 83
accommo@@ 83
aims 83
animal 83
anya 83
approved 83
bir@@ 83
chain 83
chose 83
circle 83
damaging 83
dering 83
dges 83
didn 83
em 83
encies 83
exemp@@ 83
expenditure 83
express 83
fourth 83
grade 83
identified 83
imposing 83
insufficient 83
investasi 83
ishing 83
isolation 83
judges 83
ken@@ 83
lities 83
materials 83
meaningful 83
migra@@ 83
mobili@@ 83
neighbor 83
plan@@ 83
policymaking 83
prepare 83
properly 83
reluctant 83
shifted 83
sites 83
stocks 83
surveillance 83
tested 83
tolerance 83
tran@@ 83
underp@@ 83
win@@ 83
à 83
1.5 82
15@@ 82
24 82
Alliance 82
Brotherhood 82
Peace 82
Plan 82
Po@@ 82
Public 82
Yeltsin 82
actively 82
ber 82
challenging 82
cir@@ 82
condem@@ 82
definition 82
desirable 82
dings 82
eu@@ 82
favorable 82
features 82
ich 82
interested 82
kebijakan 82
monopoly 82
mounting 82
multiple 82
ourselves 82
outlook 82
perfect 82
portra@@ 82
prisoners 82
remin@@ 82
seeing 82
slower 82
statements 82
stered 82
sudden 82
tle 82
unt 82
vent 82
west 82
Afghan 81
B 81
Bernanke 81
Bo@@ 81
Irish 81
Qaddafi 81
Who 81
adapt 81
adjustments 81
ambi@@ 81
analysts 81
ars 81
by@@ 81
celebra@@ 81
cket 81
convergence 81
counterparts 81
ean 81
exceed 81
false 81
fields 81
fla@@ 81
founded 81
genes 81
gr@@ 81
imperial 81
inefficient 81
innovations 81
intervene 81
loan 81
match 81
meetings 81
mous 81
negotiated 81
older 81
payment 81
post@@ 81
prominent 81
requiring 81
resem@@ 81
survey 81
tation 81
wa 81
ye@@ 81
yo@@ 81
1945 80
2050 80
Authority 80
City 80
Each 80
Lea@@ 80
Mi@@ 80
To@@ 80
abuses 80
achievements 80
albeit 80
appreciate 80
atively 80
broken 80
cha@@ 80
compar@@ 80
contemporary 80
dominance 80
donors 80
ec@@ 80
essed 80
evalu@@ 80
exc@@ 80
fairly 80
gent 80
gic 80
globally 80
guide 80
ing@@ 80
investig@@ 80
lend 80
liberty 80
mal 80
nonetheless 80
ol 80
om 80
onic 80
ort 80
performing 80
phy 80
purchasing 80
ration@@ 80
reductions 80
renewable 80
severely 80
sex 80
shaped 80
signal 80
speculative 80
starts 80
stone 80
trigger 80
ub@@ 80
voices 80
warned 80
wat@@ 80
0s 79
Angela 79
Convention 79
Justice 79
Mon@@ 79
Northern 79
Or@@ 79
Policy 79
Summit 79
Ti@@ 79
Whether 79
adjusted 79
avoiding 79
communication 79
conc@@ 79
coverage 79
criti@@ 79
dently 79
depres@@ 79
dging 79
dia 79
eager 79
eted 79
fal@@ 79
gun 79
ili@@ 79
inability 79
liabilities 79
lock 79
missing 79
mix 79
moder@@ 79
monitoring 79
pay@@ 79
persistent 79
plays 79
ple@@ 79
poorly 79
predictable 79
principal 79
propo@@ 79
puts 79
rable 79
rare 79
rarely 79
reduces 79
relationships 79
riti@@ 79
rooted 79
sees 79
slo@@ 79
sor@@ 79
ta 79
unstable 79
valued 79
waiting 79
ы 79
28 78
Ber@@ 78
Department 78
Hu 78
Morsi 78
Switzerland 78
Tu@@ 78
Unless 78
achievement 78
breaking 78
caught 78
cheaper 78
comparable 78
compo@@ 78
cro@@ 78
cross@@ 78
customers 78
electorate 78
explains 78
feeling 78
fil@@ 78
fron@@ 78
gar 78
judiciary 78
lag 78
mani@@ 78
manipulation 78
marriage 78
methods 78
new@@ 78
noted 78
privatization 78
projected 78
propaganda 78
raises 78
reck@@ 78
recognizing 78
slightly 78
stering 78
talent 78
targeting 78
tering 78
tur@@ 78
unilateral 78
Ben@@ 77
Le 77
Nuclear 77
Shi@@ 77
Spe@@ 77
Ukrainian 77
ap 77
atas 77
attacked 77
bah@@ 77
bailouts 77
ben@@ 77
bers 77
bled 77
channels 77
chosen 77
claiming 77
competing 77
constant 77
contemp@@ 77
delay 77
deli@@ 77
diagno@@ 77
disap@@ 77
doctrine 77
dying 77
ei@@ 77
eliminating 77
engine 77
evol@@ 77
forever 77
gering 77
guar@@ 77
hak 77
hidup 77
informed 77
intentions 77
internationally 77
kep@@ 77
murder 77
od 77
ologists 77
oppres@@ 77
phenomenon 77
pressing 77
pricing 77
prin@@ 77
reject 77
responding 77
risen 77
rival 77
sett@@ 77
sors 77
statistics 77
steel 77
tendency 77
tens 77
thers 77
tively 77
tou@@ 77
toxic 77
volatile 77
1995 76
23 76
Assembly 76
Austria 76
Hitler 76
Men@@ 76
Ta@@ 76
Three 76
accurate 76
acknowledge 76
administrative 76
anak 76
anan 76
ani 76
arise 76
ash@@ 76
chi@@ 76
considerably 76
destructive 76
disasters 76
discovered 76
distri@@ 76
divisions 76
don@@ 76
floo@@ 76
fro@@ 76
geneti@@ 76
hero@@ 76
intense 76
investor 76
involve 76
lay 76
obviously 76
ok 76
ousness 76
persuade 76
polar 76
provision 76
pur@@ 76
regi@@ 76
researchers 76
reversed 76
sat@@ 76
secre@@ 76
subsidi@@ 76
tent@@ 76
trials 76
unding 76
vation 76
wel@@ 76
workforce 76
а 76
п@@ 76
1994 75
Cha@@ 75
Change 75
High 75
Millennium 75
None 75
Pre@@ 75
Sh@@ 75
ala 75
anger 75
arian 75
attitudes 75
block 75
capitalist 75
chances 75
cially 75
ckets 75
communi@@ 75
compelling 75
contributing 75
cron@@ 75
demanded 75
descri@@ 75
desperate 75
donor 75
doub@@ 75
element 75
enterprise 75
foundations 75
fueling 75
grand 75
health@@ 75
ie@@ 75
imply 75
kat 75
kes 75
las 75
lated 75
male 75
ore 75
procedures 75
provisions 75
pursuit 75
rever@@ 75
ric 75
rif@@ 75
secondary 75
separ@@ 75
territories 75
thri@@ 75
tioned 75
tor 75
unit 75
western 75
,000 74
196@@ 74
Goals 74
Having 74
He@@ 74
Ja@@ 74
Kenya 74
Myanmar 74
Philippines 74
accelerate 74
adopting 74
ail 74
alar@@ 74
apart 74
assess 74
asylum 74
autonomy 74
avoided 74
cara 74
constitute 74
couple 74
declines 74
dissi@@ 74
distribu@@ 74
edu@@ 74
ement 74
experiences 74
exporters 74
familiar 74
fir@@ 74
fulfill 74
ga 74
illi@@ 74
instru@@ 74
involving 74
ires 74
legislat@@ 74
lenders 74
mortality 74
occa@@ 74
pha@@ 74
phase 74
politik 74
poss@@ 74
produces 74
regulated 74
removed 74
resolved 74
revi@@ 74
scores 74
sets 74
threatens 74
tradable 74
vable 74
virus 74
worthy 74
17@@ 73
4.@@ 73
Army 73
Board 73
Democracy 73
Free 73
Front 73
Hillary 73
Institute 73
Nazi 73
Wa@@ 73
We@@ 73
absor@@ 73
actor 73
ama 73
ater 73
atmosphere 73
awareness 73
beberapa 73
bid 73
blamed 73
challenged 73
character 73
commodities 73
comparison 73
condu@@ 73
considering 73
contract 73
diagnosis 73
displa@@ 73
earth 73
experiencing 73
expertise 73
feed 73
fly 73
genocide 73
geo@@ 73
gn 73
guaranteed 73
historically 73
houses 73
informal 73
maj@@ 73
miti@@ 73
narrative 73
officers 73
professionals 73
restoring 73
shor@@ 73
sional 73
successes 73
sufficiently 73
telling 73
torture 73
triumph 73
ush@@ 73
vice 73
visi@@ 73
weather 73
195@@ 72
Cor@@ 72
Haiti 72
Har@@ 72
Kurdish 72
LA@@ 72
Let 72
Pe@@ 72
TPP 72
Whatever 72
abo@@ 72
accounted 72
asing 72
bahan 72
careful 72
cit 72
colonial 72
confronting 72
content 72
damaged 72
dar 72
dge 72
dilemma 72
diper@@ 72
dire 72
discuss 72
draft 72
embraced 72
entered 72
famously 72
feature 72
fellow 72
fired 72
hostile 72
ice 72
inclusion 72
inspired 72
integra@@ 72
integrity 72
involves 72
lau@@ 72
mes@@ 72
missiles 72
night 72
nomin@@ 72
parallel 72
partisan 72
partnerships 72
penduduk 72
pensions 72
penting 72
perc@@ 72
perform 72
quick 72
ro 72
settlements 72
sistem 72
smart 72
striking 72
supports 72
tan 72
teri@@ 72
thin@@ 72
tribal 72
vy 72
wal 72
é@@ 72
Beyond 71
Clearly 71
Conference 71
Ru@@ 71
alive 71
ancient 71
anxiety 71
arguing 71
asking 71
aspect 71
bai@@ 71
balances 71
binding 71
bles 71
catastrophe 71
code 71
constrained 71
cour@@ 71
criteria 71
dential 71
depriv@@ 71
enhanced 71
entry 71
ex 71
explicitly 71
facto 71
hal 71
incorpor@@ 71
inje@@ 71
joining 71
justi@@ 71
lab@@ 71
land@@ 71
lawyers 71
map 71
mbin@@ 71
mista@@ 71
nowhere 71
plenty 71
port 71
practi@@ 71
ratios 71
recomm@@ 71
reconstruction 71
refuse 71
rol@@ 71
spur 71
struck 71
supervision 71
tackle 71
tah@@ 71
tariffs 71
traditions 71
unrest 71
van@@ 71
vely 71
vention 71
victim 71
Ban@@ 70
Can 70
Cur@@ 70
Eropa 70
Islamists 70
Protocol 70
Southeast 70
TB 70
Tony 70
Yugoslavia 70
accumulation 70
ake 70
alien@@ 70
ania 70
annya 70
background 70
backs 70
bomb 70
centralized 70
chains 70
consi@@ 70
culated 70
dation 70
defen@@ 70
differently 70
doubled 70
ented 70
explosion 70
expor@@ 70
feasible 70
fish 70
foreigners 70
kerja 70
lets 70
love 70
motivated 70
ny 70
obstacles 70
occup@@ 70
ome 70
ordered 70
pas@@ 70
pembangunan 70
protectionist 70
release 70
rent 70
ress 70
ser 70
sian 70
some@@ 70
str@@ 70
summ@@ 70
tax@@ 70
visited 70
writing 70
Cyprus 69
Lisbon 69
Namun 69
Political 69
ables 69
abund@@ 69
acqui@@ 69
adi@@ 69
advis@@ 69
aspects 69
ast 69
attitude 69
boundaries 69
concrete 69
crash 69
ctor 69
deepening 69
dignity 69
disrup@@ 69
distant 69
dua 69
dynamism 69
eled 69
employed 69
exercis@@ 69
faction 69
frequent 69
giant 69
gy 69
hidden 69
indicate 69
ingly 69
interpre@@ 69
introduce 69
kali 69
masih 69
mers 69
mics 69
milit@@ 69
mood 69
naturally 69
picture 69
plurali@@ 69
pride 69
realized 69
rejection 69
ror 69
similarly 69
spo@@ 69
tasks 69
testing 69
tied 69
tion@@ 69
underway 69
units 69
unwilling 69
yes 69
zations 69
ан@@ 69
� 69
5.@@ 68
9@@ 68
Center 68
Consensus 68
DNA 68
Ele@@ 68
Group 68
U 68
WWII 68
acknowledged 68
adjust 68
arrangement 68
attempting 68
catch 68
charged 68
coherent 68
consci@@ 68
contagion 68
creditor 68
ction@@ 68
cultures 68
dance 68
dark 68
executives 68
explicit 68
formation 68
functions 68
heat 68
honor 68
ily 68
implicit 68
induced 68
isolated 68
jud@@ 68
lah 68
masyarakat 68
mobilize 68
nar@@ 68
optimism 68
oting 68
peri@@ 68
progressive 68
radi@@ 68
rat@@ 68
rebalancing 68
rebuild 68
recipi@@ 68
reinforce 68
representative 68
residents 68
scra@@ 68
slowing 68
talking 68
tate 68
traditionally 68
trap 68
ugh 68
vicious 68
watch 68
é 68
ы@@ 68
&#91; 67
&#93; 67
6.@@ 67
Ca@@ 67
Finance 67
Jacques 67
Roma 67
Thatcher 67
abilities 67
abor@@ 67
accepting 67
aker 67
bought 67
bust 67
career 67
cky 67
confident 67
constructive 67
del@@ 67
delivering 67
dropped 67
dul@@ 67
enacted 67
fix 67
fundamentals 67
hence 67
ical 67
individu@@ 67
ineffective 67
integrate 67
interesting 67
irrelevant 67
jeopardi@@ 67
kel@@ 67
margin@@ 67
memiliki 67
numerous 67
ony 67
passing 67
plumm@@ 67
precedent 67
prof@@ 67
pron@@ 67
pru@@ 67
rations 67
raw 67
regular 67
sa 67
sensi@@ 67
serves 67
settled 67
shortage 67
sibly 67
speaking 67
ssi@@ 67
student 67
tarian 67
tele@@ 67
tightening 67
treaties 67
understandable 67
ush 67
warran@@ 67
weak@@ 67
weaknesses 67
wins 67
yiel@@ 67
younger 67
ар@@ 67
1,@@ 66
1980s 66
2.5 66
Are 66
Armen@@ 66
Can@@ 66
Chairman 66
Ci@@ 66
God 66
Google 66
MDGs 66
Pa@@ 66
Pen 66
Prize 66
Romney 66
War@@ 66
analo@@ 66
anc@@ 66
ances 66
announcement 66
aspirations 66
beliefs 66
bombing 66
bs 66
collabor@@ 66
committee 66
commun@@ 66
complexity 66
concep@@ 66
conserv@@ 66
controversial 66
dated 66
desperately 66
destabilizing 66
edge 66
electric 66
eless 66
ening 66
ens@@ 66
ere 66
explor@@ 66
finds 66
fl@@ 66
friendly 66
hegemony 66
hi 66
lowest 66
meantime 66
mity 66
ney 66
receiving 66
recognizes 66
safer 66
sangat 66
seat 66
sion@@ 66
sooner 66
stick 66
stru@@ 66
tactics 66
teachers 66
typical 66
ubling 66
virtual 66
volume 66
wonder@@ 66
xi@@ 66
ай@@ 66
ж@@ 66
р@@ 66
65 65
Bi@@ 65
Ku@@ 65
L 65
Labour 65
Mexican 65
Otherwise 65
Prote@@ 65
Scotland 65
Web 65
Women 65
Worse 65
affects 65
all@@ 65
anticipated 65
assured 65
begins 65
bridge 65
coloni@@ 65
computers 65
concentration 65
confirmed 65
contraction 65
cracy 65
cy@@ 65
dete@@ 65
disastrous 65
distinct 65
ea@@ 65
ened 65
eventual 65
fill 65
formed 65
foster 65
grows 65
hy@@ 65
illness 65
inspe@@ 65
itting 65
kap@@ 65
likelihood 65
mitting 65
our@@ 65
periods 65
pertumbuhan 65
ports 65
preparing 65
regularly 65
relying 65
ressing 65
scarce 65
shadow 65
shar@@ 65
tations 65
tinggi 65
unpredictable 65
vaccine 65
ven 65
vol@@ 65
vulnerability 65
wife 65
н@@ 65
1,000 64
21 64
Brown 64
Ch@@ 64
Hollande 64
Jean 64
Jong 64
PRINCETON 64
Pri@@ 64
Sen@@ 64
Ste@@ 64
alliances 64
arrest 64
article 64
ature 64
behavi@@ 64
broa@@ 64
bureaucracy 64
bureaucrats 64
condemned 64
considerations 64
dd@@ 64
desi@@ 64
disarmament 64
disorder 64
dominate 64
dynamics 64
ef@@ 64
erupted 64
eting 64
exploit 64
fifth 64
followers 64
forecast 64
forests 64
grave 64
gues 64
hurrican@@ 64
imperi@@ 64
interven@@ 64
iting 64
kno@@ 64
lar@@ 64
locked 64
lowering 64
magnitude 64
mother 64
ners 64
oling 64
orate 64
ought 64
ounced 64
plus 64
populism 64
prepar@@ 64
quest 64
restored 64
roles 64
roll 64
s--@@ 64
scor@@ 64
stret@@ 64
stun@@ 64
surro@@ 64
tension 64
ud 64
vested 64
wise 64
Ali 63
Amerika 63
Crimea 63
Par@@ 63
Sel@@ 63
adher@@ 63
adoption 63
agents 63
amoun@@ 63
anywhere 63
apkan 63
appointed 63
arrested 63
ases 63
boo@@ 63
cer 63
cohesion 63
com@@ 63
comfortable 63
competitors 63
convincing 63
cooperative 63
courage 63
defeated 63
dered 63
difficulty 63
east 63
elect 63
elled 63
ensi 63
execu@@ 63
experiment 63
feared 63
foremost 63
fun@@ 63
harga 63
implied 63
innocent 63
ints 63
inva@@ 63
judgment 63
lan 63
marginal 63
moderni@@ 63
narro@@ 63
north 63
observed 63
overseas 63
owners 63
popu@@ 63
posi@@ 63
prior 63
prosecu@@ 63
pull 63
qualified 63
quar@@ 63
ratings 63
reasonably 63
reporting 63
res 63
saat 63
situations 63
sole 63
somehow 63
suff@@ 63
tac@@ 63
upper 63
zi@@ 63
ш@@ 63
і@@ 63
0,000 62
AKP 62
Act 62
EMU 62
Fi@@ 62
Harvard 62
Ke@@ 62
Nicolas 62
Presi@@ 62
Research 62
Yanukovych 62
accelerating 62
acceptance 62
admit 62
allocation 62
alongside 62
amen@@ 62
aran 62
ared 62
arly 62
ato@@ 62
baik 62
bal@@ 62
biology 62
ckers 62
clean@@ 62
conclude 62
confronted 62
cons@@ 62
cular 62
declar@@ 62
declaration 62
devoted 62
doubts 62
drop@@ 62
duty 62
earthquake 62
enjo@@ 62
eye 62
fed 62
flight 62
forecasts 62
forese@@ 62
gene 62
generals 62
gest@@ 62
halt 62
indicators 62
insisted 62
introduction 62
kesehatan 62
labor@@ 62
matic 62
minyak 62
multip@@ 62
neg@@ 62
newspaper 62
newspapers 62
permit 62
piece 62
pil@@ 62
poll 62
prevention 62
problematic 62
question@@ 62
rage 62
ranks 62
redistribution 62
repe@@ 62
respected 62
rity 62
sement 62
speculation 62
sphere 62
ste 62
stood 62
strongest 62
supervis@@ 62
tail@@ 62
ulated 62
unconventional 62
vali@@ 62
wall 62
zz@@ 62
ер@@ 62
12@@ 61
Afrika 61
Big 61
Catholic 61
Equ@@ 61
Iraqis 61
Lebanese 61
McCain 61
accomp@@ 61
aggression 61
alities 61
antibio@@ 61
bit@@ 61
bitter 61
captured 61
cians 61
consu@@ 61
cope 61
cure 61
daya 61
deemed 61
defending 61
demonstrates 61
describe 61
director 61
emplo@@ 61
endor@@ 61
enhancing 61
exporting 61
findings 61
hur@@ 61
hypo@@ 61
ics 61
impor@@ 61
jun@@ 61
legislative 61
mously 61
neighborhood 61
note 61
obtain 61
overwhelmingly 61
para 61
patent 61
phone 61
promoted 61
protesters 61
radic@@ 61
reconciliation 61
relied 61
restri@@ 61
shale 61
signing 61
simpli@@ 61
sition 61
timing 61
tiny 61
trained 61
tty 61
uts 61
vering 61
withdraw 61
witnessed 61
yer 61
yst@@ 61
ze@@ 61
16@@ 60
Day 60
Nor@@ 60
Norway 60
Slo@@ 60
abi@@ 60
acknowle@@ 60
ami 60
anemic 60
berg 60
bloc 60
burdens 60
bureaucratic 60
cataly@@ 60
checks 60
civilization 60
classes 60
commission 60
competence 60
components 60
covered 60
dampak 60
demonstrations 60
denti@@ 60
discontent 60
dre@@ 60
eco@@ 60
evi@@ 60
experi@@ 60
ey 60
fashion 60
follows 60
geographi@@ 60
gun@@ 60
hospital 60
illustra@@ 60
imported 60
indebted 60
indigenous 60
intellectuals 60
interpretation 60
isn 60
kawasan 60
les@@ 60
lous 60
loyalty 60
machine 60
menj@@ 60
mothers 60
offensive 60
partial 60
peas@@ 60
perusahaan 60
platform 60
resilience 60
resur@@ 60
schemes 60
shut 60
sn 60
solely 60
stems 60
systematic 60
tedly 60
thousand 60
transnational 60
troubled 60
tun@@ 60
tured 60
undertaken 60
urs 60
ust 60
vakia 60
vil@@ 60
wards 60
1996 59
Ass@@ 59
BRUSSELS 59
Belarus 59
Belgium 59
Cooperation 59
Cro@@ 59
Di 59
Ebola 59
Keynesian 59
Thin@@ 59
Within 59
aks 59
alistic 59
alleged 59
announ@@ 59
arily 59
bolster 59
campaigns 59
champi@@ 59
commentators 59
critici@@ 59
criticized 59
dal 59
democratically 59
denied 59
dict@@ 59
discourse 59
dismant@@ 59
downside 59
enforce 59
eping 59
equilibrium 59
ern@@ 59
exposure 59
fications 59
film 59
fine 59
fran@@ 59
freely 59
governor 59
grav@@ 59
hea@@ 59
immense 59
impoverished 59
indicated 59
ites 59
looming 59
mencapai 59
mengu@@ 59
origin@@ 59
pays 59
potent 59
pris@@ 59
q@@ 59
reinforced 59
relies 59
retail 59
revive 59
richest 59
scre@@ 59
sent@@ 59
set@@ 59
shel@@ 59
signals 59
silence 59
siveness 59
stand@@ 59
steady 59
stimu@@ 59
stre@@ 59
sy 59
syn@@ 59
tab@@ 59
teams 59
terrible 59
tiful 59
unite 59
vaccines 59
versus 59
winners 59
26 58
Administration 58
Arafat 58
Bosnia 58
Laden 58
Law 58
Market 58
Mem@@ 58
Milosevic 58
RA@@ 58
Recently 58
X@@ 58
absent 58
affecting 58
ander 58
attempted 58
backlash 58
barrel 58
bet 58
bet@@ 58
bling 58
blow 58
camp 58
cap 58
cial 58
collap@@ 58
collateral 58
compatible 58
completed 58
consult@@ 58
conven@@ 58
dead@@ 58
defici@@ 58
democratization 58
denial 58
derivatives 58
destabili@@ 58
determin@@ 58
determining 58
dimen@@ 58
earned 58
emer@@ 58
emphasized 58
enduring 58
entit@@ 58
entrenched 58
essence 58
esti@@ 58
expe@@ 58
extensive 58
flawed 58
fraction 58
gging 58
governed 58
hostility 58
intention 58
isti@@ 58
ken 58
method 58
nis@@ 58
occurring 58
oli@@ 58
ou@@ 58
pasar 58
pointing 58
portfolio 58
preci@@ 58
prev@@ 58
racial 58
rally 58
rampant 58
ranging 58
ried 58
roo@@ 58
selection 58
semakin 58
separati@@ 58
shot 58
silent 58
socialist 58
son@@ 58
stuck 58
succes@@ 58
surface 58
suspect 58
swit@@ 58
tact 58
teknologi 58
temptation 58
therapy 58
thi@@ 58
tism 58
topp@@ 58
tyran@@ 58
uh 58
unacceptable 58
ungan 58
unknown 58
weigh@@ 58
yp@@ 58
150 57
Against 57
Bangladesh 57
Bashar 57
Constitutional 57
Earth 57
Fourth 57
Gates 57
Gorbachev 57
History 57
Jerusalem 57
Non 57
Oil 57
Several 57
Tibet 57
Tur@@ 57
Whereas 57
absol@@ 57
ached 57
acted 57
adding 57
advo@@ 57
advocate 57
arities 57
attracted 57
behave 57
bloody 57
breaks 57
casting 57
commit@@ 57
concei@@ 57
connection 57
contained 57
ctable 57
deta@@ 57
diminished 57
discrimin@@ 57
enti@@ 57
ett@@ 57
expert 57
formu@@ 57
gal 57
gen 57
globe 57
heri@@ 57
homo@@ 57
interference 57
intermedi@@ 57
jumlah 57
kan@@ 57
keeps 57
lance 57
lands 57
langu@@ 57
ll 57
logical 57
macy 57
mana@@ 57
medicines 57
mir@@ 57
mitted 57
mul@@ 57
names 57
obligation 57
orderly 57
pass@@ 57
plausible 57
promp@@ 57
pt 57
rebels 57
rei@@ 57
representation 57
resol@@ 57
resolving 57
ressed 57
rop@@ 57
sectarian 57
skill 57
stabili@@ 57
stalled 57
steadily 57
strict 57
superior 57
superpower 57
tentang 57
threshold 57
treatments 57
veto 57
warnings 57
wings 57
winner 57
worker 57
193@@ 56
1993 56
5,000 56
Ban 56
Brothers 56
Church 56
May@@ 56
NE@@ 56
Rome 56
Sp@@ 56
Swiss 56
Throughout 56
Zimbabwe 56
aboli@@ 56
agre@@ 56
ahan 56
ales 56
amin 56
angry 56
ano@@ 56
api 56
asa 56
atif 56
atri@@ 56
availability 56
cabinet 56
ceiling 56
childhood 56
compensate 56
concessions 56
convi@@ 56
cooperate 56
ctly 56
deep@@ 56
deserve 56
details 56
ek@@ 56
ells 56
emphasi@@ 56
entering 56
extension 56
fairness 56
favored 56
fet@@ 56
focuses 56
foreseeable 56
forget 56
frustration 56
hydro@@ 56
instrument 56
internasional 56
irresponsible 56
lion 56
macro 56
malaise 56
memories 56
mixed 56
monopoli@@ 56
ols 56
optimistic 56
pion@@ 56
plea@@ 56
proof 56
remove 56
revolutions 56
sei@@ 56
sending 56
settle 56
shr@@ 56
slowed 56
step@@ 56
substitute 56
swi@@ 56
tail 56
tful 56
ting@@ 56
utely 56
valu@@ 56
weigh 56
worrying 56
xis 56
Africans 55
At@@ 55
Brazilian 55
Deng 55
EN@@ 55
Emp@@ 55
Five 55
Gaulle 55
Gazprom 55
Mikhail 55
NP 55
NPT 55
Pope 55
Prin@@ 55
Shanghai 55
absorb 55
accelerated 55
accomplished 55
acquire 55
ana 55
arrived 55
assuming 55
assumptions 55
aus@@ 55
avert 55
bargain 55
beha@@ 55
belon@@ 55
bias 55
biological 55
burst 55
carrying 55
coinci@@ 55
collectively 55
confi@@ 55
confron@@ 55
customs 55
decrease 55
depan 55
diplomats 55
discip@@ 55
ell@@ 55
emotional 55
ential 55
exceeds 55
extremist 55
ferti@@ 55
grants 55
gul@@ 55
handed 55
holdings 55
hospitals 55
indicates 55
iron 55
itation 55
jurisdi@@ 55
lag@@ 55
lef@@ 55
lessly 55
lessness 55
losers 55
luxury 55
midst 55
minimal 55
minimize 55
mism 55
morally 55
mutually 55
naval 55
noti@@ 55
occurs 55
od@@ 55
offs 55
origin 55
panel 55
pendidikan 55
prosecut@@ 55
punishment 55
records 55
reflecting 55
regain 55
reinforcing 55
requ@@ 55
scandals 55
secu@@ 55
sexu@@ 55
software 55
squee@@ 55
stabilizing 55
storm 55
survi@@ 55
them@@ 55
transatlantic 55
tsunami 55
violations 55
wers 55
xing 55
и@@ 55
100,000 54
Annan 54
Darfur 54
Far 54
Following 54
Indians 54
Mis@@ 54
Swedish 54
Where 54
alls 54
band 54
beings 54
bin 54
brut@@ 54
buruk 54
care@@ 54
cast@@ 54
cil 54
citizen 54
clash 54
clinical 54
closing 54
consolidate 54
constitutes 54
contains 54
conten@@ 54
controlling 54
credi@@ 54
crude 54
ctures 54
deci@@ 54
demise 54
destroying 54
detailed 54
distortions 54
elev@@ 54
eliminated 54
encourages 54
es--@@ 54
examine 54
exclusive 54
fashi@@ 54
fat@@ 54
fee@@ 54
freedoms 54
fundament@@ 54
grasp 54
hatred 54
homel@@ 54
honest 54
humili@@ 54
hurt 54
ie 54
implying 54
inherent 54
instance 54
inter 54
irs 54
judicial 54
keen 54
laid 54
lements 54
leng@@ 54
margin 54
matu@@ 54
misleading 54
normally 54
ola 54
organize 54
orious 54
ose 54
parliaments 54
peripheral 54
pledged 54
polio 54
prot@@ 54
proud 54
reference 54
rendah 54
resistant 54
sistence 54
sosial 54
stark 54
stemming 54
stran@@ 54
strange 54
tantangan 54
tariff 54
tedness 54
tel@@ 54
thly 54
transfer@@ 54
tt@@ 54
unleash@@ 54
usly 54
well@@ 54
whenever 54
xation 54
zen 54
ке@@ 54
--and 53
400 53
Abdullah 53
Above 53
Association 53
Baltic 53
Ben 53
Does 53
Franco 53
HAVEN 53
IC@@ 53
Ko@@ 53
Pol@@ 53
Recession 53
acquired 53
aggrav@@ 53
allocated 53
answers 53
appro@@ 53
associ@@ 53
bail 53
bes@@ 53
bic 53
breast 53
brink 53
calm 53
characteristics 53
circu@@ 53
circum@@ 53
conce@@ 53
ctivity 53
decent 53
defensive 53
deny 53
depreci@@ 53
depressed 53
devices 53
dibandingkan 53
discoura@@ 53
doomed 53
dozen 53
elu@@ 53
end@@ 53
eradi@@ 53
exacerbated 53
fe 53
flour@@ 53
heating 53
helpful 53
highlights 53
images 53
infectious 53
insu@@ 53
ketika 53
lembaga 53
low@@ 53
manda@@ 53
manipu@@ 53
masi 53
materi@@ 53
melalui 53
member@@ 53
mili@@ 53
mini@@ 53
muni@@ 53
mut@@ 53
namely 53
notice 53
obstacle 53
packages 53
persist 53
poised 53
possibilities 53
postp@@ 53
premium 53
prevailing 53
producer 53
psychological 53
rebel@@ 53
returning 53
reward 53
rical 53
righ@@ 53
sekarang 53
sk 53
skepticism 53
spiral 53
spoke 53
stan@@ 53
statistical 53
suspicion 53
theories 53
tigh@@ 53
tile 53
transform@@ 53
transportation 53
treating 53
tujuan 53
unified 53
upcoming 53
upward 53
vel@@ 53
verse 53
village 53
wary 53
wil@@ 53
нд@@ 53
00,000 52
1970s 52
AL@@ 52
AR@@ 52
Christians 52
Conservative 52
Do 52
ES@@ 52
Hi@@ 52
IS@@ 52
LDP 52
Labor 52
Premier 52
Red 52
Round 52
Stu@@ 52
anism 52
arguably 52
association 52
atkan 52
balancing 52
beneficial 52
betra@@ 52
bom@@ 52
cable 52
ceeded 52
cep@@ 52
chairman 52
confined 52
conservatives 52
das 52
dau@@ 52
decisively 52
delayed 52
deleveraging 52
dent@@ 52
deregulation 52
disa@@ 52
discussed 52
distress 52
dity 52
drawing 52
ein 52
emo@@ 52
enjoyed 52
entities 52
esses 52
excluded 52
fan@@ 52
fanati@@ 52
fear@@ 52
filled 52
finan@@ 52
fraud 52
friend 52
gni@@ 52
grant 52
hamp@@ 52
harmful 52
harmoni@@ 52
hate 52
impris@@ 52
intent 52
invo@@ 52
jal@@ 52
lacking 52
leg@@ 52
lified 52
manifest@@ 52
mathemati@@ 52
measu@@ 52
negotiation 52
nets 52
nutrition 52
obs@@ 52
patri@@ 52
perlu 52
persist@@ 52
pit@@ 52
preserving 52
privile@@ 52
recovered 52
representing 52
rit@@ 52
rivals 52
sake 52
sen 52
shaping 52
spends 52
spiri@@ 52
stagnant 52
struggles 52
sty 52
succession 52
swa@@ 52
tains 52
tengah 52
testi@@ 52
text 52
thinks 52
tight 52
titu@@ 52
tiz@@ 52
tot@@ 52
ultra 52
undermines 52
urbanization 52
vacuum 52
veness 52
warga 52
wind@@ 52
zar@@ 52
з@@ 52
ө@@ 52
10,000 51
2017 51
Ac@@ 51
Balkans 51
Banks 51
Bolivia 51
CE 51
Cup 51
Declaration 51
Ethiopia 51
Fo@@ 51
Friedman 51
Inter@@ 51
Jo@@ 51
Lehman 51
Maastricht 51
Neither 51
Sch@@ 51
Somalia 51
Supp@@ 51
Year 51
accord 51
ahkan 51
altogether 51
architecture 51
assumes 51
authori@@ 51
automatically 51
basi@@ 51
bills 51
blin@@ 51
blood@@ 51
brea@@ 51
calcu@@ 51
ceeding 51
channel 51
congressional 51
connections 51
cop@@ 51
crip@@ 51
cum@@ 51
dealt 51
deflationary 51
deployed 51
deterior@@ 51
deterrence 51
dilakukan 51
diri 51
disadv@@ 51
disintegration 51
distinction 51
documented 51
documents 51
doors 51
dor@@ 51
dozens 51
dubious 51
engine@@ 51
error 51
excessively 51
fulfilling 51
geno@@ 51
globalized 51
grand@@ 51
grie@@ 51
hang 51
home@@ 51
ieties 51
initi@@ 51
initiated 51
inning 51
justification 51
ket@@ 51
meltdown 51
mentary 51
mies 51
mine 51
mits 51
mizing 51
morality 51
named 51
onia 51
orders 51
parity 51
pes 51
pin@@ 51
placing 51
pound 51
practically 51
prefer@@ 51
preferred 51
prevail 51
puzz@@ 51
ref@@ 51
reje@@ 51
reme@@ 51
remote 51
repeat 51
restra@@ 51
seize 51
sighted 51
socially 51
spee@@ 51
spreading 51
stances 51
strategi@@ 51
subsidized 51
tap@@ 51
temperatures 51
tenaga 51
terus 51
tourism 51
transmission 51
unani@@ 51
undertake 51
valence 51
valuation 51
vised 51
voluntary 51
xenopho@@ 51
zones 51
1979 50
Almost 50
Article 50
Bretton 50
Economists 50
FDI 50
H 50
Kerry 50
Mahmoud 50
OPEC 50
Oc@@ 50
Out@@ 50
Pada 50
Rel@@ 50
Square 50
Sub 50
Sunnis 50
Woods 50
accident 50
amend@@ 50
anne@@ 50
asymmet@@ 50
bbed 50
bearing 50
bears 50
bli@@ 50
block@@ 50
breakthrough 50
broke 50
budgetary 50
but@@ 50
charis@@ 50
compromis@@ 50
consume 50
covering 50
crowd 50
cut@@ 50
delivery 50
deni@@ 50
departure 50
deplo@@ 50
diminishing 50
distinguish 50
eds 50
emission 50
emphasize 50
entails 50
escap@@ 50
ethni@@ 50
euros 50
evolved 50
exclusion 50
exi@@ 50
extending 50
extin@@ 50
factory 50
fortunate 50
gaps 50
gated 50
guard 50
heading 50
ignor@@ 50
insurgency 50
interim 50
inward 50
irrational 50
ital 50
keuangan 50
kit 50
lalu 50
lender 50
ligh@@ 50
mation 50
mia 50
minor 50
misguided 50
onds 50
ordinate 50
outstanding 50
pact 50
pap@@ 50
personnel 50
pharmaceutical 50
philosophy 50
player 50
posing 50
pr@@ 50
pragmati@@ 50
promotion 50
purely 50
recall 50
recapit@@ 50
recessions 50
refra@@ 50
resentment 50
rewards 50
rigid 50
sacrifi@@ 50
scienti@@ 50
sektor 50
separation 50
soaring 50
specifically 50
spreads 50
structured 50
suited 50
symbol 50
ti 50
tist 50
toll 50
tough@@ 50
ughts 50
urgency 50
volun@@ 50
wishes 50
о@@ 50
AI@@ 49
Bo 49
Bur@@ 49
Caucasus 49
Churchill 49
Community 49
Cy@@ 49
Everyone 49
Few 49
Foundation 49
Geneva 49
Govern@@ 49
James 49
Liber@@ 49
Marx@@ 49
NA@@ 49
SD@@ 49
Sol@@ 49
USSR 49
accu@@ 49
ace 49
acute 49
adequately 49
adul@@ 49
ambition 49
anks 49
arity 49
audience 49
bargaining 49
beau@@ 49
beg@@ 49
benign 49
berkembang 49
boosted 49
brand 49
brief 49
catastrophic 49
cautious 49
comparative 49
conclusions 49
consideration 49
ctory 49
dang 49
ddling 49
definitely 49
dictator 49
diff@@ 49
discovery 49
document 49
emerges 49
empowered 49
endorsed 49
engaging 49
entrepreneurial 49
eous 49
ference 49
firmly 49
fore 49
formally 49
gian 49
govern 49
gs@@ 49
highlighted 49
histori@@ 49
hyp@@ 49
impede 49
karbon 49
kelompok 49
liti@@ 49
machines 49
melakukan 49
meningkatkan 49
miliar 49
missed 49
nobody 49
notable 49
odds 49
officially 49
oun@@ 49
overly 49
pendapatan 49
pipeline 49
poll@@ 49
profitable 49
prone 49
reading 49
relation 49
request 49
rival@@ 49
saja 49
satis@@ 49
scene 49
sheer 49
shes 49
sil@@ 49
sively 49
solvency 49
stakes 49
suggesting 49
suit 49
suspi@@ 49
sustaining 49
symbolic 49
temporarily 49
termin@@ 49
thrown 49
town 49
usan 49
vastly 49
veri@@ 49
withdra@@ 49
worries 49
і 49
14@@ 48
1967 48
Back 48
Bel@@ 48
Cre@@ 48
Dep@@ 48
Developing 48
El@@ 48
Her 48
Holocaust 48
Kurds 48
MI@@ 48
Mer@@ 48
Microsoft 48
Office 48
Pem@@ 48
Pra@@ 48
Socialist 48
Sustainable 48
Thaksin 48
Tra@@ 48
adverti@@ 48
alam 48
alties 48
appearance 48
artificial 48
ballot 48
bis@@ 48
bondholders 48
calculations 48
cari@@ 48
chur@@ 48
composition 48
countless 48
crops 48
declare 48
defaults 48
deposit 48
dimension 48
disappear 48
disen@@ 48
dismiss 48
drasti@@ 48
dysfunctional 48
envis@@ 48
evolutionary 48
excellent 48
exclusively 48
existed 48
experiments 48
factions 48
favor@@ 48
feelings 48
flaws 48
flood 48
headlines 48
hide 48
hikes 48
hnya 48
impression 48
incapable 48
indispensable 48
inequalities 48
insecurity 48
jar@@ 48
lay@@ 48
missions 48
multinational 48
negotiators 48
nostal@@ 48
paradox 48
path@@ 48
plo@@ 48
precipit@@ 48
preferences 48
probability 48
reforming 48
reli@@ 48
republi@@ 48
restor@@ 48
restraint 48
retro@@ 48
sab@@ 48
shortcomings 48
shortfall 48
sounds 48
split 48
stabilization 48
stages 48
subjects 48
temperature 48
tempted 48
tetapi 48
thoro@@ 48
tons 48
tragic 48
uncertainties 48
underpinned 48
ury 48
usion 48
watching 48
де@@ 48
Algeria 47
Chen 47
ER@@ 47
Education 47
Fif@@ 47
Initiative 47
League 47
Ris@@ 47
Saudis 47
Sharon 47
Simply 47
Sometimes 47
Times 47
UN@@ 47
Valley 47
Viktor 47
W 47
West@@ 47
acci@@ 47
ada@@ 47
alter 47
apan 47
appealing 47
applies 47
arbitrary 47
ason 47
asp@@ 47
assist 47
atism 47
atories 47
automatic 47
bene@@ 47
buildings 47
bus@@ 47
camps 47
ceeds 47
certainty 47
choosing 47
cian 47
combine 47
constantly 47
contest 47
develop@@ 47
dged 47
dian 47
disproportionate 47
distance 47
eho@@ 47
embo@@ 47
eption 47
equipped 47
exam@@ 47
existential 47
expansionary 47
fighters 47
football 47
fru@@ 47
genuinely 47
gi 47
gli@@ 47
gment 47
goti@@ 47
hier@@ 47
hike 47
holders 47
inaction 47
incre@@ 47
infected 47
ishes 47
issuing 47
ite 47
ji 47
laureate 47
legally 47
leveraged 47
lingkungan 47
main@@ 47
mana 47
merupakan 47
militants 47
nec@@ 47
novel 47
observ@@ 47
orts 47
overnight 47
peer 47
phones 47
pool 47
populists 47
possess 47
precise 47
predict@@ 47
propose 47
recorded 47
regulate 47
reser@@ 47
reversal 47
revived 47
route 47
safeguards 47
secured 47
seeds 47
seekers 47
spectacular 47
spil@@ 47
suffers 47
symptoms 47
teach@@ 47
tery 47
theoretical 47
tobacco 47
top@@ 47
tren@@ 47
turbul@@ 47
ukan 47
underground 47
unexpected 47
unilaterally 47
unpopular 47
virtu@@ 47
whe@@ 47
xed 47
п 47
1.4 46
3.5 46
Ale@@ 46
Ara@@ 46
Baghdad 46
Cairo 46
Cub@@ 46
Environ@@ 46
Ever 46
Ironically 46
Liu 46
Lula 46
Olympic 46
PBB 46
Richard 46
addi@@ 46
alo@@ 46
amba@@ 46
anchor 46
attraction 46
aul@@ 46
aver@@ 46
awa@@ 46
bukan 46
burning 46
cards 46
censorship 46
centrali@@ 46
check 46
cker 46
cold 46
collaboration 46
complic@@ 46
consent 46
convenient 46
conviction 46
cultiv@@ 46
dding 46
defini@@ 46
depth 46
dictators 46
dio@@ 46
dismissed 46
dispar@@ 46
dissol@@ 46
divor@@ 46
emin@@ 46
emotions 46
enables 46
enthusiasm 46
entitled 46
entity 46
exacerbate 46
examin@@ 46
excuse 46
exploited 46
gem@@ 46
gla@@ 46
gross 46
guidance 46
habits 46
hot 46
hu 46
hub@@ 46
imperfect 46
industrialized 46
innov@@ 46
jihadi@@ 46
lagi 46
lainnya 46
lap@@ 46
lest 46
ley 46
lift 46
masa 46
mess 46
mired 46
mp 46
mungkin 46
originally 46
overhau@@ 46
pa 46
pati@@ 46
physics 46
pick 46
postpone 46
predecessor 46
predecessors 46
preser@@ 46
privacy 46
privati@@ 46
psychology 46
quot@@ 46
react 46
rement 46
resilient 46
revival 46
ri 46
satisf@@ 46
scho@@ 46
securing 46
sehingga 46
selama 46
seluruh 46
semua 46
she@@ 46
shrink 46
shrinking 46
sit@@ 46
six@@ 46
sle@@ 46
stant 46
states@@ 46
studied 46
surrounding 46
survived 46
taught 46
tible 46
touch 46
traders 46
tum@@ 46
ues 46
understan@@ 46
waves 46
widening 46
withstanding 46
yal 46
ұ@@ 46
600 45
9.@@ 45
Agri@@ 45
Alban@@ 45
CO 45
Cer@@ 45
Col@@ 45
Draghi 45
Fiscal 45
Fre@@ 45
Histori@@ 45
Industrial 45
Medi@@ 45
My@@ 45
Program 45
Rwanda 45
Sad@@ 45
Succ@@ 45
Tibet@@ 45
Under@@ 45
Zion@@ 45
adaptation 45
advent@@ 45
agar 45
ailed 45
ane@@ 45
approaching 45
asion 45
atta@@ 45
auth@@ 45
banned 45
beat 45
benefi@@ 45
benefiting 45
bia 45
blocked 45
borne 45
box 45
cana 45
cee@@ 45
cited 45
college 45
constru@@ 45
convers@@ 45
criminals 45
dak 45
dangerously 45
dele@@ 45
deposi@@ 45
deser@@ 45
dia@@ 45
dioxide 45
disagre@@ 45
disruptive 45
distin@@ 45
distingu@@ 45
disturbing 45
ee 45
eholder 45
elderly 45
embarrass@@ 45
ems 45
enko 45
enlightened 45
eph@@ 45
episode 45
exceptions 45
facility 45
fat 45
fer 45
fire@@ 45
flat 45
gel@@ 45
gish 45
guidelines 45
hau@@ 45
hire 45
hoping 45
ill@@ 45
immigrant 45
indifference 45
investigation 45
ito@@ 45
jan 45
kar@@ 45
kini 45
lethal 45
lications 45
limit@@ 45
lining 45
liquid 45
located 45
long@@ 45
loyment 45
mas 45
menye@@ 45
merit 45
mized 45
motiv@@ 45
namun 45
nasional 45
oligarchs 45
om@@ 45
ort@@ 45
osity 45
patrio@@ 45
pene@@ 45
perfectly 45
performed 45
pervasive 45
pledge 45
plun@@ 45
popul@@ 45
profile 45
rationale 45
reconcile 45
reformed 45
reportedly 45
restrict 45
retreat 45
routinely 45
seized 45
sig@@ 45
simp@@ 45
skeptical 45
slump 45
subje@@ 45
takeover 45
tangible 45
tap 45
thless 45
tingkat 45
tomorrow 45
transforming 45
trusted 45
turno@@ 45
ty@@ 45
uphea@@ 45
ups 45
uranium 45
veries 45
ін 45
ә@@ 45
1981 44
31 44
Alan 44
Anglo 44
Any@@ 44
Asians 44
Director 44
Finland 44
Forces 44
Ghana 44
Go@@ 44
Greeks 44
Han@@ 44
KGB 44
Mil@@ 44
Nothing 44
OS@@ 44
Over@@ 44
Part 44
Poor 44
Power 44
Ronald 44
Roosevelt 44
Together 44
Uni@@ 44
affair 44
agen@@ 44
ambigu@@ 44
ander@@ 44
angka 44
arises 44
assassination 44
att@@ 44
attend 44
av@@ 44
bahkan 44
berkelanjutan 44
blu@@ 44
borrowed 44
breakthroughs 44
cel@@ 44
classical 44
coast 44
competent 44
counts 44
coupled 44
crack@@ 44
debtors 44
disor@@ 44
disparities 44
disruption 44
downs 44
drin@@ 44
drought 44
ears 44
efficiently 44
eh@@ 44
endless 44
engines 44
enrichment 44
entu@@ 44
ests 44
expectancy 44
farm 44
ffe@@ 44
fic 44
fically 44
flu@@ 44
futures 44
gab@@ 44
geable 44
harsh 44
haw@@ 44
hingga 44
ic@@ 44
ideologi@@ 44
immune 44
impul@@ 44
impunity 44
inhab@@ 44
inherited 44
insula 44
jump 44
juta 44
keti@@ 44
kov@@ 44
launching 44
luck 44
manufacturers 44
menghasilkan 44
mented 44
ministries 44
ngs 44
oter 44
outbreak 44
outs 44
overlooked 44
particip@@ 44
perceptions 44
pes@@ 44
portfolios 44
portion 44
prohibi@@ 44
provoke 44
prudential 44
recommendations 44
relevance 44
requirement 44
respectively 44
retali@@ 44
rice 44
rious 44
run@@ 44
safeguard 44
samp@@ 44
scandal 44
scen@@ 44
scenarios 44
secretary 44
shortages 44
soared 44
ssador 44
store 44
strain 44
succum@@ 44
sun@@ 44
systematically 44
tack@@ 44
traded 44
traffic 44
trajectory 44
tremendous 44
ume 44
unclear 44
uns 44
uti@@ 44
xious 44
zo@@ 44
та@@ 44
8.@@ 43
Bre@@ 43
COP@@ 43
Congressional 43
Cze@@ 43
DPJ 43
Either 43
Former 43
Gordon 43
Green 43
IPCC 43
IR@@ 43
Ir@@ 43
Leader 43
Mario 43
Nixon 43
Science 43
Timur 43
Tokyo 43
Ty@@ 43
abstra@@ 43
acqu@@ 43
afraid 43
akibat 43
ample 43
anda 43
answer@@ 43
application 43
array 43
assert 43
bakar 43
battle@@ 43
belum 43
bles@@ 43
blind 43
buyers 43
carries 43
categ@@ 43
category 43
coer@@ 43
consists 43
construct 43
containment 43
continental 43
cris@@ 43
crop 43
dants 43
daunting 43
dden 43
defining 43
deliberately 43
depart@@ 43
distorted 43
eld 43
empty 43
environ@@ 43
equi@@ 43
everybody 43
factories 43
favors 43
feder@@ 43
femin@@ 43
fic@@ 43
forest 43
founding 43
ft@@ 43
fundamentalism 43
gents 43
gery 43
handle 43
hum@@ 43
hungry 43
ians 43
ignoring 43
induce 43
inspire 43
irony 43
islands 43
judged 43
knya 43
krisis 43
ky 43
landscape 43
lar 43
liberals 43
licate 43
lifest@@ 43
loose 43
masses 43
mate 43
mening@@ 43
mit 43
motives 43
neutral 43
nilai 43
oll@@ 43
ona@@ 43
operational 43
ops 43
orientation 43
oversight 43
paling 43
penyakit 43
perpetu@@ 43
pillar 43
postcommunist 43
poten@@ 43
prescrip@@ 43
prevailed 43
privileged 43
projections 43
rapprochement 43
refuses 43
regul@@ 43
remarkably 43
removing 43
resp@@ 43
reveal 43
sale 43
sekitar 43
solved 43
spoken 43
suc@@ 43
swing 43
tapi 43
tex@@ 43
thu@@ 43
trapped 43
twi@@ 43
ue 43
unfol@@ 43
unnecessary 43
ushed 43
uth@@ 43
villages 43
vin@@ 43
vous 43
whereby 43
wron@@ 43
ме@@ 43
1968 42
2,000 42
Castro 42
Charles 42
Cs 42
DR 42
Gi@@ 42
IN@@ 42
Icel@@ 42
Incre@@ 42
Latvia 42
Long 42
Mac@@ 42
Mah@@ 42
Moldova 42
Next 42
Ottoman 42
Royal 42
SDGs 42
Soci@@ 42
Ukrainians 42
\ 42
academics 42
acle 42
activism 42
ading 42
adults 42
affir@@ 42
ancy 42
anticip@@ 42
appar@@ 42
art@@ 42
ase 42
aya 42
bangan 42
bases 42
biaya 42
bombs 42
booming 42
booms 42
breakdown 42
cali@@ 42
card 42
che 42
chemi@@ 42
citizenship 42
civili@@ 42
classic 42
cle 42
comfort 42
compel@@ 42
compromises 42
connect 42
conspiracy 42
conveni@@ 42
corpor@@ 42
ctic 42
debtor 42
dedi@@ 42
deepen 42
depen@@ 42
devi@@ 42
differ 42
disco@@ 42
dor 42
earning 42
eding 42
enter@@ 42
entrepreneurship 42
exaggerated 42
fertility 42
financially 42
finished 42
fluctuations 42
forest@@ 42
formula 42
frameworks 42
ful@@ 42
games 42
gence 42
govern@@ 42
hegem@@ 42
imagination 42
imper@@ 42
impro@@ 42
incar@@ 42
incur@@ 42
indirect 42
intimi@@ 42
introducing 42
j 42
judi@@ 42
knowing 42
kondisi 42
kt@@ 42
landing 42
letter 42
listrik 42
log@@ 42
mant@@ 42
mengh@@ 42
micro 42
militias 42
ministry 42
mps 42
navi@@ 42
norm 42
odi@@ 42
opposing 42
ords 42
organisms 42
ority 42
peng@@ 42
perjanjian 42
petro@@ 42
position@@ 42
proc@@ 42
radically 42
rape 42
rela@@ 42
respective 42
sacrifice 42
scrutiny 42
semi 42
sin 42
solving 42
sports 42
spur@@ 42
tainment 42
tended 42
tenden@@ 42
terjadi 42
thir@@ 42
tide 42
tindakan 42
transc@@ 42
ughly 42
ul 42
understands 42
urge 42
vie 42
virtue 42
vor@@ 42
warfare 42
window 42
worsening 42
yro@@ 42
° 42
ды 42
1973 41
50,000 41
BRICS 41
CIA 41
Cambo@@ 41
Chi@@ 41
Christi@@ 41
Globalization 41
Hal@@ 41
Hol@@ 41
IAEA 41
Ima@@ 41
Isla@@ 41
Ka@@ 41
Kar@@ 41
Liberal 41
Min@@ 41
Morocco 41
Obviously 41
Olympics 41
Sanders 41
Senator 41
Serbs 41
acces@@ 41
accumulate 41
accumulated 41
advocated 41
aired 41
alarming 41
aligned 41
arsenal 41
attribu@@ 41
attributed 41
bangkan 41
behalf 41
capability 41
cease 41
cist 41
closest 41
clout 41
coast@@ 41
combating 41
conclu@@ 41
consuming 41
controversy 41
damp@@ 41
dana 41
deadly 41
deca@@ 41
degrees 41
demo@@ 41
deputy 41
deserves 41
differenti@@ 41
discourage 41
distributed 41
domestically 41
drew 41
driver 41
ements 41
emisi 41
empower@@ 41
engineers 41
erup@@ 41
extends 41
fees 41
forge 41
gases 41
generates 41
glob@@ 41
gran@@ 41
heightened 41
homeowners 41
imagined 41
inputs 41
insolvent 41
internet 41
invariably 41
jauh 41
kha@@ 41
kol@@ 41
lations 41
lifetime 41
likes 41
lou@@ 41
maintains 41
mampu 41
mitigate 41
monitor 41
oking 41
organis@@ 41
origins 41
orit@@ 41
pain@@ 41
phrase 41
platforms 41
presumably 41
progres@@ 41
prohi@@ 41
province 41
proxi@@ 41
rated 41
receives 41
repressive 41
respe@@ 41
restricted 41
rupt 41
saf@@ 41
sar@@ 41
sity 41
slug@@ 41
smooth 41
stan 41
straightforward 41
sw@@ 41
tactical 41
techniques 41
tel 41
than@@ 41
toler@@ 41
train 41
translate 41
trip 41
ts@@ 41
unthinkable 41
usi 41
verb@@ 41
violation 41
vity 41
wan 41
xes 41
0.5 40
55 40
95 40
Acc@@ 40
Again 40
Already 40
Arm@@ 40
Charter 40
Confu@@ 40
Davos 40
Dengan 40
Economy 40
El 40
Empire 40
Estonia 40
François 40
Freedom 40
Gre@@ 40
Hague 40
Iranians 40
Kennedy 40
MOSCOW 40
NAFTA 40
Nazis 40
Nigeri@@ 40
Orthodox 40
Peru 40
Rio 40
San@@ 40
School 40
Selain 40
V 40
Wen 40
Yo@@ 40
Zi@@ 40
admitted 40
aggressively 40
alty 40
arching 40
aris@@ 40
aro@@ 40
assem@@ 40
bar 40
cely 40
complain 40
compli@@ 40
conditional 40
cynical 40
dak@@ 40
dedu@@ 40
deployment 40
diperlukan 40
display 40
distribute 40
dom 40
dress 40
drives 40
elimin@@ 40
erosion 40
ession@@ 40
ester@@ 40
ffs 40
fits 40
forgotten 40
fragmented 40
gathering 40
gencies 40
ghtened 40
gist 40
gru@@ 40
hat@@ 40
haven 40
i.e. 40
incumbent 40
invent@@ 40
jak 40
jour@@ 40
konflik 40
kurang 40
ler@@ 40
listen 40
maneuver 40
masalah 40
massacre 40
mely 40
mentioned 40
migrant 40
miss 40
multilateralism 40
object 40
obses@@ 40
offices 40
op 40
opt 40
orities 40
peacekeeping 40
pie@@ 40
pillars 40
postwar 40
pressed 40
priori@@ 40
prize 40
produ@@ 40
professor 40
prophe@@ 40
psych@@ 40
pure 40
reactions 40
real@@ 40
recipe 40
reflection 40
relie@@ 40
resisted 40
reveals 40
revel@@ 40
revised 40
ris 40
rock 40
servants 40
sever@@ 40
sitting 40
smar@@ 40
socialism 40
spin 40
square 40
sty@@ 40
subsidy 40
substan@@ 40
super 40
tahan 40
tells 40
termasuk 40
thre@@ 40
tically 40
tissue 40
totali@@ 40
tually 40
tus 40
utions 40
vict@@ 40
walls 40
worsen 40
zer 40
zi 40
р 40
ғ@@ 40
қа@@ 40
&apos;re 39
1982 39
20,000 39
42 39
Abu 39
Akan 39
Apple 39
Bulgaria 39
CD@@ 39
Chechen 39
Chief 39
Des@@ 39
EFSF 39
Fox 39
Games 39
Had 39
High@@ 39
Itali@@ 39
Kazakhstan 39
Ki@@ 39
Ky@@ 39
Maynard 39
NGOs 39
Off@@ 39
PA 39
Policymakers 39
Qatar 39
Report 39
Schengen 39
Serikat 39
Tengah 39
Trans 39
Tri@@ 39
Ultimately 39
approximately 39
assur@@ 39
attra@@ 39
brie@@ 39
bulan 39
ceasefire 39
cements 39
ciers 39
clients 39
coalitions 39
compare 39
compliance 39
conceived 39
concer@@ 39
condition@@ 39
contributes 39
corner 39
craft 39
ctional 39
curta@@ 39
dably 39
dapi 39
deliberate 39
deter 39
diminish 39
disappear@@ 39
discredited 39
disorders 39
distur@@ 39
dur@@ 39
eff@@ 39
empi@@ 39
ena 39
ental 39
ethics 39
excep@@ 39
excesses 39
explan@@ 39
ez 39
feet 39
forth 39
fragmentation 39
frequ@@ 39
geogra@@ 39
gest 39
gestion 39
gnation 39
hear@@ 39
hearts 39
ici@@ 39
ideals 39
imminent 39
incomplete 39
institu@@ 39
inti@@ 39
intra@@ 39
ior 39
isol@@ 39
jika 39
kat@@ 39
la 39
laut 39
liberalism 39
literally 39
maritime 39
mark@@ 39
median 39
mining 39
modernize 39
nationalists 39
night@@ 39
obliged 39
obtained 39
ode 39
opti@@ 39
otes 39
outsiders 39
overthrow 39
paraly@@ 39
peacefully 39
pemimpin 39
polarization 39
predictions 39
premature 39
processing 39
produksi 39
put@@ 39
rata 39
readily 39
rein 39
reminder 39
repay 39
rests 39
rewar@@ 39
scholars 39
serta 39
sick 39
spectrum 39
sponsored 39
stream 39
strengths 39
suits 39
suppor@@ 39
surprised 39
symboli@@ 39
tari@@ 39
tical 39
triple 39
ump 39
unresolved 39
urged 39
utterly 39
vibrant 39
warm 39
wei@@ 39
wer@@ 39
who@@ 39
wir@@ 39
zy 39
ты@@ 39
29 38
38 38
700 38
Australian 38
Basel 38
CEO 38
Chechnya 38
Cher@@ 38
Commun@@ 38
DA@@ 38
Dan@@ 38
Fe@@ 38
Francis 38
Ge@@ 38
Gol@@ 38
Gro@@ 38
Investors 38
Khrushchev 38
Koizumi 38
Mr. 38
Pi@@ 38
Pop@@ 38
Rou@@ 38
Sal@@ 38
Sino 38
Sub@@ 38
Uganda 38
Vil@@ 38
Would 38
accordingly 38
aked 38
allevi@@ 38
anders 38
ane 38
asu@@ 38
attracting 38
authoritarianism 38
avoi@@ 38
barri@@ 38
bio 38
biodiversity 38
buil@@ 38
businessmen 38
cio 38
cive 38
civilized 38
conscious 38
cycles 38
deciding 38
defi@@ 38
democrats 38
disappointing 38
dol@@ 38
drag 38
dreams 38
duties 38
encing 38
enz@@ 38
fierce 38
fif@@ 38
frustrated 38
gat 38
gather@@ 38
gir@@ 38
grip 38
happiness 38
hazard 38
hybri@@ 38
indirectly 38
ines 38
influenced 38
inspi@@ 38
institution@@ 38
internation@@ 38
intui@@ 38
invited 38
jiha@@ 38
kenaikan 38
langkah 38
lei@@ 38
letting 38
liability 38
liberation 38
licen@@ 38
loses 38
mandatory 38
manufactured 38
marginalized 38
market@@ 38
maximum 38
meas@@ 38
membantu 38
memberikan 38
mengha@@ 38
mengurangi 38
mindset 38
mony 38
mot@@ 38
motion 38
motivation 38
neglected 38
offen@@ 38
olly 38
osten@@ 38
page 38
percei@@ 38
protracted 38
rand@@ 38
reckless 38
reformers 38
repair 38
resses 38
revolt 38
satellite 38
seg@@ 38
servi@@ 38
side@@ 38
slow@@ 38
soccer 38
stag@@ 38
sten@@ 38
stly 38
storage 38
surveys 38
sus@@ 38
teaching 38
techni@@ 38
tige 38
totally 38
unders 38
undly 38
unfortunately 38
utama 38
utting 38
vac@@ 38
vague 38
vails 38
versaries 38
vulner@@ 38
wee@@ 38
welcomed 38
у 38
13@@ 37
1929 37
32 37
85 37
Au@@ 37
Ayatollah 37
Che@@ 37
Common 37
Contin@@ 37
Hosni 37
Krugman 37
Ministry 37
Mugabe 37
Panel 37
San 37
Schröder 37
Similar 37
Stri@@ 37
System 37
Trichet 37
Turks 37
WHO 37
accomplish 37
advisers 37
aken 37
allegedly 37
arbit@@ 37
author 37
awar@@ 37
bagai 37
bankrupt 37
battles 37
bying 37
campaign@@ 37
cers 37
characteri@@ 37
chers 37
clini@@ 37
considers 37
contamin@@ 37
ctively 37
demi@@ 37
dening 37
depending 37
despair 37
deten@@ 37
devise 37
differ@@ 37
disappeared 37
distra@@ 37
distressed 37
dless 37
dr@@ 37
drain 37
dus 37
dyna@@ 37
employe@@ 37
enced 37
every@@ 37
exceptional 37
fastest 37
fatal 37
foot@@ 37
fosil 37
frustra@@ 37
fs 37
gather 37
geni@@ 37
gha@@ 37
ghted 37
grain 37
grid 37
guilty 37
gunakan 37
hil@@ 37
indication 37
industrialization 37
infections 37
ist@@ 37
keh@@ 37
lass@@ 37
mechan@@ 37
menu@@ 37
metaph@@ 37
moon 37
necessity 37
neglect 37
offi@@ 37
oles@@ 37
ounce 37
outla@@ 37
paradigm 37
permitted 37
persecu@@ 37
presi@@ 37
profession 37
ques@@ 37
quie@@ 37
ranking 37
rebel 37
recur@@ 37
reluctance 37
respects 37
row 37
san 37
screening 37
sejumlah 37
sentiments 37
sf@@ 37
shoul@@ 37
smoking 37
sons 37
specter 37
station 37
stopp@@ 37
suscep@@ 37
tang@@ 37
technocrats 37
terakhir 37
terbesar 37
text@@ 37
tik 37
tingly 37
tish 37
tolerate 37
travel@@ 37
turing 37
unrealistic 37
ution 37
vel 37
wasted 37
world@@ 37
zin@@ 37
ст@@ 37
0@@ 36
250 36
Asi@@ 36
BR@@ 36
Boris 36
Bro@@ 36
Congo 36
Danish 36
Del@@ 36
Don@@ 36
ENHAGEN 36
Fac@@ 36
Fail@@ 36
Fu@@ 36
Governor 36
Hu@@ 36
Jika 36
Kho@@ 36
Kissinger 36
Oslo 36
Representatives 36
Rice 36
Sin@@ 36
Strategy 36
advancing 36
aircraft 36
allied 36
ama@@ 36
aner 36
appreciated 36
ari 36
assault 36
atrocities 36
attacking 36
atu@@ 36
avoidable 36
bean 36
believing 36
calami@@ 36
champion 36
chenko 36
citing 36
civic 36
classi@@ 36
cognitive 36
commission@@ 36
conne@@ 36
ctu@@ 36
culmin@@ 36
cushi@@ 36
cyni@@ 36
dali@@ 36
dating 36
ddled 36
dep@@ 36
despo@@ 36
dictator@@ 36
discover 36
dist@@ 36
dorong 36
dow@@ 36
efully 36
eigh@@ 36
electronic 36
embedded 36
entail 36
equities 36
euph@@ 36
exo@@ 36
explosive 36
expose 36
fabri@@ 36
formidable 36
fragi@@ 36
freeze 36
fusion 36
gna@@ 36
gnya 36
guided 36
hed 36
hilanthrop@@ 36
hiring 36
hyper@@ 36
identities 36
ila 36
illusion 36
imagin@@ 36
imbalance 36
inflicted 36
inherently 36
ini@@ 36
instin@@ 36
intern@@ 36
kanan 36
lass 36
liers 36
lifted 36
lifting 36
livelihoods 36
mengalami 36
messages 36
militari@@ 36
militi@@ 36
mir 36
mole@@ 36
music 36
myriad 36
neo@@ 36
optimal 36
outsourcing 36
overwhel@@ 36
pat 36
patents 36
perpetrators 36
persi@@ 36
phi@@ 36
pleas@@ 36
providers 36
psychiatri@@ 36
religions 36
rendered 36
repor@@ 36
ression 36
rist 36
rs 36
salaries 36
sasi 36
score 36
sentence 36
skeptics 36
spect@@ 36
stitutes 36
strugg@@ 36
surrender 36
tanks 36
tempat 36
tial 36
tiv@@ 36
tiveness 36
trau@@ 36
traumati@@ 36
tries 36
u0027s 36
uang 36
ugh@@ 36
uli@@ 36
veling 36
vest@@ 36
xon 36
yak@@ 36
бол@@ 36
+ 35
1930s 35
44 35
48 35
67 35
7.@@ 35
800 35
CCP 35
Could 35
DB 35
DP 35
Democra@@ 35
Dunia 35
Food 35
Gore 35
Gra@@ 35
Jinping 35
Juncker 35
Ketika 35
Kita 35
Koreans 35
Lee 35
MADRID 35
Mala@@ 35
Markets 35
Mor@@ 35
Park 35
Post 35
Revolutionary 35
Right 35
River 35
SA 35
SOEs 35
Silicon 35
Smith 35
Southern 35
Syri@@ 35
Tea 35
Thai 35
Tradi@@ 35
Twenty 35
Vice 35
abandoning 35
accus@@ 35
afflu@@ 35
agi@@ 35
ambah 35
ambiguous 35
appropri@@ 35
arer 35
assembly 35
assess@@ 35
assessing 35
atian 35
beri@@ 35
besi@@ 35
bulk 35
closure 35
conception 35
confusion 35
contin@@ 35
coup@@ 35
creativity 35
destiny 35
diabetes 35
disar@@ 35
drove 35
enforced 35
enhan@@ 35
enor@@ 35
enth 35
environmentally 35
fallo@@ 35
fant@@ 35
gely 35
gma 35
gned 35
gon 35
ground@@ 35
hip 35
hir@@ 35
hr@@ 35
indicator 35
infection 35
ingre@@ 35
inov@@ 35
insisting 35
katan 35
kemajuan 35
kuat 35
lions 35
loy@@ 35
march 35
maxi@@ 35
menuju 35
mically 35
mo 35
mped 35
obat 35
obsol@@ 35
offshore 35
outrage 35
pande@@ 35
par 35
parado@@ 35
paralysis 35
personality 35
philosopher 35
polari@@ 35
politici@@ 35
print 35
procedur@@ 35
proclaimed 35
prosecution 35
proxy 35
publik 35
quasi 35
ranked 35
reasoning 35
regar@@ 35
remembered 35
remittances 35
replacing 35
repres@@ 35
revol@@ 35
rigor@@ 35
setiap 35
ski 35
smopoli@@ 35
soil 35
sol@@ 35
soul 35
stations 35
sures 35
tary 35
tings 35
tious 35
triggering 35
trop@@ 35
tuberculosis 35
unlimited 35
vary 35
vehicle 35
venture 35
vers@@ 35
ves@@ 35
visions 35
wns 35
¥ 35
да 35
к 35
----@@ 34
2025 34
BERKELEY 34
Bet@@ 34
Calderón 34
Communism 34
Criminal 34
Doing 34
Fra@@ 34
Gandhi 34
Hal 34
III 34
Marine 34
Modern 34
Nation@@ 34
OS 34
Politicians 34
Proliferation 34
Ps 34
Rumsfeld 34
Scienti@@ 34
Sha@@ 34
Te@@ 34
Thomas 34
acceler@@ 34
amm@@ 34
ankan 34
antara 34
ara 34
ash 34
baby 34
bagian 34
bah 34
bosses 34
butuhkan 34
characteristi@@ 34
cleri@@ 34
collection 34
confin@@ 34
counted 34
ctiveness 34
cturing 34
dah 34
defin@@ 34
deterioration 34
dows 34
emy 34
escu 34
esi@@ 34
etc 34
eth@@ 34
exacerb@@ 34
extraordinarily 34
feels 34
ften 34
fulfilled 34
geous 34
gia 34
handling 34
holi@@ 34
hot@@ 34
ih@@ 34
infrastruktur 34
insp@@ 34
intensity 34
karena 34
killings 34
kilometers 34
lin 34
listen@@ 34
maga@@ 34
mates 34
mengatasi 34
meters 34
miskin 34
myth 34
nomination 34
onents 34
participating 34
permanently 34
point@@ 34
profit@@ 34
psycho@@ 34
rain@@ 34
reform@@ 34
relent@@ 34
replacement 34
rescu@@ 34
schol@@ 34
seri@@ 34
sionally 34
slogan 34
spot@@ 34
stakeholders 34
sup@@ 34
superi@@ 34
sus 34
suspected 34
symb@@ 34
tained 34
teenth 34
tees 34
tone 34
tra 34
trib@@ 34
troika 34
tures 34
ular 34
ultur@@ 34
ump@@ 34
unya 34
vacc@@ 34
valent 34
vergence 34
wild 34
writer 34
writers 34
zer@@ 34
н 34
1.3 33
Across 33
Action 33
Affairs 33
Ama@@ 33
Argentine 33
BERLIN 33
Bah@@ 33
Bra@@ 33
Consu@@ 33
DA 33
Delhi 33
Duma 33
Economics 33
FSB 33
Facebook 33
GA@@ 33
Georgian 33
HA@@ 33
Interes@@ 33
Jintao 33
Left 33
Libyan 33
Margaret 33
PLO 33
Pres@@ 33
Shi 33
Ten 33
Ter@@ 33
Time 33
Tru@@ 33
Twitter 33
Une@@ 33
akin 33
akses 33
alled 33
ambil 33
amid 33
anj@@ 33
antagon@@ 33
apa 33
appetite 33
atus 33
ball 33
bang@@ 33
basket 33
bel 33
belie@@ 33
bright 33
cency 33
cher@@ 33
cin@@ 33
club 33
concent@@ 33
concentrate 33
confli@@ 33
consequ@@ 33
constructed 33
counterproductive 33
curb 33
deleg@@ 33
demonstra@@ 33
deple@@ 33
deterr@@ 33
diness 33
disposal 33
disproportion@@ 33
dissent 33
embry@@ 33
episodes 33
eradication 33
exor@@ 33
extre@@ 33
fault 33
fers 33
forth@@ 33
frau@@ 33
gasoline 33
guil@@ 33
happ@@ 33
hasil 33
hood 33
humiliation 33
husband 33
ignorance 33
implo@@ 33
indu@@ 33
iness 33
inner 33
invit@@ 33
ized 33
kannya 33
kemiskinan 33
kian 33
konsu@@ 33
lit@@ 33
malnutrition 33
manusia 33
mema@@ 33
miles 33
miracle 33
na 33
nate 33
ond 33
pack@@ 33
perverse 33
pet@@ 33
pho@@ 33
proceed 33
prosp@@ 33
provincial 33
radiation 33
rail@@ 33
resigned 33
riots 33
routine 33
salah 33
satisfy 33
sebagian 33
sebuah 33
star 33
tegra@@ 33
terutama 33
texts 33
thodox 33
troubles 33
tungan 33
umes 33
vals 33
vul@@ 33
wadays 33
waktu 33
ween 33
winds 33
witnes@@ 33
zon 33
ре@@ 33
с 33
ың 33
ң@@ 33
10@@ 32
36 32
Ak@@ 32
Am@@ 32
Anti 32
BA@@ 32
Capital 32
Civil 32
Don 32
Ear@@ 32
Egyptians 32
Euro@@ 32
Frank 32
Guantánamo 32
Joseph 32
Kem@@ 32
Lar@@ 32
Low 32
Making 32
Movement 32
Mu@@ 32
Multi@@ 32
New@@ 32
Old 32
RMB 32
SA@@ 32
ST@@ 32
Sachs 32
Ser@@ 32
Shinzo 32
St. 32
Syriza 32
Too 32
Wahhab@@ 32
Wo@@ 32
Young 32
achie@@ 32
activist 32
after@@ 32
ams 32
anian 32
archite@@ 32
ata 32
atori@@ 32
aturan 32
autono@@ 32
averaged 32
bab 32
bili@@ 32
boards 32
bourg 32
buat 32
coura@@ 32
dant 32
dat@@ 32
ddle 32
demonstrating 32
distrust 32
dog 32
energi@@ 32
essions 32
ested 32
expects 32
favorite 32
foods 32
friend@@ 32
frontier 32
fruit 32
getah@@ 32
gh 32
git 32
gotten 32
gui@@ 32
hampir 32
hearing 32
heed 32
hing 32
illiber@@ 32
instal@@ 32
invented 32
investi@@ 32
ja 32
journali@@ 32
kepada 32
keter@@ 32
kings 32
kota 32
legiti@@ 32
lings 32
lish@@ 32
lobby 32
location 32
luas 32
markedly 32
melawan 32
menciptakan 32
mener@@ 32
mentation 32
mugg@@ 32
mulai 32
nesses 32
nor@@ 32
obser@@ 32
ogra@@ 32
ong@@ 32
opini@@ 32
opponent 32
pani@@ 32
pendekatan 32
quiet 32
quotas 32
rank 32
refu@@ 32
renew@@ 32
savers 32
sec@@ 32
sm@@ 32
small@@ 32
strust 32
suspen@@ 32
sympa@@ 32
transaction 32
tribunal 32
tung 32
unusual 32
val@@ 32
vances 32
verdi@@ 32
xically 32
yak 32
yan 32
zers 32
е 32
кө@@ 32
се@@ 32
ын 32
1985 31
1988 31
3,000 31
39 31
41 31
Acade@@ 31
Ah@@ 31
BO@@ 31
Bal@@ 31
Brit@@ 31
Cina 31
Def@@ 31
Emerging 31
Every@@ 31
Far@@ 31
Force 31
Four 31
Franklin 31
IT 31
Imp@@ 31
Impro@@ 31
Little 31
Martin 31
Mat@@ 31
Osama 31
Ph@@ 31
Reform 31
Road 31
SDR 31
Scan@@ 31
Scot@@ 31
Strate@@ 31
TOK@@ 31
UR@@ 31
Vienn@@ 31
Vo@@ 31
Ye@@ 31
Ze@@ 31
accor@@ 31
adanya 31
anony@@ 31
anz@@ 31
appreci@@ 31
aston@@ 31
asury 31
bac@@ 31
bentu@@ 31
bial 31
bian 31
blocks 31
boys 31
ciaries 31
comment@@ 31
compen@@ 31
crats 31
culo@@ 31
danger@@ 31
degradation 31
denominated 31
derly 31
dient 31
diha@@ 31
discus@@ 31
distor@@ 31
dual 31
efi@@ 31
emis@@ 31
ende@@ 31
enthusia@@ 31
entran@@ 31
eover 31
ete 31
expectation 31
expla@@ 31
fare 31
flowing 31
fur@@ 31
gagal 31
ham 31
illing 31
irre@@ 31
irri@@ 31
issu@@ 31
kami 31
keamanan 31
keep@@ 31
ku 31
lateral 31
lative 31
lihat 31
lows 31
lun@@ 31
mali@@ 31
marketing 31
mature 31
millenni@@ 31
mors 31
naive 31
neur@@ 31
nutri@@ 31
occasion 31
ott@@ 31
pelines 31
pert@@ 31
phenomen@@ 31
prob@@ 31
programm@@ 31
q 31
reconci@@ 31
reson@@ 31
rift 31
ront 31
sanitation 31
secular@@ 31
sejak 31
simi@@ 31
slau@@ 31
subsequently 31
sug@@ 31
theti@@ 31
tolerant 31
trafficking 31
ult@@ 31
unilater@@ 31
utili@@ 31
utter 31
voi@@ 31
vors 31
waters 31
winter 31
yers 31
yle 31
Б@@ 31
ді 31
те@@ 31
ға 31
ү@@ 31
Advis@@ 30
Balkan 30
Buil@@ 30
Cal@@ 30
Claude 30
Cultural 30
DELHI 30
Dra@@ 30
Ei@@ 30
FARC 30
Havel 30
Ide@@ 30
Islands 30
Life 30
Pu@@ 30
Redu@@ 30
Sar@@ 30
Semitism 30
Serbian 30
Sinai 30
Special 30
Stra@@ 30
Tiananmen 30
Tiongkok 30
Wal@@ 30
arch 30
ards 30
ass 30
asy 30
boy 30
cas 30
celebrate 30
chma 30
crimin@@ 30
ctives 30
dela@@ 30
devo@@ 30
diplo@@ 30
doct@@ 30
eat 30
emba@@ 30
embracing 30
endured 30
ene@@ 30
enshr@@ 30
eso 30
essors 30
fortune 30
hani 30
harmon@@ 30
historians 30
hole 30
horizon 30
industri 30
ino 30
ission@@ 30
jelas 30
kas@@ 30
kebutuhan 30
ksi 30
leum 30
lev@@ 30
lik@@ 30
lla 30
loyal 30
lukan 30
menunjukkan 30
meter 30
miner@@ 30
moni@@ 30
neuro@@ 30
neutrali@@ 30
oligar@@ 30
organs 30
ov 30
parano@@ 30
passage 30
peace@@ 30
pengungsi 30
pher@@ 30
plu@@ 30
preven@@ 30
ption 30
radio 30
reacted 30
reci@@ 30
regu@@ 30
reve@@ 30
sar 30
ses@@ 30
sev@@ 30
sl@@ 30
stars 30
strate@@ 30
stressed 30
stro@@ 30
sums 30
swasta 30
tak@@ 30
taxpay@@ 30
theast 30
thin 30
tia 30
tives 30
try@@ 30
uk 30
usnya 30
usting 30
vir@@ 30
wood 30
ас@@ 30
л 30
ын@@ 30
1986 29
30,000 29
AS 29
Air@@ 29
Ato@@ 29
EC 29
EL@@ 29
Enron 29
Erdogan 29
Greater 29
Hatoyama 29
Islamabad 29
Johnson 29
Katrina 29
Marshall 29
Muhammad 29
NT@@ 29
News 29
Pal@@ 29
Pinochet 29
Private 29
Sil@@ 29
Silvio 29
Some@@ 29
Terror@@ 29
Tet@@ 29
Uribe 29
Wi@@ 29
activ@@ 29
acu@@ 29
adequ@@ 29
adj@@ 29
alan 29
anies 29
anx@@ 29
appointment 29
aren 29
arrogan@@ 29
ation@@ 29
aupun 29
babkan 29
baga@@ 29
benchmark 29
berhasil 29
bidang 29
bureaucra@@ 29
casualties 29
cheap@@ 29
cis@@ 29
cit@@ 29
commerce 29
compet@@ 29
consolida@@ 29
contrib@@ 29
dasarkan 29
dea@@ 29
degra@@ 29
demonstration 29
dency 29
dependency 29
dingly 29
disagree 29
disputed 29
dy@@ 29
eman@@ 29
epi@@ 29
exagger@@ 29
exchanges 29
exter@@ 29
fortun@@ 29
forum 29
founder 29
gang@@ 29
gnment 29
grim 29
gung 29
gy@@ 29
human@@ 29
indeb@@ 29
iner@@ 29
iser 29
lacked 29
lags 29
lingu@@ 29
manipul@@ 29
manufa@@ 29
master 29
mated 29
mati@@ 29
meanwhile 29
membuat 29
mengenai 29
mise 29
mize 29
mon 29
motive 29
onder@@ 29
oner 29
pak@@ 29
penggunaan 29
perpe@@ 29
pessi@@ 29
priv@@ 29
promin@@ 29
rehen@@ 29
shat@@ 29
situ@@ 29
stalem@@ 29
stry 29
syntheti@@ 29
teen 29
throw 29
tie 29
tier 29
tom 29
tour@@ 29
tril@@ 29
ulate 29
van 29
vens 29
vert@@ 29
video 29
vor 29
za 29
ан 29
де 29
ыр@@ 29
қар@@ 29
120 28
1933 28
37 28
98 28
BT 28
Better 28
CI@@ 28
Cari@@ 28
Crisis 28
Dubai 28
Karl 28
Kash@@ 28
Kin@@ 28
Kon@@ 28
Leone 28
Marx 28
Michael 28
Military 28
Mun@@ 28
NA 28
Orange 28
Ortega 28
Pap@@ 28
Project 28
Rap@@ 28
SARS 28
Sat@@ 28
Sm@@ 28
Standard 28
US@@ 28
Was 28
accum@@ 28
ady 28
aikan 28
ain 28
alnya 28
anch@@ 28
apar@@ 28
arre@@ 28
asse 28
ati 28
barbar@@ 28
borro@@ 28
busi 28
campai@@ 28
cates 28
cepat 28
chao@@ 28
crun@@ 28
dama@@ 28
defaul@@ 28
demago@@ 28
dend 28
depri@@ 28
dise@@ 28
dispos@@ 28
drivers 28
ei 28
employ@@ 28
enlar@@ 28
establish@@ 28
fac@@ 28
fai@@ 28
federation 28
ghtening 28
gin 28
golden 28
hetero@@ 28
highligh@@ 28
impli@@ 28
intru@@ 28
isolation@@ 28
keluar@@ 28
khus@@ 28
lasi 28
liar 28
lindungi 28
lit 28
macro@@ 28
mega 28
mid@@ 28
militant 28
miums 28
mobil@@ 28
nis 28
obesi@@ 28
opa@@ 28
orial 28
para@@ 28
passive 28
peny@@ 28
perekonomian 28
peti@@ 28
plane 28
politi@@ 28
provi@@ 28
que@@ 28
rank@@ 28
rea 28
rehab@@ 28
removal 28
render 28
rid 28
rie@@ 28
scheduled 28
shore 28
sien 28
stimul@@ 28
stock@@ 28
symp@@ 28
tribu@@ 28
umption 28
urut 28
utan 28
vian 28
vise 28
wit@@ 28
witness 28
wu@@ 28
yc@@ 28
zen@@ 28
zine 28
í@@ 28
ай 28
же@@ 28
1.2 27
1947 27
43 27
62 27
64 27
82 27
Alexander 27
App@@ 27
BEACH 27
BEI@@ 27
BOJ 27
Budget 27
Chicago 27
Conserv@@ 27
Corporation 27
Darwin 27
Eura@@ 27
Florida 27
Ga@@ 27
Goldman 27
ICC 27
Il 27
Jordan@@ 27
Len@@ 27
Liberia 27
Mal@@ 27
Malaria 27
Mark 27
Mc@@ 27
Open 27
Osseti@@ 27
POR@@ 27
Poli@@ 27
Produ@@ 27
RI@@ 27
Review 27
Schro@@ 27
Service 27
Services 27
Sierra 27
Society 27
TTIP 27
Tal@@ 27
Texas 27
Through 27
UE 27
Venezu@@ 27
Wolfowitz 27
Y 27
absurd 27
affili@@ 27
ager 27
annu@@ 27
arose 27
ask@@ 27
aten 27
aw 27
bas 27
bay@@ 27
bies 27
bited 27
blue 27
brilli@@ 27
business@@ 27
cipate 27
cken 27
clarity 27
cogni@@ 27
deliber@@ 27
drama 27
du 27
edback 27
eins 27
enting 27
epide@@ 27
errors 27
fes@@ 27
gent@@ 27
get@@ 27
guarante@@ 27
hel@@ 27
herever 27
hine 27
ination 27
indepen@@ 27
infli@@ 27
irreversible 27
journalist 27
kade 27
kap 27
keber@@ 27
kin 27
kirakan 27
kkan 27
ks@@ 27
lai 27
later@@ 27
magni@@ 27
mar 27
meaning@@ 27
moderates 27
munitas 27
nobyl 27
ordin@@ 27
oth 27
otogra@@ 27
periodi@@ 27
pie 27
pointment 27
proyek 27
pter 27
pun 27
pundits 27
purcha@@ 27
reach@@ 27
refor@@ 27
rema@@ 27
rigi@@ 27
saya 27
sch@@ 27
sciences 27
session 27
sibility 27
sorts 27
spora 27
stal@@ 27
stati@@ 27
strin@@ 27
techno@@ 27
therapeu@@ 27
tikan 27
tin 27
trin@@ 27
trivial 27
ully 27
umi 27
unt@@ 27
ura@@ 27
variable 27
versi@@ 27
vil 27
visa 27
ya@@ 27
£ 27
жа@@ 27
й@@ 27
ыл@@ 27
.... 26
46 26
51 26
68 26
Bahrain 26
Bay 26
Bhutto 26
Bor@@ 26
Cat@@ 26
Dar@@ 26
Dmitri 26
EC@@ 26
Ecuador 26
Eli@@ 26
Eurozone 26
Eventu@@ 26
Executive 26
Future 26
Gen@@ 26
Ger@@ 26
Henry 26
Her@@ 26
Hollywood 26
Hugo 26
ICTY 26
ING 26
Indonesi@@ 26
Karzai 26
Ker@@ 26
Leave 26
MIT 26
Medicare 26
Modi 26
Mohamed 26
Morales 26
Morgan 26
Napoleon 26
Ob@@ 26
Obasanjo 26
Olmert 26
Osborne 26
PC 26
Parti@@ 26
Plat@@ 26
Sri 26
Stan@@ 26
Sto@@ 26
Tai@@ 26
Teh@@ 26
Tuni@@ 26
Uruguay 26
Vati@@ 26
Vir@@ 26
Wel@@ 26
_ 26
akhir 26
altern@@ 26
arsen@@ 26
asal 26
atu 26
awa 26
bak@@ 26
bali@@ 26
banker 26
batt@@ 26
bekerja 26
bor 26
chest@@ 26
child@@ 26
chs 26
coordin@@ 26
dary 26
doctrin@@ 26
dous 26
dres@@ 26
dumping 26
efektif 26
electri@@ 26
ella 26
eter 26
euro@@ 26
fol@@ 26
front@@ 26
illu@@ 26
infe@@ 26
inform@@ 26
ishment 26
jen@@ 26
kit@@ 26
komp@@ 26
kov 26
kut@@ 26
li 26
licitly 26
life@@ 26
ligi@@ 26
mah 26
marine 26
massac@@ 26
mild 26
miser@@ 26
mmer 26
ody 26
oria 26
parall@@ 26
pid 26
propor@@ 26
rem@@ 26
reven@@ 26
revolution@@ 26
ruption 26
scru@@ 26
seem@@ 26
sel 26
solusi 26
sour@@ 26
sph@@ 26
substance 26
supran@@ 26
tant@@ 26
tiga 26
til@@ 26
tung@@ 26
tural 26
tz@@ 26
ulation 26
unition 26
ville 26
vo 26
ам@@ 26
ле@@ 26
мен 26
ол@@ 26
00 25
1956 25
1971 25
1974 25
1975 25
47 25
49 25
Adam 25
Banking 25
Beirut 25
Bin@@ 25
Bri@@ 25
Buddh@@ 25
Colom@@ 25
Dominique 25
ES 25
Fukushima 25
Gerhard 25
Guatemala 25
Hindu 25
Infrastru@@ 25
Initi@@ 25
Is@@ 25
Istanbul 25
Jer@@ 25
Jiabao 25
Karad@@ 25
Lagarde 25
MA@@ 25
Manuel 25
Milli@@ 25
Moz@@ 25
Nepal 25
Not@@ 25
OR@@ 25
Renzi 25
Rob@@ 25
Sharia 25
Strauss 25
Tsipras 25
Ver@@ 25
Xia@@ 25
Xiaoping 25
adju@@ 25
ads 25
akibat@@ 25
ami@@ 25
anthrop@@ 25
assass@@ 25
batas 25
bent 25
camp@@ 25
cans 25
cell@@ 25
choo@@ 25
chron@@ 25
ckle 25
credits 25
cukup 25
dien@@ 25
dimana 25
draf@@ 25
eb@@ 25
electron@@ 25
esc@@ 25
gang 25
gap@@ 25
gible 25
gress 25
hari 25
haus@@ 25
intelligent 25
interpreted 25
kne@@ 25
ktif 25
kun@@ 25
kung 25
lie@@ 25
lighten@@ 25
mare 25
maximize 25
mesti@@ 25
mira@@ 25
mist 25
mists 25
ny@@ 25
oh@@ 25
ole 25
onel 25
orthodox@@ 25
perspe@@ 25
pper 25
prompted 25
prospe@@ 25
provinces 25
quer 25
ques 25
rain 25
recyc@@ 25
risiko 25
roman@@ 25
sport 25
stauran@@ 25
tinu@@ 25
traffi@@ 25
trary 25
umnya 25
unle@@ 25
unting 25
uty 25
va 25
veraging 25
ï@@ 25
ор@@ 25
1914 24
1978 24
1987 24
200,000 24
53 24
59 24
86 24
900 24
AB@@ 24
AS@@ 24
Abenomics 24
Ala@@ 24
BC 24
BoE 24
Bos@@ 24
Business 24
CT@@ 24
Cheney 24
D. 24
Debt 24
Deutsche 24
Differ@@ 24
Fur@@ 24
GO 24
Good 24
Hei@@ 24
Holland 24
Individu@@ 24
Intelligence 24
Jan@@ 24
Jazeera 24
Ji@@ 24
K 24
Kahn 24
Ki 24
Kuwait 24
Kyi 24
Land 24
Mel@@ 24
Mitterrand 24
Monti 24
NGO 24
Nob@@ 24
Patri@@ 24
Petersburg 24
Prop@@ 24
Region@@ 24
Res@@ 24
Resolution 24
Shar@@ 24
Shell 24
Solidarity 24
Stru@@ 24
Suu 24
Tax 24
Tho@@ 24
Tribunal 24
Yun@@ 24
akers 24
aky 24
alco@@ 24
aming 24
anggota 24
angkan 24
aps 24
ate@@ 24
bantuan 24
belt 24
boni@@ 24
comprehen@@ 24
dable 24
demi 24
dest@@ 24
essing 24
exist@@ 24
exu@@ 24
fing 24
formali@@ 24
hkan 24
humane 24
ima@@ 24
intah 24
ish@@ 24
ison 24
kewise 24
kus 24
legitimi@@ 24
llo 24
locations 24
luar 24
lung 24
mun@@ 24
musi@@ 24
nali@@ 24
neighbor@@ 24
obli@@ 24
opp@@ 24
oxi@@ 24
paya 24
pertama 24
ray 24
recei@@ 24
safeguar@@ 24
scap@@ 24
seas 24
standardi@@ 24
tam@@ 24
tr@@ 24
turali@@ 24
ufa@@ 24
ums 24
vage 24
verage 24
vili@@ 24
vision@@ 24
zia 24
á@@ 24
з 24
он@@ 24
сі@@ 24
ық 24
1948 23
1972 23
33 23
350 23
6,000 23
71 23
Age 23
Altern@@ 23
Anwar 23
Austri@@ 23
BM@@ 23
BU@@ 23
Black 23
CDs 23
Catholi@@ 23
Ce@@ 23
Celsius 23
Club 23
Credit 23
Dec@@ 23
Du@@ 23
EA 23
EA@@ 23
EM@@ 23
End 23
Euroskep@@ 23
Exchange 23
Fal@@ 23
Fri@@ 23
Hum@@ 23
Hung@@ 23
Kur@@ 23
Lanka 23
Los 23
Mechan@@ 23
Mobi@@ 23
Muammar 23
Nicaragua 23
PA@@ 23
Pla@@ 23
Politics 23
Roman 23
Rs 23
STANFORD 23
Technology 23
Tro@@ 23
UM@@ 23
Yale 23
Zhao 23
abis 23
acade@@ 23
aku 23
ali 23
ativ@@ 23
bil@@ 23
candida@@ 23
chil@@ 23
clause 23
commer@@ 23
cultur@@ 23
dam 23
definitive 23
delegation 23
devast@@ 23
dney 23
esa 23
fik@@ 23
gangs 23
gans 23
gara 23
greement 23
hypothe@@ 23
inde@@ 23
invest@@ 23
irm 23
ita 23
jah@@ 23
kembali 23
kungan 23
kur@@ 23
lian 23
liqui@@ 23
lords 23
mak@@ 23
mask@@ 23
massi@@ 23
mat 23
mengi@@ 23
mming 23
motor 23
mpul@@ 23
mysteri@@ 23
nah 23
ott 23
paternali@@ 23
pause 23
penurunan 23
princip@@ 23
proje@@ 23
proper@@ 23
pus@@ 23
ret@@ 23
schedu@@ 23
seh@@ 23
shal@@ 23
shops 23
sikan 23
spon@@ 23
spor@@ 23
stin@@ 23
stration 23
suspe@@ 23
syste@@ 23
technologi@@ 23
transplan@@ 23
ult 23
vert 23
vigilan@@ 23
wab 23
wai@@ 23
wak@@ 23
š@@ 23
ге 23
10.@@ 22
130 22
1920 22
1931 22
200@@ 22
300,000 22
34 22
77 22
78 22
Ach@@ 22
Air 22
Alex@@ 22
Angeles 22
Antar@@ 22
Assi@@ 22
Bin 22
Bol@@ 22
CN@@ 22
Capit@@ 22
FS@@ 22
Faci@@ 22
Hab@@ 22
IBM 22
IV 22
Ine@@ 22
Inflation 22
José 22
Kaczyński 22
Kofi 22
Les@@ 22
Man 22
Mandela 22
Mao@@ 22
Milton 22
Mitt 22
Oxford 22
PL@@ 22
Pan@@ 22
Pentagon 22
Polit@@ 22
Provi@@ 22
Puerto 22
Schäuble 22
Sor@@ 22
Summers 22
Thir@@ 22
Wh@@ 22
William 22
X 22
aca 22
accep@@ 22
addres@@ 22
aga 22
appal@@ 22
balli@@ 22
beru@@ 22
bizarre 22
cational 22
chi 22
chy 22
cion 22
counting 22
desper@@ 22
dimin@@ 22
ech@@ 22
eller 22
eminent 22
encoura@@ 22
endo@@ 22
ener@@ 22
eng@@ 22
enn@@ 22
fini@@ 22
hibi@@ 22
horr@@ 22
illiqui@@ 22
inclu@@ 22
incor@@ 22
inno@@ 22
inte@@ 22
interview 22
jangka 22
kni@@ 22
komit@@ 22
laun@@ 22
liest 22
lower@@ 22
lowing 22
machin@@ 22
mail 22
manfaat 22
mber 22
mengen@@ 22
odwill 22
omin@@ 22
ore@@ 22
panjang 22
preme 22
pump@@ 22
ratified 22
rele@@ 22
rier 22
rits 22
soli@@ 22
specu@@ 22
spontan@@ 22
staun@@ 22
steam 22
stif@@ 22
temu@@ 22
tim@@ 22
tz 22
uk@@ 22
ull 22
usah@@ 22
utop@@ 22
utter@@ 22
vered 22
vergen@@ 22
vig@@ 22
ware 22
worsen@@ 22
yan@@ 22
è@@ 22
А@@ 22
ар 22
ау@@ 22
зі@@ 22
не@@ 22
са@@ 22
сы 22
т 22
қ 22
140 21
1940 21
1962 21
1984 21
63 21
99 21
Ali@@ 21
BRI@@ 21
Bus@@ 21
CCS 21
CO@@ 21
Carter 21
College 21
Cu@@ 21
Die@@ 21
Dodd 21
Ed@@ 21
Ehud 21
F. 21
Fili@@ 21
Fischer 21
GM 21
Gam@@ 21
Get@@ 21
Gr@@ 21
Gri@@ 21
Hel@@ 21
IS 21
Indi@@ 21
JP 21
Kno@@ 21
Luxem@@ 21
Madrid 21
ON@@ 21
Orbán 21
Orleans 21
PP@@ 21
PR@@ 21
Parado@@ 21
Paul@@ 21
Populi@@ 21
Prodi 21
Py@@ 21
RA 21
Regul@@ 21
Represent@@ 21
Rogoff 21
Rousse@@ 21
SW@@ 21
Sant@@ 21
Seoul 21
Snowden 21
TA@@ 21
Ten@@ 21
Ther@@ 21
Univers@@ 21
Wil@@ 21
Wilders 21
Yukos 21
abrupt 21
ade@@ 21
alin 21
alth@@ 21
authenti@@ 21
bedro@@ 21
berapa 21
bert 21
bud@@ 21
bun@@ 21
conci@@ 21
confir@@ 21
crop@@ 21
curr@@ 21
dis 21
dit@@ 21
effici@@ 21
eler@@ 21
engah 21
eotyp@@ 21
etary 21
ett 21
fairer 21
fans 21
fel@@ 21
ffer 21
fi 21
gawat@@ 21
giti@@ 21
gle 21
gol@@ 21
hoc 21
hoods 21
itas 21
kipun 21
ld@@ 21
lemmas 21
lights 21
maneu@@ 21
meni@@ 21
mier 21
monum@@ 21
necessi@@ 21
oliti@@ 21
opportun@@ 21
oto 21
ple 21
prakti@@ 21
push@@ 21
realisti@@ 21
rent@@ 21
resent@@ 21
ropoli@@ 21
rot 21
rumah 21
sco@@ 21
soldi@@ 21
solvent 21
sovereign@@ 21
stol@@ 21
stron@@ 21
sympath@@ 21
tat@@ 21
theid 21
thos 21
transpor@@ 21
uro 21
vic 21
victi@@ 21
vious 21
ñ@@ 21
ағ@@ 21
бі@@ 21
ты 21
56 20
66 20
73 20
76 20
Afgh@@ 20
Ap@@ 20
BP 20
Bak@@ 20
Bashir 20
Basi@@ 20
Bat@@ 20
Beg@@ 20
Bundesbank 20
Christ@@ 20
Condoleezza 20
Costa 20
Coun@@ 20
Currency 20
Deal 20
Dialo@@ 20
Einstein 20
Exper@@ 20
Fannie 20
Fin@@ 20
Frankfurt 20
Guinea 20
Hai@@ 20
Hamilton 20
IA@@ 20
IF@@ 20
Ibrahim 20
Ing@@ 20
Jiang 20
Ken@@ 20
Keynesi@@ 20
Ministers 20
Mohammad 20
Mur@@ 20
NG@@ 20
Pur@@ 20
Real 20
Reinhart 20
Saleh 20
Salvador 20
Srebrenica 20
Sun@@ 20
Tar@@ 20
Thre@@ 20
Trust 20
Tus@@ 20
Volcker 20
WF 20
Xinjiang 20
accompan@@ 20
ald 20
amine 20
anced 20
ange 20
ange@@ 20
anta@@ 20
antag@@ 20
apo@@ 20
arm 20
arrogant 20
artifi@@ 20
atmo@@ 20
bela@@ 20
billi@@ 20
bus 20
competi@@ 20
dakan 20
dapat@@ 20
ddenly 20
deter@@ 20
deteri@@ 20
dru@@ 20
eful 20
ember 20
ente 20
ente@@ 20
eth 20
ey@@ 20
fest 20
formi@@ 20
gency 20
generi@@ 20
gris 20
ine@@ 20
inher@@ 20
inj@@ 20
intervention@@ 20
inv@@ 20
irm@@ 20
itor@@ 20
kal@@ 20
lep@@ 20
lick 20
lima 20
lon 20
mass@@ 20
mately 20
mentar@@ 20
mi 20
mis 20
muster 20
ora 20
osition 20
port@@ 20
rap@@ 20
roll@@ 20
ron 20
sect@@ 20
sedi@@ 20
sers 20
singly 20
sme@@ 20
sober@@ 20
socie@@ 20
sophisti@@ 20
sto 20
strength@@ 20
suici@@ 20
sustain@@ 20
teria 20
terse@@ 20
therap@@ 20
there@@ 20
tini@@ 20
ulkan 20
unda@@ 20
uted 20
vent@@ 20
willin@@ 20
yn 20
ć 20
Трам@@ 20
ады 20
ин@@ 20
ған 20
• 20
2,@@ 19
57 19
69 19
84 19
88 19
AN@@ 19
Af@@ 19
Buff@@ 19
CEOs 19
CHI@@ 19
Chan@@ 19
Chil@@ 19
Cri@@ 19
Dan 19
Emi@@ 19
Eurobonds 19
Europe@@ 19
FBI 19
FTA 19
Fil@@ 19
Gener@@ 19
Green@@ 19
Hurri@@ 19
Independence 19
Information 19
Koran 19
Lan@@ 19
MD@@ 19
Mali 19
McKinsey 19
Meskipun 19
Money 19
Mussolini 19
Pax 19
Peter 19
PiS 19
Rein@@ 19
SE@@ 19
SM 19
SP@@ 19
Sand@@ 19
She@@ 19
Silva 19
Sudan@@ 19
TH@@ 19
TO 19
Warren 19
Wei@@ 19
Zed@@ 19
admap 19
affor@@ 19
aga@@ 19
aku@@ 19
alien 19
alu 19
amed 19
arr@@ 19
az@@ 19
bab@@ 19
bare 19
bi 19
bon 19
burg 19
ciary 19
com 19
condi@@ 19
curren@@ 19
demographi@@ 19
deriv@@ 19
ego@@ 19
eit 19
element@@ 19
eling 19
ellow 19
ender 19
entation 19
entr@@ 19
entren@@ 19
ethanol 19
feu@@ 19
free@@ 19
gdom 19
glomer@@ 19
gnant 19
hukum 19
ia@@ 19
iel@@ 19
illeg@@ 19
isse@@ 19
ite@@ 19
ith 19
ju 19
junta 19
lakukan 19
ligen@@ 19
lor@@ 19
ly@@ 19
metho@@ 19
mod@@ 19
nai@@ 19
negle@@ 19
nes@@ 19
net@@ 19
nut@@ 19
oso@@ 19
parliament@@ 19
passen@@ 19
pension@@ 19
pessimis@@ 19
philosophi@@ 19
presum@@ 19
proportion@@ 19
rat 19
reds 19
religi@@ 19
ren 19
rhetori@@ 19
rug 19
signifi@@ 19
silen@@ 19
sist@@ 19
sonal 19
staff@@ 19
stil@@ 19
stitu@@ 19
stitution 19
subsi@@ 19
tag@@ 19
tels 19
triump@@ 19
uel 19
uth 19
vier 19
wea@@ 19
wi 19
wra@@ 19
és 19
г@@ 19
ге@@ 19
лі@@ 19
ті@@ 19
ып 19
,@@ 18
07 18
110 18
450 18
52 18
54 18
Aid 18
Angola 18
Aqu@@ 18
Bag@@ 18
Barak 18
Bio@@ 18
C. 18
CC 18
Charlie 18
Dem@@ 18
Dre@@ 18
EP 18
Eff@@ 18
Electri@@ 18
FIFA 18
FO@@ 18
Fran@@ 18
Ghraib 18
Hop@@ 18
Im@@ 18
Index 18
Janeiro 18
Khomeini 18
Lenin 18
Major 18
Mumbai 18
Nar@@ 18
ONG 18
Opposition 18
PS 18
Peres 18
Peri@@ 18
Petro@@ 18
Poverty 18
RC 18
Rabin 18
Rus@@ 18
Sadat 18
Saf@@ 18
Sei@@ 18
Sovie@@ 18
Stat@@ 18
Tayyip 18
Test 18
Tol@@ 18
Tor@@ 18
WikiLeaks 18
Yasukuni 18
Yor@@ 18
Z 18
Zhou 18
aber@@ 18
aka 18
alli@@ 18
avo@@ 18
bate 18
bru@@ 18
cc@@ 18
challen@@ 18
clubs 18
denomin@@ 18
depar@@ 18
dna@@ 18
dysfun@@ 18
dé@@ 18
elect@@ 18
emit@@ 18
enfor@@ 18
eras 18
erg@@ 18
excellence 18
faire 18
gangan 18
garan@@ 18
geri 18
ids 18
industri@@ 18
intoler@@ 18
ization 18
jad 18
jur@@ 18
kl@@ 18
lands@@ 18
laure@@ 18
let@@ 18
lis 18
lock@@ 18
lowers 18
mentally 18
militar@@ 18
mort@@ 18
neum@@ 18
olf 18
oto@@ 18
pemer@@ 18
planes 18
promo@@ 18
radio@@ 18
refle@@ 18
register 18
revision@@ 18
risk@@ 18
ry@@ 18
rying 18
sau@@ 18
sels 18
senti@@ 18
seper@@ 18
sial 18
sidi@@ 18
sillu@@ 18
skil@@ 18
spra@@ 18
spro@@ 18
sterili@@ 18
tern@@ 18
tis 18
tit@@ 18
toxi@@ 18
ua 18
uar@@ 18
umin@@ 18
univers@@ 18
vin 18
wart 18
yek 18
ç@@ 18
ақ@@ 18
ик@@ 18
м 18
мүм@@ 18
рақ 18
180 17
1900 17
AMR 17
ART 17
Abdu@@ 17
Agenda 17
Algeri@@ 17
Ash@@ 17
Ay@@ 17
Barroso 17
Bot@@ 17
Chal@@ 17
Char@@ 17
Chavez 17
Children 17
Daniel 17
Econo@@ 17
Eisen@@ 17
G8 17
Gar@@ 17
Geithner 17
Glob@@ 17
Hass@@ 17
IC 17
Journal 17
Kaczy@@ 17
Kel@@ 17
Larry 17
Leon@@ 17
Liby@@ 17
Lin@@ 17
Mach@@ 17
Maghreb 17
Mus@@ 17
Niger 17
Nordi@@ 17
Norwe@@ 17
Op@@ 17
Pes@@ 17
Portu@@ 17
Provin@@ 17
Recep 17
Resear@@ 17
Rica 17
Serge@@ 17
Shin@@ 17
Singh 17
Stali@@ 17
Star@@ 17
Super@@ 17
Swe@@ 17
Tem@@ 17
The@@ 17
Transatlan@@ 17
Um@@ 17
Ur@@ 17
Winston 17
Wolfen@@ 17
Yu@@ 17
ab 17
abrup@@ 17
acity 17
alis@@ 17
alth 17
ann@@ 17
att 17
bang 17
bangunan 17
beth 17
caus@@ 17
cohe@@ 17
cycli@@ 17
del 17
dies@@ 17
dow 17
economi@@ 17
efs 17
eleg@@ 17
elegan@@ 17
elo@@ 17
emen 17
endums 17
ers@@ 17
estro@@ 17
fluctu@@ 17
function@@ 17
gah 17
gel 17
genous 17
gif@@ 17
helm 17
hem@@ 17
incen@@ 17
itably 17
kable 17
kinan 17
kis 17
kor@@ 17
lief 17
lind@@ 17
manager 17
mess@@ 17
nie 17
ona 17
ov@@ 17
pendu@@ 17
psychiat@@ 17
rist@@ 17
roy@@ 17
secon@@ 17
sex@@ 17
sie@@ 17
sir 17
sohn 17
ssen@@ 17
stantly 17
stark@@ 17
tory 17
trig@@ 17
trodu@@ 17
ubahan 17
unbe@@ 17
usi@@ 17
vigi@@ 17
von 17
Р@@ 17
дің 17
ере@@ 17
кі@@ 17
ол 17
ра@@ 17
ту@@ 17
ық@@ 17
05 16
11.@@ 16
1983 16
2018 16
2100 16
23@@ 16
30@@ 16
40,000 16
74 16
92 16
AIIB 16
AM@@ 16
Also 16
Aung 16
Bach@@ 16
Bas@@ 16
Bom@@ 16
Boston 16
CBO 16
Cru@@ 16
Develop@@ 16
Dig@@ 16
Economist 16
Edward 16
GF@@ 16
GUE 16
Gold@@ 16
Gran@@ 16
Guang@@ 16
Gü@@ 16
Gülen 16
Hin@@ 16
Hun@@ 16
Il@@ 16
Intelle@@ 16
Joint 16
Kenne@@ 16
Klaus 16
Livni 16
Lyn@@ 16
Main@@ 16
Michel 16
Migration 16
Mili@@ 16
Nature 16
Nu@@ 16
Os 16
Physi@@ 16
Pradesh 16
Radi@@ 16
Respon@@ 16
Sahara 16
Salaf@@ 16
Sam@@ 16
Saud 16
Sc@@ 16
Sci@@ 16
Simp@@ 16
Star 16
Sy@@ 16
Tahrir 16
Tele@@ 16
Tr@@ 16
Transpar@@ 16
Tre@@ 16
Vie@@ 16
Vietnam@@ 16
Vá@@ 16
Wilson 16
Wolfgang 16
aggres@@ 16
aksin 16
ale@@ 16
alt 16
ame@@ 16
ank 16
audi@@ 16
awat@@ 16
bekistan 16
casu@@ 16
catastrop@@ 16
chips 16
ciation 16
comfort@@ 16
ctur@@ 16
democra@@ 16
democrati@@ 16
demogra@@ 16
dig@@ 16
din 16
dinavi@@ 16
disc@@ 16
distan@@ 16
dnad@@ 16
dump@@ 16
ea 16
ellen 16
ford 16
frag@@ 16
gently 16
gori@@ 16
gressive 16
hung 16
imperfe@@ 16
impover@@ 16
incum@@ 16
lifer@@ 16
liveli@@ 16
loser 16
mach@@ 16
maf@@ 16
mans 16
mba@@ 16
menun@@ 16
meri@@ 16
mily 16
mingly 16
moment@@ 16
mund@@ 16
nat@@ 16
negoti@@ 16
nel 16
ni 16
oci@@ 16
organ 16
ota 16
park 16
parks 16
philoso@@ 16
priorit@@ 16
ras 16
reason@@ 16
region@@ 16
rest@@ 16
rus@@ 16
satelli@@ 16
sche@@ 16
sey 16
shall 16
silkan 16
sourcing 16
spiration 16
stasi 16
sugge@@ 16
surp@@ 16
thei@@ 16
tless 16
tocol 16
tribun@@ 16
visu@@ 16
wen@@ 16
where@@ 16
ары 16
й 16
ті 16
ыз@@ 16
ына 16
‑ 16
0 15
00@@ 15
169 15
1949 15
27@@ 15
7,000 15
8,000 15
Abdel 15
Aff@@ 15
Ath@@ 15
BBC 15
Banglades@@ 15
Barcelona 15
Bern@@ 15
Bhut@@ 15
Bla@@ 15
Camp@@ 15
Cho@@ 15
Corporate 15
DDT 15
Domini@@ 15
EI@@ 15
EM 15
Effe@@ 15
Extre@@ 15
Feder@@ 15
Fir@@ 15
Hamp@@ 15
Home 15
Imm@@ 15
J. 15
Jeff@@ 15
Kam@@ 15
Kenn@@ 15
Law@@ 15
MA 15
MT 15
Management 15
Massachusetts 15
Mexi@@ 15
Mol@@ 15
NE 15
OXFORD 15
Organ@@ 15
PI 15
Parli@@ 15
Pearl 15
Philipp@@ 15
Slobodan 15
Stream 15
Tan@@ 15
Taylor 15
Tobin 15
Toc@@ 15
Tot@@ 15
Trans@@ 15
UNESCO 15
UNIC@@ 15
Val@@ 15
Varo@@ 15
WW@@ 15
Wat@@ 15
Win@@ 15
allah 15
andal@@ 15
approach@@ 15
arro@@ 15
artment 15
atur 15
aus 15
auvin@@ 15
ba 15
ball@@ 15
capai 15
citi@@ 15
control@@ 15
dens 15
diri@@ 15
dish 15
dismis@@ 15
doms 15
eering 15
eil 15
eir 15
eness 15
enthusi@@ 15
epidemi@@ 15
ev 15
flexi@@ 15
four@@ 15
gmati@@ 15
gor@@ 15
graph 15
hep@@ 15
ika 15
ina 15
inn@@ 15
ino@@ 15
iro 15
isla@@ 15
jani 15
karang 15
kilo@@ 15
kli@@ 15
lemen@@ 15
lini@@ 15
mann 15
memb@@ 15
mption 15
ohn@@ 15
ono@@ 15
ons@@ 15
ph 15
pon@@ 15
pornogra@@ 15
profession@@ 15
propri@@ 15
ril@@ 15
rities 15
rono@@ 15
serv@@ 15
sillusion@@ 15
sta 15
stes 15
strai@@ 15
sung 15
sympathi@@ 15
tender 15
tes@@ 15
ton@@ 15
tre 15
tun 15
versa@@ 15
yn@@ 15
ysteri@@ 15
АҚШ 15
Е@@ 15
ия@@ 15
нде 15
я 15
1957 14
1961 14
1977 14
4,@@ 14
58 14
750 14
81 14
89 14
Ahmed 14
Amsterdam 14
Andrew 14
Argu@@ 14
Ariel 14
Aristi@@ 14
Aviv 14
Benjamin 14
Bis@@ 14
Br@@ 14
Burundi 14
CB@@ 14
CDS 14
Cambridge 14
Camp 14
Che 14
Corpor@@ 14
Cra@@ 14
Daily 14
Deb@@ 14
Dick 14
Dire@@ 14
Ent@@ 14
Ev@@ 14
Fidel 14
GI 14
Geneti@@ 14
Hondu@@ 14
IA 14
II@@ 14
Institu@@ 14
Investi@@ 14
Kabul 14
Khat@@ 14
Kirchner 14
Lat@@ 14
Li 14
Lit@@ 14
Lou@@ 14
Maliki 14
Marie 14
Mau@@ 14
Mladi@@ 14
Mohammed 14
Nichol@@ 14
Oba@@ 14
PP 14
Plan@@ 14
Politi@@ 14
Pon@@ 14
RO 14
Raf@@ 14
Ram@@ 14
Samu@@ 14
Sou@@ 14
Stern 14
Sti@@ 14
TA 14
TS 14
TT@@ 14
Tel 14
Terror 14
Timo@@ 14
UNICEF 14
abad 14
accoun@@ 14
agu@@ 14
ails 14
alah 14
alami 14
alter@@ 14
ament@@ 14
ana@@ 14
appear@@ 14
applau@@ 14
aster 14
atures 14
authorit@@ 14
ay 14
blan@@ 14
brin@@ 14
casts 14
cei@@ 14
celeb@@ 14
chens 14
cher 14
chuan 14
coher@@ 14
controversi@@ 14
cup@@ 14
dded 14
dem 14
destru@@ 14
diplomati@@ 14
edo 14
ef 14
eit@@ 14
ek 14
embra@@ 14
ener 14
enrich@@ 14
enth@@ 14
ern 14
ese@@ 14
eur 14
fact@@ 14
fest@@ 14
fon@@ 14
fter 14
geh@@ 14
gered 14
gf@@ 14
gos 14
hat 14
hill 14
hori@@ 14
hospit@@ 14
hs 14
hypotheti@@ 14
immen@@ 14
iti@@ 14
itu@@ 14
jug@@ 14
kredi@@ 14
kri@@ 14
ktu@@ 14
lage 14
lia 14
liation 14
lt 14
milli@@ 14
num@@ 14
olls 14
ox@@ 14
patho@@ 14
pharmaceu@@ 14
proportional 14
pursu@@ 14
qué 14
rau@@ 14
rect 14
remember@@ 14
rence 14
resour@@ 14
rible 14
ruin@@ 14
sewhere 14
simultane@@ 14
sins 14
skep@@ 14
spre@@ 14
sser 14
statisti@@ 14
sten 14
tariat 14
task@@ 14
tet 14
tude 14
tuk 14
ught 14
ums@@ 14
urban@@ 14
urun@@ 14
vi 14
wah@@ 14
weren 14
yama 14
ym 14
аст@@ 14
в@@ 14
ері@@ 14
ро@@ 14
та 14
тар@@ 14
1963 13
3,@@ 13
83 13
87 13
AAA 13
AU 13
Abra@@ 13
Addis 13
Anti@@ 13
Arth@@ 13
Bangkok 13
Bank@@ 13
Behin@@ 13
Blix 13
Blo@@ 13
Blue 13
Briga@@ 13
CD 13
CH@@ 13
Cap@@ 13
Cle@@ 13
Colle@@ 13
Columbia 13
DS 13
Direc@@ 13
Djin@@ 13
Dmit@@ 13
Dr. 13
ED 13
EL 13
Eliza@@ 13
Eri@@ 13
Experi@@ 13
Fah@@ 13
Finan@@ 13
Fl@@ 13
Francisco 13
Gaul@@ 13
Georgi@@ 13
Haider 13
Hariri 13
Hil@@ 13
Human@@ 13
Imperi@@ 13
Je@@ 13
Juni@@ 13
Kh@@ 13
Lau@@ 13
Lord 13
Mass@@ 13
Mes@@ 13
Minsk 13
Mitt@@ 13
Namibia 13
Nas@@ 13
Ol@@ 13
Operation 13
PKK 13
Pat@@ 13
Q 13
Ren@@ 13
Renaissance 13
Securities 13
Senegal 13
Sta@@ 13
Syn@@ 13
Technologi@@ 13
Tel@@ 13
Tob@@ 13
Universi@@ 13
VI 13
Vis@@ 13
Yi@@ 13
Yugosla@@ 13
Zar@@ 13
Zer@@ 13
advant@@ 13
aj@@ 13
aller@@ 13
ampnbsp 13
angi 13
ao 13
aria 13
arianism 13
arran@@ 13
astern 13
atro@@ 13
bank@@ 13
bankrupt@@ 13
bench@@ 13
bie@@ 13
bo 13
censor@@ 13
ci 13
compu@@ 13
conv@@ 13
derung 13
destro@@ 13
dit 13
effe@@ 13
ehr@@ 13
elson 13
ement@@ 13
emotion@@ 13
erce 13
fair@@ 13
figh@@ 13
forums 13
gements 13
gens 13
genu@@ 13
hosti@@ 13
hou 13
hous@@ 13
id@@ 13
introdu@@ 13
iri 13
itor 13
iz 13
janjian 13
jum@@ 13
kamp@@ 13
kistan 13
kra@@ 13
lans 13
lication 13
lo 13
los 13
lot@@ 13
mag@@ 13
mament 13
mie 13
ministeri@@ 13
mitt@@ 13
moh@@ 13
morali@@ 13
oblig@@ 13
ord 13
otos 13
ourn@@ 13
passi@@ 13
peac@@ 13
perpetra@@ 13
pite 13
pou@@ 13
reak@@ 13
reiter@@ 13
rel 13
rements 13
rt 13
sens@@ 13
seti@@ 13
sharp@@ 13
sick@@ 13
signi@@ 13
sprin@@ 13
sse 13
steri@@ 13
stir@@ 13
tag 13
tek@@ 13
tempor@@ 13
tieth 13
transpar@@ 13
trun@@ 13
tt 13
ttle 13
uble 13
vertheless 13
xit 13
º 13
Ж@@ 13
гі 13
ой@@ 13
тын 13
қал@@ 13
.000 12
08 12
125 12
170 12
1944 12
50@@ 12
72 12
97 12
AK@@ 12
Alzheimer 12
Ang@@ 12
Ani@@ 12
Arti@@ 12
Auth@@ 12
B. 12
BRIC 12
Brun@@ 12
Carmen 12
Chin@@ 12
Chr@@ 12
Citigroup 12
Cross 12
Den@@ 12
Dru@@ 12
EF 12
ET@@ 12
Emer@@ 12
Er@@ 12
Frank@@ 12
Fundament@@ 12
G7 12
Geno@@ 12
HO@@ 12
Horn 12
IP 12
IP@@ 12
Island 12
It@@ 12
Jackson 12
Jobs 12
Kan@@ 12
Kir@@ 12
Kostunica 12
LI@@ 12
Laut 12
Mari@@ 12
Media 12
Mitchell 12
Moder@@ 12
Monnet 12
Montreal 12
Natur@@ 12
Omar 12
Protest@@ 12
Ran@@ 12
Rat@@ 12
Romano 12
Rub@@ 12
SN@@ 12
Sho@@ 12
Sir 12
Start 12
Tah@@ 12
Tak@@ 12
Tari@@ 12
Van 12
Walter 12
Watson 12
Wiki@@ 12
Wis@@ 12
Yen 12
Zum@@ 12
abili@@ 12
adi 12
age@@ 12
aissance 12
auer 12
ault 12
beria 12
big@@ 12
bombar@@ 12
bot 12
bot@@ 12
cellor 12
centu@@ 12
dap@@ 12
daran 12
dership 12
det@@ 12
doch 12
docum@@ 12
dop@@ 12
easi@@ 12
efe@@ 12
eh 12
ema 12
endra 12
enga@@ 12
entrepreneu@@ 12
exten@@ 12
fte@@ 12
fut@@ 12
great@@ 12
hangs 12
hen 12
illus@@ 12
incap@@ 12
infrastru@@ 12
invol@@ 12
isms 12
juan 12
kali@@ 12
kira@@ 12
kla@@ 12
klim 12
larity 12
lida@@ 12
liner 12
lus@@ 12
marking 12
mbab@@ 12
mbo@@ 12
miliki 12
mimpin 12
mori@@ 12
mus 12
neu@@ 12
nie@@ 12
nik 12
ollar 12
ompok 12
oversi@@ 12
percep@@ 12
prep@@ 12
primar@@ 12
proce@@ 12
profi@@ 12
prosper@@ 12
protesti@@ 12
qualitative 12
rais@@ 12
rami@@ 12
reformi@@ 12
resear@@ 12
rey 12
riad 12
rou@@ 12
ruck 12
sah@@ 12
semi@@ 12
seu@@ 12
shire 12
ska 12
sponsor@@ 12
suffici@@ 12
sur 12
terrori@@ 12
thema 12
theore@@ 12
ticism 12
tivi@@ 12
tradi@@ 12
transa@@ 12
tuan 12
tumbu@@ 12
tut 12
unab@@ 12
usen 12
versary 12
vesti@@ 12
vez 12
vide@@ 12
www.@@ 12
ywood 12
ž@@ 12
П@@ 12
алық 12
ат@@ 12
бас@@ 12
тың 12
ф@@ 12
03 11
13.@@ 11
61 11
Bali 11
Bir@@ 11
Budapest 11
Call 11
Citi@@ 11
Dalai 11
Dat@@ 11
Det@@ 11
Diplo@@ 11
Dollar 11
ED@@ 11
ER 11
Es 11
Establish@@ 11
Fron@@ 11
G20 11
Giscard 11
Gold 11
Helmut 11
Himal@@ 11
Hir@@ 11
Hiroshima 11
Hut@@ 11
Hy@@ 11
IV@@ 11
Io@@ 11
Jak@@ 11
Job 11
Journali@@ 11
Kaz@@ 11
Kie@@ 11
LIF@@ 11
Lah@@ 11
Lama 11
Louis 11
Malaysi@@ 11
Mei@@ 11
Nat@@ 11
Nelson 11
Net@@ 11
Part@@ 11
Plenum 11
Por@@ 11
Powell 11
Quar@@ 11
Regi@@ 11
STO@@ 11
Sam 11
Sharif 11
Spani@@ 11
Stephen 11
Stockholm 11
TAN@@ 11
Toler@@ 11
UA@@ 11
Volkswagen 11
Za@@ 11
abinet 11
absur@@ 11
accept@@ 11
acco 11
ais 11
alition 11
alley 11
amin@@ 11
anachron@@ 11
anni@@ 11
ante 11
antiretro@@ 11
arat 11
ares 11
asm 11
atur@@ 11
beni@@ 11
bund 11
charac@@ 11
ckens 11
cks@@ 11
convinc@@ 11
deregu@@ 11
diagnosti@@ 11
digni@@ 11
dikan 11
dogmati@@ 11
drau@@ 11
drin 11
eign 11
elli 11
ene 11
erson 11
espe@@ 11
ester 11
ette 11
ety 11
exac@@ 11
exer@@ 11
expansive 11
faci@@ 11
famili@@ 11
forci@@ 11
glo@@ 11
gratu@@ 11
gur@@ 11
hef@@ 11
hili@@ 11
hus@@ 11
ices 11
immer@@ 11
iner 11
inev@@ 11
inve@@ 11
ister 11
kelanjutan 11
lige 11
lightly 11
limm@@ 11
logi@@ 11
lokal 11
mah@@ 11
manu@@ 11
mari@@ 11
masuk 11
math 11
mean@@ 11
mly 11
mmet@@ 11
mone 11
nah@@ 11
nan@@ 11
normal@@ 11
ods 11
olle@@ 11
org 11
otage 11
ournal 11
perfe@@ 11
pole@@ 11
policy@@ 11
poly@@ 11
rar@@ 11
recor@@ 11
remo@@ 11
reng@@ 11
requi@@ 11
robu@@ 11
sch 11
schi@@ 11
shrin@@ 11
sih 11
sper@@ 11
spira@@ 11
spu@@ 11
sses 11
stak@@ 11
station@@ 11
sterity 11
struc@@ 11
tradition@@ 11
trage@@ 11
troub@@ 11
uri 11
urunan 11
veys 11
zophren@@ 11
zur@@ 11
И@@ 11
О@@ 11
ос@@ 11
сал@@ 11
ци@@ 11
ынд@@ 11
ында 11
ығ@@ 11
ұр@@ 11
.com 10
1939 10
1951 10
91 10
93 10
96 10
AP@@ 10
Aden@@ 10
BI 10
Bes@@ 10
Bil@@ 10
Bit@@ 10
Brazi@@ 10
Bul@@ 10
CS@@ 10
Chemi@@ 10
De 10
Delors 10
Divi@@ 10
ECH@@ 10
EO 10
Emis@@ 10
Emm@@ 10
Est@@ 10
Estaing 10
Expan@@ 10
FC 10
Ferti@@ 10
Finn@@ 10
Friedrich 10
Gas 10
Gui@@ 10
Helsinki 10
Hen@@ 10
Hon@@ 10
IL@@ 10
IM@@ 10
Intifada 10
Jimmy 10
Khmer 10
Kohl 10
Kor@@ 10
Koso@@ 10
Lab@@ 10
Mbeki 10
Met@@ 10
Nab@@ 10
Nei@@ 10
Non@@ 10
PO@@ 10
Pas@@ 10
Pit@@ 10
Professor 10
RS 10
Reform@@ 10
Rep@@ 10
Repor@@ 10
SR 10
Sein 10
Spra@@ 10
Stabili@@ 10
Statisti@@ 10
TO@@ 10
TT 10
That@@ 10
Timor 10
Top 10
Tran@@ 10
Vari@@ 10
Vit@@ 10
Vol@@ 10
Zo@@ 10
affe@@ 10
aller 10
alt@@ 10
althy 10
anges 10
aph@@ 10
ardi@@ 10
atedly 10
ause 10
bat 10
berculosis 10
berku@@ 10
berto 10
best@@ 10
bilater@@ 10
bub@@ 10
busin@@ 10
chen 10
conta@@ 10
credited 10
cularly 10
culti@@ 10
debat@@ 10
deem@@ 10
demon@@ 10
dialo@@ 10
dig 10
disastro@@ 10
disi 10
dse@@ 10
dup 10
earthqu@@ 10
eland 10
elt 10
embe@@ 10
eng 10
etings 10
expansion@@ 10
faktor 10
fem@@ 10
fester 10
fie@@ 10
freu@@ 10
genoci@@ 10
ggle 10
gigan@@ 10
gion 10
grad 10
gut 10
harm@@ 10
hist@@ 10
ig 10
ik 10
ik@@ 10
immi@@ 10
impres@@ 10
ims 10
inklu@@ 10
inson 10
jian 10
kok 10
konserv@@ 10
kru@@ 10
kter 10
kti@@ 10
leb@@ 10
lina 10
magne@@ 10
marck 10
mbar@@ 10
mind@@ 10
monet@@ 10
mutu@@ 10
now@@ 10
ople 10
ori 10
outh 10
posite 10
primi@@ 10
prolon@@ 10
psy@@ 10
radikal 10
rats 10
reluct@@ 10
resist@@ 10
rik 10
rupt@@ 10
secul@@ 10
siders 10
sidiar@@ 10
split@@ 10
stab@@ 10
stabil 10
stabil@@ 10
stit@@ 10
tage 10
thres@@ 10
tially 10
tions@@ 10
tiss@@ 10
vada 10
viously 10
weap@@ 10
will@@ 10
wle@@ 10
za@@ 10
zin 10
zo 10
án 10
ó@@ 10
ón 10
С@@ 10
анд@@ 10
ағы 10
бұл 10
гі@@ 10
ді@@ 10
жо@@ 10
жыл@@ 10
ні@@ 10
нің 10
пай@@ 10
се 10
тү@@ 10
ші@@ 10
ыст@@ 10
ң 10
04 9
12.@@ 9
175 9
1976 9
5,@@ 9
6,@@ 9
Adop@@ 9
Ankara 9
Att@@ 9
Atta@@ 9
Auschwitz 9
BER@@ 9
Bab@@ 9
Benazir 9
Bere@@ 9
Blan@@ 9
Blu@@ 9
Bolivi@@ 9
Boll@@ 9
Bon@@ 9
Boo@@ 9
Bundestag 9
CDU 9
CIS 9
Caro@@ 9
Duisenberg 9
EIB 9
Edu@@ 9
Ener@@ 9
Ethi@@ 9
Europ@@ 9
Exp@@ 9
Expor@@ 9
Extra@@ 9
Fle@@ 9
Foc@@ 9
Fun@@ 9
Gab@@ 9
Gl@@ 9
Guantanamo 9
HI@@ 9
Hard 9
IT@@ 9
Institution 9
Invest@@ 9
Irak 9
Kab@@ 9
Kad@@ 9
Kaliningrad 9
Kol@@ 9
Kouchner 9
Kun@@ 9
Laos 9
Lap@@ 9
Learning 9
Lie@@ 9
Likud 9
MO@@ 9
Malta 9
Mani@@ 9
Mercosur 9
Moh@@ 9
Monterrey 9
Moral 9
Mul@@ 9
Mut@@ 9
Nicol@@ 9
Obi@@ 9
Opp@@ 9
Otto@@ 9
Oz@@ 9
PAR@@ 9
Past@@ 9
Post@@ 9
Pro 9
Programme 9
Prophe@@ 9
Rate 9
Realpolitik 9
Refer@@ 9
Reich 9
Rogo@@ 9
SK 9
Seen 9
Sheikh 9
Skep@@ 9
Smart 9
Stein 9
Susta@@ 9
TON 9
Tiger 9
Wolf 9
Zapatero 9
agan 9
agan@@ 9
ail@@ 9
aje@@ 9
allen@@ 9
allo 9
aloni@@ 9
amis 9
anno@@ 9
are@@ 9
assu@@ 9
ativity 9
band@@ 9
barometer 9
bef@@ 9
berikan 9
bilities 9
burgh 9
chester 9
chn@@ 9
cipa@@ 9
compati@@ 9
cro 9
ctious 9
cun 9
curing 9
cyc@@ 9
dams 9
dem@@ 9
dema@@ 9
dits 9
dramati@@ 9
ds@@ 9
dust@@ 9
earn@@ 9
eholders 9
ein@@ 9
elf 9
elle 9
enda@@ 9
enlighten@@ 9
essen@@ 9
essi@@ 9
ethi@@ 9
fada 9
feld 9
fen@@ 9
festi@@ 9
fig@@ 9
forman@@ 9
ghan@@ 9
gration 9
gres@@ 9
gression 9
grotes@@ 9
haf@@ 9
horizont@@ 9
hosp@@ 9
hygiene 9
intelligent@@ 9
itat 9
knologi 9
lahs 9
lank@@ 9
lary 9
lationary 9
leh@@ 9
leni@@ 9
limp@@ 9
ling@@ 9
lux@@ 9
mens 9
nee@@ 9
ole@@ 9
onium 9
open@@ 9
operative 9
ordi@@ 9
owski 9
perform@@ 9
pher 9
pira@@ 9
pus 9
rative 9
recip@@ 9
recogni@@ 9
remark@@ 9
repar@@ 9
restru@@ 9
ristina 9
riz@@ 9
sider 9
sili@@ 9
sives 9
soft@@ 9
span@@ 9
sse@@ 9
sson 9
stel@@ 9
tability 9
tee 9
tem@@ 9
terj@@ 9
tiger 9
tsun@@ 9
une 9
unter 9
ural 9
uter 9
vement 9
wick@@ 9
wild@@ 9
wri@@ 9
ymp@@ 9
º@@ 9
ł@@ 9
Д@@ 9
ардың 9
жү@@ 9
және 9
ит@@ 9
мер@@ 9
не 9
қа 9
− 9
60@@ 8
7,@@ 8
79 8
94 8
Administ@@ 8
Airbus 8
Amm@@ 8
Amnesty 8
Anal@@ 8
Argen@@ 8
Auto@@ 8
Az@@ 8
Boeing 8
Bou@@ 8
CC@@ 8
Cann@@ 8
Cel@@ 8
Christop@@ 8
Commonwealth 8
Dal@@ 8
Diam@@ 8
EF@@ 8
Estab@@ 8
FI@@ 8
Fis@@ 8
Fol@@ 8
Ford 8
Fort@@ 8
Fren@@ 8
Fried@@ 8
Gaz@@ 8
Gil@@ 8
Gla@@ 8
Haf@@ 8
His@@ 8
ISA 8
Industri@@ 8
Innov@@ 8
J 8
Jin@@ 8
Karab@@ 8
Keti@@ 8
Kha@@ 8
Ly@@ 8
Mag@@ 8
Mich@@ 8
Mik@@ 8
Mir@@ 8
Mob@@ 8
Nord 8
Opti@@ 8
Origin@@ 8
Pakist@@ 8
Pati@@ 8
Pau@@ 8
Person@@ 8
Personal 8
Peter@@ 8
Prof@@ 8
Progra@@ 8
Pun@@ 8
Rah@@ 8
Region 8
Revol@@ 8
Scho@@ 8
Schuman 8
Sie@@ 8
Slow@@ 8
Socie@@ 8
Son@@ 8
Standards 8
Stein@@ 8
Systems 8
TE@@ 8
TY 8
Tit@@ 8
Trop@@ 8
Tunis 8
UK@@ 8
USA 8
Ve@@ 8
Watch 8
Weber 8
Wit@@ 8
Yuan 8
abri@@ 8
adop@@ 8
anis 8
ano 8
argu@@ 8
arte@@ 8
atol@@ 8
ator@@ 8
atür@@ 8
bele@@ 8
bend 8
bere@@ 8
berger 8
bey 8
claim@@ 8
crates 8
crete 8
ctiv@@ 8
cus@@ 8
dei@@ 8
dented 8
deploy@@ 8
derer 8
dida@@ 8
disapp@@ 8
dou@@ 8
dt 8
duk 8
eable 8
econo@@ 8
edly 8
eine 8
ekono@@ 8
ello 8
emar@@ 8
ense 8
entives 8
erie 8
expan@@ 8
extern@@ 8
fortunately 8
fres@@ 8
fungs@@ 8
fur 8
ght@@ 8
gie 8
hadi@@ 8
hamm@@ 8
hin 8
hut@@ 8
isen 8
ison@@ 8
iti 8
ities 8
itly 8
jan@@ 8
jo 8
jung 8
kah 8
kapit@@ 8
kow@@ 8
kritik 8
laden 8
lages 8
lich@@ 8
likeli@@ 8
line@@ 8
lle 8
lu 8
lv@@ 8
manufactur@@ 8
meningkat@@ 8
mere@@ 8
mol@@ 8
numer@@ 8
ob 8
onent 8
ony@@ 8
orie 8
ortation 8
os@@ 8
oul 8
pair 8
pen 8
plat@@ 8
polis 8
politan@@ 8
pose@@ 8
qua 8
quidi@@ 8
raid 8
ramp@@ 8
rang 8
rase 8
sage 8
sanit@@ 8
sati@@ 8
sci@@ 8
sident 8
sius 8
solidi@@ 8
spen@@ 8
stein 8
stop@@ 8
stur@@ 8
susta@@ 8
tely 8
tragi@@ 8
tremen@@ 8
trol@@ 8
tumbuhan 8
typ@@ 8
unica 8
unities 8
ura 8
uruh 8
uss@@ 8
usti@@ 8
velop@@ 8
vern@@ 8
vings 8
wledge 8
ye 8
yste@@ 8
ysts 8
zai 8
zu@@ 8
É@@ 8
ê@@ 8
ú@@ 8
Г@@ 8
айл@@ 8
бұ@@ 8
дың 8
ері 8
ру@@ 8
сая@@ 8
со@@ 8
ти@@ 8
ция@@ 8
ше@@ 8
шыл@@ 8
000 7
01 7
06 7
230 7
280 7
Alternative 7
Ander@@ 7
Andre@@ 7
Anna 7
Antoni@@ 7
BSE 7
Bagh@@ 7
Belar@@ 7
Bonds 7
CE@@ 7
Califor@@ 7
Cam@@ 7
Cancún 7
Carlos 7
Cent@@ 7
Compu@@ 7
Constitu@@ 7
Cop@@ 7
Cyber 7
DI 7
DP@@ 7
DV@@ 7
Deflation 7
Dia@@ 7
Domin@@ 7
Dublin 7
EB@@ 7
ENP 7
Epi@@ 7
Era@@ 7
Eritrea 7
Erne@@ 7
Ethiop@@ 7
FAO 7
Fair@@ 7
Famili@@ 7
Femin@@ 7
GATT 7
Gender 7
Gong 7
Gor@@ 7
Governance 7
Guatem@@ 7
Gun@@ 7
Ham@@ 7
Hans 7
Herzog 7
Hor@@ 7
ITER 7
Identi@@ 7
Import@@ 7
Jes@@ 7
Johannesburg 7
Kal@@ 7
Kari@@ 7
Kauf@@ 7
Konrad 7
Lang@@ 7
London@@ 7
Lud@@ 7
MS@@ 7
Mainstream 7
Maj@@ 7
Marco 7
Maria 7
Motors 7
Oli@@ 7
On@@ 7
Online 7
Opport@@ 7
Organis@@ 7
Ori@@ 7
Ox@@ 7
PC@@ 7
PR 7
Pay@@ 7
Philip 7
Psych@@ 7
Rab@@ 7
Rei@@ 7
Religion 7
SO@@ 7
Salv@@ 7
Seattle 7
Sech@@ 7
Shan@@ 7
Sign@@ 7
Soft 7
Tab@@ 7
Task 7
Tat@@ 7
Teheran 7
Territori@@ 7
Terrorist 7
Va@@ 7
Valéry 7
Van@@ 7
Voj@@ 7
Wah@@ 7
Willi@@ 7
Winter 7
Zone 7
Zu@@ 7
aband@@ 7
agr@@ 7
aktiv@@ 7
alin@@ 7
alui 7
approxi@@ 7
ario 7
aties 7
aut@@ 7
azi@@ 7
bankro@@ 7
bour@@ 7
bure@@ 7
cele@@ 7
cently 7
chen@@ 7
cia 7
curring 7
dago@@ 7
dos 7
doubtedly 7
ear 7
eil@@ 7
ele 7
eno@@ 7
eva 7
fanta@@ 7
fea@@ 7
ficits 7
foli@@ 7
fort@@ 7
geist 7
gna 7
gner 7
gre 7
hase 7
hic 7
hir 7
ilibrium 7
intelle@@ 7
intellec@@ 7
jeop@@ 7
kaum 7
kn@@ 7
kot@@ 7
ktur 7
len 7
lima@@ 7
marri@@ 7
mimp@@ 7
minim@@ 7
mono@@ 7
multilater@@ 7
nin@@ 7
onen 7
ou 7
perva@@ 7
pheri@@ 7
plau@@ 7
precip@@ 7
public@@ 7
quote 7
rab@@ 7
rai@@ 7
rali@@ 7
redu@@ 7
reprodu@@ 7
riel 7
ritt@@ 7
ritu@@ 7
rus 7
ré@@ 7
scha@@ 7
sema@@ 7
siv@@ 7
sorti@@ 7
stasi@@ 7
struktur 7
terin@@ 7
tox@@ 7
transf@@ 7
tui@@ 7
ulti@@ 7
uner@@ 7
ungs 7
urship 7
use@@ 7
ussi@@ 7
ussion 7
utation 7
vailing 7
vak@@ 7
wasan 7
wen 7
west@@ 7
wley 7
wski 7
ão 7
К@@ 7
М@@ 7
ген 7
ел@@ 7
и 7
из@@ 7
ли@@ 7
од@@ 7
пе@@ 7
ыс@@ 7
1,5 6
201@@ 6
ARC 6
Ahma@@ 6
Ahtisaari 6
Analy@@ 6
Anne 6
Ant@@ 6
Ast@@ 6
Atlan@@ 6
Boli@@ 6
Bonn 6
Bulgari@@ 6
CSR 6
Cau@@ 6
Chris 6
Clarke 6
Crash 6
Côte 6
DE 6
Demo@@ 6
Demogra@@ 6
Diversi@@ 6
Dor@@ 6
Dur@@ 6
EU@@ 6
Ecu@@ 6
Emo@@ 6
Eth@@ 6
Eu@@ 6
Eurobarometer 6
Eurostat 6
Export 6
FA 6
FA@@ 6
Fakt@@ 6
Falun 6
Flor@@ 6
Franc@@ 6
Fru@@ 6
Geo@@ 6
Ghan@@ 6
Git@@ 6
Hav@@ 6
Haz@@ 6
Herman 6
Herzego@@ 6
IRA 6
Ign@@ 6
Immi@@ 6
Immigration 6
Inf@@ 6
Inte@@ 6
Integration 6
Ivoire 6
Kat@@ 6
Kind@@ 6
Knesset 6
Kri@@ 6
Lati@@ 6
Lock@@ 6
Med@@ 6
Mid@@ 6
Mission 6
Musi@@ 6
NEPAD 6
NO@@ 6
Nairobi 6
Napole@@ 6
Nomin@@ 6
Nov@@ 6
Oper@@ 6
Orthodox@@ 6
Os@@ 6
Paraguay 6
Pet@@ 6
Pot@@ 6
Potential 6
Privati@@ 6
Propaganda 6
RM@@ 6
Radio 6
Ras@@ 6
Rati@@ 6
Refle@@ 6
Religi@@ 6
Republi@@ 6
Resol@@ 6
Restri@@ 6
Revolu@@ 6
Sau@@ 6
Schmidt 6
Sep@@ 6
Seri@@ 6
Singap@@ 6
Sk@@ 6
Somali@@ 6
Status 6
Sw@@ 6
Tami@@ 6
Transi@@ 6
Trends 6
Troika 6
Turkmenistan 6
Ul@@ 6
VP 6
Visi@@ 6
Wim 6
Xin@@ 6
ado@@ 6
ag 6
aggre@@ 6
agno@@ 6
agri@@ 6
akan@@ 6
anci@@ 6
ank@@ 6
appeti@@ 6
asy@@ 6
aucra@@ 6
beginn@@ 6
benu@@ 6
bequ@@ 6
besie@@ 6
bijakan 6
briti@@ 6
certainties 6
chard 6
chts 6
contro@@ 6
dad 6
danya 6
dap 6
dard 6
dasar@@ 6
demokrati@@ 6
die@@ 6
dini 6
dn 6
domesti@@ 6
dore 6
drei 6
eben@@ 6
ecu@@ 6
ehatan 6
ehem@@ 6
eholds 6
eigner 6
eigners 6
eim@@ 6
elds 6
eme 6
enn 6
enness 6
erb@@ 6
erk@@ 6
etz 6
explosi@@ 6
expos@@ 6
fats 6
filling 6
flan@@ 6
flus@@ 6
foc@@ 6
frei@@ 6
gelo@@ 6
gend 6
geri@@ 6
gman 6
gut@@ 6
ica 6
ign@@ 6
indisp@@ 6
ira@@ 6
jakan 6
jin@@ 6
kins 6
kio 6
kir@@ 6
komple@@ 6
konstru@@ 6
lash 6
ld 6
legi@@ 6
legis@@ 6
legisla@@ 6
leu@@ 6
lif@@ 6
lok@@ 6
miss@@ 6
modern@@ 6
mud 6
mur 6
navig@@ 6
neigh@@ 6
nes 6
nia 6
oden 6
oft 6
ologi 6
optimis@@ 6
ordinarily 6
pende@@ 6
pendi@@ 6
periode 6
pharma@@ 6
placement 6
progno@@ 6
provin@@ 6
r. 6
rang@@ 6
rectly 6
represent@@ 6
revers@@ 6
rez 6
rial 6
rich@@ 6
risten@@ 6
russi@@ 6
sages 6
sah 6
sand@@ 6
sank 6
scan@@ 6
secut@@ 6
sens 6
sensus 6
sfer 6
sil 6
sinn@@ 6
spap@@ 6
staf@@ 6
temper@@ 6
therhood 6
traje@@ 6
trivi@@ 6
ubled 6
uch 6
undes@@ 6
universi@@ 6
vements 6
vere 6
verti@@ 6
volu@@ 6
warf 6
yr@@ 6
zek 6
zens 6
á 6
ère 6
ér@@ 6
В@@ 6
Т@@ 6
аз@@ 6
ом@@ 6
про@@ 6
рі@@ 6
то@@ 6
х@@ 6
ым@@ 6
ю@@ 6
я@@ 6
үшін 6
09 5
23.@@ 5
8,@@ 5
@ 5
Ag@@ 5
Anders 5
Angel@@ 5
Arch@@ 5
Asso@@ 5
Aznar 5
Bild 5
Brand@@ 5
Brasi@@ 5
Bulg@@ 5
Bö@@ 5
Camer@@ 5
Colo@@ 5
Commit@@ 5
DT 5
Dah@@ 5
Dayton 5
Defi@@ 5
Durban 5
Dy@@ 5
Emb@@ 5
Evans 5
Expansion 5
Explo@@ 5
Fair 5
Fall 5
Fall@@ 5
Fan@@ 5
Fast 5
Fer@@ 5
Fern@@ 5
Forest 5
Freu@@ 5
Glen@@ 5
Harris 5
Haus@@ 5
Hot@@ 5
Ignor@@ 5
Iraq@@ 5
Isol@@ 5
Javier 5
Kaiser 5
Kore@@ 5
Kru@@ 5
La 5
Lamy 5
Liikanen 5
Lucas 5
ME@@ 5
Mauritius 5
McC@@ 5
Mek@@ 5
Memorand@@ 5
Minist@@ 5
Monitoring 5
Montenegro 5
Muhamm@@ 5
Museum 5
Nep@@ 5
Nie@@ 5
Niko@@ 5
Nord@@ 5
OL 5
ON 5
Obje@@ 5
PE@@ 5
PM@@ 5
PN@@ 5
Patrio@@ 5
Pel@@ 5
Phar@@ 5
Pierre 5
Polio 5
Port@@ 5
Pragmati@@ 5
Qaida 5
Rand 5
Ree@@ 5
Refor@@ 5
Reser@@ 5
Rot@@ 5
SADC 5
Sac@@ 5
Sah@@ 5
Sak@@ 5
Schu@@ 5
Schwar@@ 5
See 5
See@@ 5
Sev@@ 5
Spi@@ 5
Summ@@ 5
TRIPS 5
Tali@@ 5
Tour@@ 5
Treat@@ 5
Typ@@ 5
UKIP 5
Var@@ 5
Vel@@ 5
Versa@@ 5
Vinc@@ 5
Wild@@ 5
Yan@@ 5
Zin@@ 5
abrik 5
amanan 5
ammer 5
ancing 5
ard@@ 5
aten@@ 5
ats@@ 5
banken 5
bei@@ 5
belan@@ 5
benef@@ 5
bul 5
chin@@ 5
dd 5
dij@@ 5
dily 5
dir 5
dung 5
eck 5
eher 5
eillance 5
emiskinan 5
erne@@ 5
erns 5
err@@ 5
erry 5
essor 5
expen@@ 5
facili@@ 5
fei@@ 5
fisk@@ 5
ges@@ 5
gio 5
green@@ 5
gro 5
grow@@ 5
gust 5
ha 5
heik@@ 5
het@@ 5
hinter@@ 5
hyth@@ 5
iety 5
ile 5
implement@@ 5
import@@ 5
interes@@ 5
itely 5
jang 5
key@@ 5
kg 5
kle@@ 5
klus 5
kom@@ 5
kontra@@ 5
kontro@@ 5
ktiv@@ 5
kul@@ 5
ladi@@ 5
lang@@ 5
leans 5
lear@@ 5
lem 5
leth@@ 5
lex@@ 5
lig@@ 5
ll@@ 5
loss@@ 5
maro@@ 5
mengat@@ 5
mie@@ 5
missi@@ 5
mittances 5
morrow 5
multipol@@ 5
mung@@ 5
napp@@ 5
nd 5
nen@@ 5
nesi@@ 5
norm@@ 5
ogen 5
oll 5
ongside 5
oples 5
osi@@ 5
perman@@ 5
pinned 5
pment 5
pos@@ 5
ppi 5
probe 5
problemati@@ 5
produktiv@@ 5
protection@@ 5
renz@@ 5
rimin@@ 5
rote 5
rung 5
schar@@ 5
see@@ 5
starker 5
struktur@@ 5
succ@@ 5
sympto@@ 5
techn@@ 5
tem 5
terha@@ 5
terium 5
terr@@ 5
terte 5
test@@ 5
tex 5
throp@@ 5
tina 5
transp@@ 5
treat@@ 5
tte 5
uma 5
unik@@ 5
unprece@@ 5
usal 5
usu@@ 5
vacu@@ 5
vos 5
won@@ 5
ynn 5
ysi@@ 5
zqu@@ 5
Álvarez 5
én@@ 5
ía 5
ör@@ 5
ğ@@ 5
Ш@@ 5
о 5
ь@@ 5
экономик@@ 5
Қ@@ 5
02 4
1000 4
108 4
112 4
21.@@ 4
Aceh 4
Afri@@ 4
All@@ 4
Ambi@@ 4
Amp@@ 4
Andr@@ 4
Anne@@ 4
Antibio@@ 4
Argenti@@ 4
Arsenal 4
Art 4
As@@ 4
Avi@@ 4
Barnier 4
Box 4
Brad@@ 4
Bran@@ 4
CITES 4
Calder@@ 4
Cali@@ 4
Champ@@ 4
Chaos 4
Chur@@ 4
Clar@@ 4
Colum@@ 4
Cou@@ 4
Cyber@@ 4
D.C. 4
Deli@@ 4
Demonstra@@ 4
Depres@@ 4
Der 4
Der@@ 4
Dere@@ 4
Diaspora 4
Diplomati@@ 4
Dissi@@ 4
Dut@@ 4
EG@@ 4
EN 4
Ecofin 4
Ehrlich 4
Engin@@ 4
Evalu@@ 4
FR 4
Fahr@@ 4
Feld@@ 4
Fon@@ 4
Four@@ 4
Franz 4
GD 4
Gal@@ 4
García 4
Gau@@ 4
Gel@@ 4
Gün@@ 4
Hed@@ 4
Hub@@ 4
Hus@@ 4
Hypo@@ 4
Illusion 4
Impor@@ 4
Infrastruktur 4
Inspe@@ 4
Jor@@ 4
Jose@@ 4
Kasp@@ 4
Khar@@ 4
Kil@@ 4
Kis@@ 4
Koh@@ 4
Kok 4
Kra@@ 4
Labor@@ 4
Leg@@ 4
Legis@@ 4
Lei@@ 4
Liquidi@@ 4
Lon@@ 4
Loy@@ 4
Mafia 4
Male 4
Mana@@ 4
Mandel@@ 4
Medina 4
Mit@@ 4
Mod@@ 4
Mr@@ 4
Muse@@ 4
ND 4
NS 4
Neo@@ 4
Neuro@@ 4
Obst@@ 4
PL 4
Parkinson 4
Pass@@ 4
Peer 4
Perry 4
Phili@@ 4
Profession@@ 4
Profit 4
Psychi@@ 4
Quali@@ 4
Rand@@ 4
Rec@@ 4
Rede@@ 4
Repres@@ 4
Revi@@ 4
Rin@@ 4
Riv@@ 4
Roman@@ 4
Rum@@ 4
Rä@@ 4
SP 4
Sab@@ 4
Schaden@@ 4
Screening 4
Secu@@ 4
Sinn 4
Solana 4
Soli@@ 4
Spiegel 4
Squ@@ 4
Stagnation 4
Strategi@@ 4
Stre@@ 4
Sánchez 4
TRI@@ 4
Techni@@ 4
Tex@@ 4
Transport 4
Trin@@ 4
Tun@@ 4
Turk@@ 4
UCK 4
Veterin@@ 4
Vision 4
Wales 4
Wind 4
Yasu@@ 4
accompli@@ 4
acquis 4
adda@@ 4
airs 4
ais@@ 4
aka@@ 4
akti@@ 4
aler 4
alisti@@ 4
alters 4
aments 4
andel 4
ando 4
angel 4
arbitr@@ 4
arm@@ 4
aspe@@ 4
aspira@@ 4
ato 4
autaire 4
bau@@ 4
beam@@ 4
bedient 4
bizar@@ 4
bler 4
buah 4
ceu@@ 4
change@@ 4
cie@@ 4
commodi@@ 4
conspira@@ 4
convin@@ 4
cuku@@ 4
dden@@ 4
deed 4
deral 4
despread 4
dialog 4
digit@@ 4
dik 4
dire@@ 4
diskrimin@@ 4
dium 4
docu@@ 4
ehold 4
eig@@ 4
eils 4
elas 4
enden 4
enheit 4
erst@@ 4
ewi@@ 4
expect@@ 4
exponenti@@ 4
fau@@ 4
formance 4
fossi@@ 4
gek@@ 4
gness 4
gno@@ 4
gota 4
gration@@ 4
guide@@ 4
gunaan 4
hai 4
hemm@@ 4
hile 4
icul@@ 4
iland 4
ilibri@@ 4
imple@@ 4
inequ@@ 4
irreversi@@ 4
iso@@ 4
kasus 4
kein@@ 4
kitar 4
klar@@ 4
kriti@@ 4
ktor 4
kub@@ 4
kum@@ 4
lander 4
laps 4
liges 4
managements 4
masse 4
medic@@ 4
mehow 4
mei@@ 4
mug@@ 4
nels 4
nine@@ 4
nistri@@ 4
nos 4
nov@@ 4
omm@@ 4
opport@@ 4
ord@@ 4
orien@@ 4
ots@@ 4
ous@@ 4
percent@@ 4
pert 4
pest 4
populi@@ 4
positives 4
programme 4
promis@@ 4
rak 4
relev@@ 4
rer 4
resili@@ 4
rie 4
rig 4
romis@@ 4
rotten 4
sam 4
sam@@ 4
sance 4
sant 4
sche 4
schief 4
selves 4
skis 4
solida@@ 4
solv@@ 4
sprung 4
sser@@ 4
stern 4
ston 4
straight@@ 4
streaming 4
sum@@ 4
system@@ 4
t. 4
takan 4
tat 4
tene 4
terie 4
territori@@ 4
tik@@ 4
tracted 4
tter 4
una 4
unde@@ 4
unen@@ 4
univer@@ 4
unter@@ 4
utz 4
varo 4
vehement 4
vention@@ 4
wanderung 4
wes@@ 4
whel@@ 4
wid@@ 4
wollen 4
xy 4
yb@@ 4
yl@@ 4
zeit@@ 4
zip@@ 4
zon@@ 4
zy@@ 4
ández 4
änen 4
Н@@ 4
С 4
Ф@@ 4
в 4
ның 4
по@@ 4
пре@@ 4
ц@@ 4
әне 4
,5 3
1,3 3
122 3
145 3
190 3
2,6 3
5.000 3
= 3
Aber@@ 3
Afghan@@ 3
Aka@@ 3
Alli@@ 3
Am 3
Apartheid 3
Ari@@ 3
Arm 3
Assads 3
Asy@@ 3
Atlanti@@ 3
Aus@@ 3
Aust@@ 3
Autono@@ 3
Barbar@@ 3
Barrot 3
Beh@@ 3
Bendit 3
Billi@@ 3
Bl@@ 3
Block 3
Bru@@ 3
Byr@@ 3
Cast@@ 3
Cauca@@ 3
Chinas 3
Clu@@ 3
Cohn 3
Computer 3
Davi@@ 3
Dest@@ 3
Die 3
Dro@@ 3
Du 3
Dul@@ 3
Dyna@@ 3
ECO@@ 3
ESS 3
Elite 3
Emission 3
Engli@@ 3
Ern@@ 3
Execu@@ 3
FOR 3
FORD 3
Fak@@ 3
Fat@@ 3
Fau@@ 3
Ferr@@ 3
Festi@@ 3
Flexi@@ 3
Flu@@ 3
Forums 3
Frau@@ 3
Frequ@@ 3
Frontex 3
Funda@@ 3
Fut@@ 3
GM@@ 3
Gaddafi 3
Gali@@ 3
Galileo 3
Gand@@ 3
Gang 3
Geogra@@ 3
Geor@@ 3
Gh@@ 3
Hand@@ 3
Harmoni@@ 3
Hiro@@ 3
Hong@@ 3
Hunger 3
Hypothe@@ 3
I. 3
Import 3
Infe@@ 3
Inform@@ 3
Innovation 3
Inten@@ 3
Interpretation 3
Intervention 3
Inti@@ 3
Jon@@ 3
Kamp@@ 3
Kanada 3
Kath@@ 3
Kris@@ 3
Kub@@ 3
Lam@@ 3
Lampedusa 3
Land@@ 3
Leaks 3
Lear@@ 3
Legislative 3
Lloyd 3
Log@@ 3
Luxemburg 3
Länder 3
MAP 3
MED@@ 3
Mada@@ 3
Mai 3
Mali@@ 3
Mathemati@@ 3
Mean@@ 3
Micro@@ 3
Mir 3
Mobili@@ 3
More@@ 3
Mün@@ 3
Nah@@ 3
Nap@@ 3
Nation 3
Neg@@ 3
Neu@@ 3
Neves 3
PAD 3
PRI@@ 3
Pack 3
Parallel 3
Passage 3
Pat 3
Pl@@ 3
Poly@@ 3
Position 3
Prakti@@ 3
Proje@@ 3
Prosper@@ 3
Proz@@ 3
Psy@@ 3
Publi@@ 3
Put@@ 3
Quanti@@ 3
Red@@ 3
Regime 3
Resul@@ 3
Roh@@ 3
SS@@ 3
Sekre@@ 3
Sex 3
Spa@@ 3
Spon@@ 3
Stevenson 3
Stress 3
Sympto@@ 3
Talent 3
Team 3
Techno@@ 3
Thro@@ 3
Til@@ 3
Transa@@ 3
Transp@@ 3
Trau@@ 3
Tribun@@ 3
Tyran@@ 3
UNHCR 3
UNMIK 3
Ukra@@ 3
Uran@@ 3
Urban@@ 3
Utop@@ 3
Verheugen 3
Völker@@ 3
Was@@ 3
Wen@@ 3
Zeit@@ 3
Zü@@ 3
agger@@ 3
ajuan 3
aly@@ 3
ament 3
antes 3
antu 3
apit@@ 3
ase@@ 3
asta@@ 3
astrop@@ 3
atar 3
aton 3
auff@@ 3
awan 3
bask@@ 3
befallen 3
c. 3
ccer 3
champ@@ 3
chet 3
chs@@ 3
circa 3
cke 3
ckel 3
coni 3
dach@@ 3
darin 3
det 3
dev 3
dexes 3
ding@@ 3
disk@@ 3
dite 3
dler 3
dron 3
dun@@ 3
dustri@@ 3
eda 3
eign@@ 3
elekt@@ 3
eli 3
endt 3
enst@@ 3
enstein 3
enterp@@ 3
enty 3
ero 3
esn 3
exper@@ 3
expon@@ 3
fad 3
fang 3
ffe 3
fig 3
fts 3
fts@@ 3
gani 3
garde 3
gedly 3
geho@@ 3
gelin@@ 3
gerin@@ 3
ghi 3
gry 3
gst 3
gsten 3
guin 3
gum@@ 3
gur 3
heb@@ 3
heran@@ 3
hier 3
him@@ 3
ho 3
hola 3
hund@@ 3
iel 3
intellectu@@ 3
iz@@ 3
jamin 3
je 3
jem@@ 3
jiang 3
kinder 3
kna@@ 3
komi@@ 3
kono@@ 3
krat 3
krati@@ 3
kre@@ 3
krieg 3
ktur@@ 3
kus@@ 3
laku@@ 3
lemma 3
lever@@ 3
lik 3
lini 3
liz@@ 3
lus 3
mack 3
manfa@@ 3
mater@@ 3
mats 3
menunju@@ 3
mian 3
mien 3
mikro@@ 3
mium 3
mm 3
moil 3
mortga@@ 3
mos 3
nei@@ 3
nesti@@ 3
nesty 3
nt 3
onal@@ 3
ont 3
operation@@ 3
oro@@ 3
orten 3
otten 3
ow 3
paradig@@ 3
part@@ 3
pf@@ 3
phili@@ 3
poin@@ 3
pol 3
posedly 3
positi@@ 3
pothe@@ 3
ppe 3
problem@@ 3
prognosti@@ 3
quin 3
relu@@ 3
ros 3
rosi@@ 3
ross 3
rott@@ 3
rov@@ 3
rums 3
sei 3
semu@@ 3
sender 3
sest 3
sions@@ 3
skar 3
stadt 3
stat 3
stens 3
still@@ 3
strich 3
syarakat 3
tdown 3
tegration 3
tent 3
terns 3
terror@@ 3
themati@@ 3
thqu@@ 3
tu 3
twen@@ 3
typi@@ 3
tze 3
u00@@ 3
ughs 3
ula 3
ultra@@ 3
umen 3
upakan 3
urop@@ 3
urt 3
ussy 3
utz@@ 3
versu@@ 3
volution 3
winn@@ 3
yk@@ 3
yss@@ 3
zard 3
zig@@ 3
öh@@ 3
ń@@ 3
ş@@ 3
Н 3
ни@@ 3
ч@@ 3
ь 3
үш@@ 3
һ@@ 3
Ә@@ 3
₂ 3
.C. 2
02@@ 2
03@@ 2
103 2
115 2
116 2
133 2
137 2
197@@ 2
198@@ 2
199@@ 2
2,5 2
2. 2
220 2
22@@ 2
9,@@ 2
AA 2
ALE 2
Ad 2
Aggres@@ 2
Agr@@ 2
Ahmadine@@ 2
Aids 2
Almunia 2
Alstom 2
Analo@@ 2
And@@ 2
Andalu@@ 2
Andro@@ 2
Ange@@ 2
Argum@@ 2
Arro@@ 2
Asyl@@ 2
Australi@@ 2
Autor 2
Av@@ 2
Balkan@@ 2
Ball@@ 2
Banker 2
Bask@@ 2
Bay@@ 2
Beit@@ 2
Berg 2
Billion 2
Bonino 2
Brasili@@ 2
But@@ 2
CAM@@ 2
CR 2
Chance 2
Charta 2
Child@@ 2
Clear@@ 2
Condolee@@ 2
Cot@@ 2
Cox 2
Crimin@@ 2
Curren@@ 2
DEL@@ 2
Dau@@ 2
Declar@@ 2
Deleg@@ 2
Demago@@ 2
Den 2
Departe@@ 2
Deriv@@ 2
Details 2
Deutsch@@ 2
Dev@@ 2
Diabetes 2
Din@@ 2
Doping 2
Dun@@ 2
Eben@@ 2
Embry@@ 2
Ender@@ 2
Energie@@ 2
Eng@@ 2
Engagement 2
Ep@@ 2
Establishment 2
Europol 2
Ex 2
FI 2
Febru@@ 2
Film 2
Fla@@ 2
Flan@@ 2
Flug 2
Fraga 2
Free@@ 2
Frei@@ 2
Frie@@ 2
Frieden 2
GH 2
GMO 2
GPS 2
Gene 2
Generation 2
Gibraltar 2
Goebbels 2
Goo@@ 2
Got@@ 2
Gross@@ 2
Gul@@ 2
Guti@@ 2
Gy@@ 2
Gö@@ 2
HIPC 2
HO 2
HU 2
Hamil@@ 2
Hard@@ 2
Holo@@ 2
Hughes 2
Huss@@ 2
Hyper@@ 2
IK@@ 2
Illu@@ 2
Internation@@ 2
Interpre@@ 2
Iran@@ 2
Janu@@ 2
Juli 2
Juni 2
Justi@@ 2
Kais@@ 2
Kalifor@@ 2
Kamer@@ 2
Kampf 2
Kli@@ 2
Know 2
Koi@@ 2
Komp@@ 2
Kongr@@ 2
Konz@@ 2
Kop@@ 2
Krem@@ 2
Kultur@@ 2
LIN 2
Lamfalussy 2
Landes@@ 2
Lebe@@ 2
Legislat@@ 2
Lib@@ 2
Liter@@ 2
Lloy@@ 2
Lot@@ 2
MS 2
Macau 2
Mahmud 2
Mak@@ 2
Malm@@ 2
Mamm@@ 2
Mant@@ 2
Materi@@ 2
Material 2
Mauriti@@ 2
Maxi@@ 2
McCar@@ 2
McCarthy 2
Mein 2
Ment@@ 2
Merk@@ 2
Mess@@ 2
Millenni@@ 2
Miller 2
Ministeri@@ 2
Miranda 2
Mitter@@ 2
Moderni@@ 2
Mole@@ 2
Moment 2
Moment@@ 2
Mosle@@ 2
Mot@@ 2
Motiv@@ 2
Motor@@ 2
NGL 2
NGTON 2
Nai@@ 2
Nam@@ 2
Nami@@ 2
Nass@@ 2
Nazi@@ 2
Neut@@ 2
Nicaragu@@ 2
Normali@@ 2
Noti@@ 2
Nun@@ 2
OM 2
Offshore 2
Oktober 2
Opi@@ 2
Outsourcing 2
PRO@@ 2
Paci@@ 2
Pala@@ 2
Palesti@@ 2
Pani@@ 2
Paragu@@ 2
Partner@@ 2
Pause 2
Peking 2
Pension@@ 2
Pf@@ 2
Pharma@@ 2
Pion@@ 2
Plans 2
Plus 2
Polo 2
Posi@@ 2
Prior@@ 2
Priv@@ 2
Problem 2
Protest 2
Provo@@ 2
Putins 2
Pé@@ 2
Quad@@ 2
RE 2
Raff@@ 2
Rasmussen 2
Rates 2
Rating 2
Ration@@ 2
Rebel@@ 2
Reding 2
Republik 2
Respe@@ 2
Rhetori@@ 2
Risi@@ 2
Roth 2
Roth@@ 2
Rotter@@ 2
SWIFT 2
Schi@@ 2
Schulz 2
Schum@@ 2
Seh@@ 2
Sektor 2
Sensi@@ 2
Separati@@ 2
Sequ@@ 2
Smi@@ 2
Span@@ 2
Spar@@ 2
Spen@@ 2
Spor@@ 2
Stadium 2
Stand 2
Standar@@ 2
Substitution 2
Swi@@ 2
Symb@@ 2
Sü@@ 2
Tamp@@ 2
Taus@@ 2
Tech 2
Teen@@ 2
Telef@@ 2
Temper@@ 2
Tempo 2
Termin@@ 2
Theater 2
Theore@@ 2
Tier 2
Togo 2
Top@@ 2
Totali@@ 2
Tou@@ 2
Toxi@@ 2
Transfer 2
Transform@@ 2
Transformation 2
Transit 2
Tren@@ 2
Tsunami 2
Tum@@ 2
UR 2
Ud@@ 2
Union@@ 2
Universa@@ 2
Unter@@ 2
Uru@@ 2
Urugu@@ 2
Us@@ 2
Vene@@ 2
Verk@@ 2
Veto 2
Virus 2
Volk@@ 2
Von 2
Vor@@ 2
Wass@@ 2
Web@@ 2
Wehr@@ 2
Welt 2
Wer@@ 2
Whe@@ 2
Whit@@ 2
Wol@@ 2
Wör@@ 2
Zen@@ 2
Zha@@ 2
Zul@@ 2
aber 2
abin@@ 2
ack 2
ador 2
agne 2
ago@@ 2
akh@@ 2
allen 2
alu@@ 2
aly 2
angel@@ 2
angen@@ 2
ans@@ 2
arab@@ 2
ardo 2
atik 2
ations@@ 2
attack@@ 2
auch 2
aut 2
bach@@ 2
bangun@@ 2
befu@@ 2
berkem@@ 2
bik 2
biomet@@ 2
bis 2
bitten 2
bour 2
brü@@ 2
bt 2
caust 2
cease@@ 2
chases 2
chez 2
cht 2
cht@@ 2
ciptakan 2
cise 2
commo@@ 2
complex@@ 2
d.@@ 2
dener 2
deu@@ 2
dez 2
diban@@ 2
dimension@@ 2
dition@@ 2
dova 2
ehr 2
eini@@ 2
eist 2
eku@@ 2
ela 2
elektron@@ 2
elli@@ 2
emost 2
empf@@ 2
ende 2
energ@@ 2
enomen@@ 2
enopho@@ 2
ensation 2
entri@@ 2
eren 2
erer 2
eres 2
erra 2
erre 2
erre@@ 2
esen@@ 2
essen 2
este 2
evolution@@ 2
export@@ 2
ez@@ 2
fen 2
fern 2
ffer@@ 2
fik 2
fis 2
fluori@@ 2
fs@@ 2
gali@@ 2
ganda 2
gebor@@ 2
gela@@ 2
gem 2
ggen@@ 2
ghten@@ 2
gig 2
grity 2
gt 2
gungsi 2
harma@@ 2
hart 2
heim 2
herein 2
hima 2
hing@@ 2
hna@@ 2
humanit@@ 2
ief 2
ier@@ 2
illustri@@ 2
immedi@@ 2
inable 2
inea 2
ingga 2
instrument@@ 2
integr@@ 2
intel@@ 2
intelli@@ 2
intelligen@@ 2
isra@@ 2
istan 2
jap@@ 2
jub@@ 2
kari@@ 2
kas 2
kay 2
kenn@@ 2
kest@@ 2
keynesi@@ 2
kinder@@ 2
klini@@ 2
klu@@ 2
kman 2
kompen@@ 2
kons@@ 2
kultur 2
kum 2
kyo 2
lager 2
laut@@ 2
licon 2
linen 2
listri@@ 2
ller 2
luses 2
lust 2
macher 2
macht 2
mala@@ 2
mals 2
masu@@ 2
mbination 2
mengur@@ 2
mentari@@ 2
mik 2
misch@@ 2
mobi@@ 2
monopol@@ 2
mpu 2
muli@@ 2
nar 2
niti@@ 2
nock 2
obili@@ 2
offici@@ 2
oler@@ 2
ollen 2
olo 2
omed 2
omen 2
oners 2
oni 2
onwealth 2
opho@@ 2
opo@@ 2
orizont@@ 2
ost@@ 2
ote 2
otum 2
otyp@@ 2
paten@@ 2
phen@@ 2
poor@@ 2
pover@@ 2
pp 2
pran@@ 2
progra@@ 2
punc@@ 2
quantit@@ 2
quick@@ 2
rah@@ 2
rech@@ 2
rei 2
rekru@@ 2
relation@@ 2
resul@@ 2
ritan@@ 2
ritory 2
ritten 2
ror@@ 2
routin@@ 2
satz 2
scape 2
schem@@ 2
schie@@ 2
schil@@ 2
scht 2
sink@@ 2
soph@@ 2
sque@@ 2
stab 2
stadium 2
stag 2
stead 2
sthe@@ 2
stitute 2
stren@@ 2
substanti@@ 2
successf@@ 2
surv@@ 2
systemati@@ 2
tabel 2
tags 2
taine 2
taire 2
teristi@@ 2
tern 2
thil@@ 2
thous@@ 2
tief 2
tins 2
tol@@ 2
tos 2
ub 2
unan@@ 2
undations 2
unge@@ 2
unger 2
ungi 2
ungs@@ 2
usahaan 2
uss 2
vail@@ 2
vast@@ 2
velop 2
verla@@ 2
versy 2
vé 2
waff@@ 2
wand 2
wander@@ 2
wende 2
wis 2
wis@@ 2
witz 2
xe 2
xion 2
yakit 2
yo 2
zel@@ 2
zep@@ 2
Î@@ 2
Ö 2
â 2
ça 2
è 2
ête 2
î@@ 2
ö 2
ö@@ 2
ös@@ 2
ür@@ 2
œ@@ 2
š 2
В 2
Л@@ 2
У@@ 2
но@@ 2
ны@@ 2
ск@@ 2
э@@ 2
™ 2
机 2
* 1
.-@@ 1
.. 1
.00 1
.30 1
.e@@ 1
0,5 1
0,@@ 1
0.000 1
00.000 1
014@@ 1
04@@ 1
05@@ 1
06@@ 1
07@@ 1
1,6 1
1. 1
1.000 1
142 1
1930@@ 1
2,4 1
2,7 1
299 1
3,5 1
308 1
50.000 1
7,5 1
ASEM 1
Aca@@ 1
Acker@@ 1
Ahti@@ 1
Aktiv@@ 1
Allen 1
Allgemeine 1
Alp@@ 1
Alpha@@ 1
Alsto@@ 1
Alz@@ 1
Amin@@ 1
Angst 1
Apar@@ 1
Archite@@ 1
Argument 1
Arme@@ 1
Aspe@@ 1
Atlantik 1
Attra@@ 1
Auto 1
Automobil@@ 1
BSP 1
Balance 1
Bang@@ 1
Barometer 1
Bau@@ 1
Behr@@ 1
Bei@@ 1
Bein@@ 1
Belang 1
Belgi@@ 1
Berg@@ 1
Bli@@ 1
Block@@ 1
Boom 1
Boot 1
Bour@@ 1
Breit@@ 1
Brie@@ 1
Brief 1
Brut@@ 1
Bud@@ 1
Budgets 1
Bull@@ 1
Bundes@@ 1
Cannabis 1
Capp@@ 1
Cent 1
Chen@@ 1
Churchil@@ 1
Chá@@ 1
Clau@@ 1
Clin@@ 1
Coelho 1
Collins 1
Cunha 1
DER 1
DG@@ 1
DRI@@ 1
Dam@@ 1
Defini@@ 1
Dell 1
Deri@@ 1
Design 1
Destabili@@ 1
Deter@@ 1
Deutsch 1
Dies@@ 1
Dilemma 1
Dimension 1
Diskus@@ 1
Dop@@ 1
Dosis 1
Dover 1
Doyle 1
Drama 1
Dump@@ 1
Dí@@ 1
EDD 1
EFS@@ 1
ELDR 1
ET 1
ETA 1
EURO 1
Edinburgh 1
Ein@@ 1
End@@ 1
Ende@@ 1
Enga@@ 1
Enth@@ 1
Enthusi@@ 1
Erasmus 1
Erb@@ 1
Erdoğ@@ 1
Erit@@ 1
Ernst 1
Erosion 1
Ess@@ 1
Euph@@ 1
Europa 1
Evolution 1
FO 1
FOR@@ 1
FY@@ 1
FYROM 1
Fang 1
Fans 1
Fein@@ 1
Fel@@ 1
Finanz@@ 1
Finger 1
Fli@@ 1
Flori@@ 1
Focus 1
Fonds 1
Frag@@ 1
Frankfur@@ 1
Frau 1
Fukus@@ 1
Fusion 1
GASP 1
GR@@ 1
Gan@@ 1
Garri@@ 1
Gast@@ 1
Geh@@ 1
Gere@@ 1
Gestern 1
Gil 1
Gna@@ 1
Gon@@ 1
Gonz@@ 1
Grae@@ 1
Grow@@ 1
Grund@@ 1
Gut 1
Gut@@ 1
HI 1
Haag 1
Hand 1
Harmon@@ 1
Harv@@ 1
Hegem@@ 1
Hein@@ 1
Hern@@ 1
Herr 1
Herz@@ 1
Herzen 1
Hier@@ 1
Hiroshi@@ 1
Hit@@ 1
Hoch@@ 1
Holl@@ 1
Homo@@ 1
Homosexu@@ 1
Hygiene 1
IB@@ 1
ICA@@ 1
IFA 1
ILO 1
IMO 1
Ideal@@ 1
Illeg@@ 1
Industrie@@ 1
Institut 1
Institution@@ 1
Intensi@@ 1
Internationale 1
Interview 1
Ira@@ 1
Iris@@ 1
Iron@@ 1
Islam@@ 1
Isolation 1
Israeli@@ 1
Ivo@@ 1
Jac@@ 1
Jag@@ 1
Jah@@ 1
Jan 1
Japan@@ 1
Je 1
Jem@@ 1
Jensen 1
Jerus@@ 1
Johannes 1
Jugend 1
Jul@@ 1
Jur@@ 1
KG@@ 1
Kap@@ 1
Kau@@ 1
Kazakh@@ 1
Kei@@ 1
Kern 1
Khan@@ 1
Khomein@@ 1
Khrush@@ 1
Kle@@ 1
Klu@@ 1
Komi@@ 1
Kredi@@ 1
Kredit 1
Kuh@@ 1
Kund@@ 1
Königs@@ 1
Kün@@ 1
LV@@ 1
Lambert 1
Landes 1
Legiti@@ 1
Links 1
Lis@@ 1
Listen 1
Lobby 1
Lobby@@ 1
Lok@@ 1
Lux@@ 1
Lö@@ 1
MAS 1
MEDA 1
Madri@@ 1
Maf@@ 1
Mail 1
Managements 1
Manager 1
Manipu@@ 1
Mann 1
Marg@@ 1
Mark@@ 1
Marketing 1
Mart@@ 1
Materials 1
Matthe@@ 1
McCartney 1
McCreevy 1
McKin@@ 1
Mein@@ 1
Metho@@ 1
Militari@@ 1
Million 1
Milose@@ 1
Miner@@ 1
Minimum 1
Mit 1
Mitteleuropa 1
Mittelstand 1
Molda@@ 1
Monopol@@ 1
Mosco@@ 1
Mosk@@ 1
Moslems 1
Motor 1
Mubaraks 1
Multip@@ 1
Mushar@@ 1
Nein 1
Ney@@ 1
Nich@@ 1
Niel@@ 1
Nit@@ 1
Null 1
OP@@ 1
Offensive 1
Oligar@@ 1
Olymp@@ 1
Opportun@@ 1
Option 1
Orb@@ 1
Organ 1
Organisation 1
Ost@@ 1
Ottawa 1
PH@@ 1
Pak@@ 1
Palacio 1
Panzer 1
Parame@@ 1
Parish 1
Passiv@@ 1
Patient 1
Patten 1
Periode 1
Philoso@@ 1
Pho@@ 1
Piebalgs 1
Pir@@ 1
Plurali@@ 1
Plut@@ 1
Poet@@ 1
Poos 1
Portfoli@@ 1
Prie@@ 1
Privat@@ 1
Problems 1
Profit@@ 1
Prostitution 1
Prot@@ 1
Qa@@ 1
Quo 1
RK 1
ROM 1
Radio@@ 1
Radwan 1
Rak@@ 1
Rat 1
Rau@@ 1
Reb@@ 1
Rechtsstaat 1
Referendum 1
Referendums 1
Reformi@@ 1
Reg@@ 1
Regimes 1
Rehn 1
Reisen 1
Renminbi 1
Rest 1
Risiko 1
Roadmap 1
Russ@@ 1
Russi@@ 1
Rwand@@ 1
Rü@@ 1
SE 1
SIS 1
SV 1
Sand 1
Satelli@@ 1
Scha@@ 1
Schar@@ 1
Schau@@ 1
Schen@@ 1
Schie@@ 1
Schlü@@ 1
Schmitt 1
Schrö@@ 1
Schul@@ 1
Schulden@@ 1
Schön@@ 1
Schüssel 1
Scre@@ 1
Seni@@ 1
Septe@@ 1
Serie 1
Sexu@@ 1
Sit@@ 1
Situ@@ 1
Situation 1
Sl@@ 1
Solbes 1
Sper@@ 1
Spinelli 1
Spitz@@ 1
Sport 1
Stabilitäts@@ 1
Ster@@ 1
Stock@@ 1
Stur@@ 1
Sunni@@ 1
System@@ 1
Söder@@ 1
TSE 1
Tahri@@ 1
Tay@@ 1
Teams 1
Techn@@ 1
Tep@@ 1
Terr@@ 1
Text 1
Texti@@ 1
Them@@ 1
Therap@@ 1
Thessaloniki 1
Tier@@ 1
Tim@@ 1
Toulouse 1
Tradition@@ 1
Transfer@@ 1
Transfers 1
Transnistri@@ 1
Transport@@ 1
Treu@@ 1
Trumps 1
Tsa@@ 1
Turkmen@@ 1
Twit@@ 1
Tür@@ 1
UC@@ 1
URBAN 1
USS@@ 1
Ulti@@ 1
Uns 1
VEN 1
VII 1
Valen@@ 1
Valencia 1
Varela 1
Verb@@ 1
Verhofstadt 1
Version 1
Vide@@ 1
Volati@@ 1
Volk 1
Volks@@ 1
Wall@@ 1
Wallis 1
Warn@@ 1
Weil 1
Weis@@ 1
Wes@@ 1
Westen 1
Whis@@ 1
Wiener 1
Will@@ 1
Wir@@ 1
Wu@@ 1
Wür@@ 1
Yorker 1
Zah@@ 1
Zei@@ 1
Zeitung 1
Zeu@@ 1
Zu 1
Zy@@ 1
acht 1
ahr 1
ahu 1
aktu@@ 1
alen 1
allem 1
alles 1
allow@@ 1
amo 1
anal@@ 1
anmen 1
anta 1
anten@@ 1
anz 1
appel@@ 1
arak@@ 1
argum@@ 1
arten 1
arz@@ 1
asien 1
astri@@ 1
atens 1
atlan@@ 1
attitu@@ 1
attle 1
aum 1
aup@@ 1
automati@@ 1
bahn 1
bali 1
bares 1
bau 1
bauer 1
befri@@ 1
bei 1
bein@@ 1
ben 1
berat@@ 1
bie 1
bien 1
biens 1
blatt 1
bola 1
bote 1
brem@@ 1
bricht 1
brot 1
bs@@ 1
budget@@ 1
butu@@ 1
certain@@ 1
chef 1
chement 1
chst@@ 1
cker@@ 1
coaliti@@ 1
cono@@ 1
consider@@ 1
ctri@@ 1
curity 1
cía 1
dank 1
deh@@ 1
deman@@ 1
deten 1
deutsch@@ 1
deutsche 1
differen@@ 1
difficul@@ 1
diktat@@ 1
dingkan 1
disku@@ 1
dner 1
dokum@@ 1
dubi@@ 1
dv@@ 1
ead 1
egu@@ 1
eguar@@ 1
ehm@@ 1
ehol@@ 1
eigen@@ 1
eira 1
eits 1
eits@@ 1
ellen@@ 1
elles 1
ellis 1
elon 1
embarra@@ 1
embly 1
endations 1
enen 1
enes 1
enge 1
enha@@ 1
ensable 1
ensen 1
enship 1
entes 1
entle@@ 1
enz 1
enzen 1
erbit@@ 1
erging 1
ersu@@ 1
ertes 1
estim@@ 1
etc. 1
eten 1
etz@@ 1
eure 1
eventu@@ 1
examp@@ 1
factured 1
fail@@ 1
fang@@ 1
fangs 1
fein@@ 1
fern@@ 1
ffen 1
fft 1
fil 1
fixi@@ 1
fort 1
frei 1
ganis@@ 1
ganz@@ 1
gef@@ 1
gels 1
gends 1
genti@@ 1
genö@@ 1
geru@@ 1
gesetz 1
gew@@ 1
glau@@ 1
glie@@ 1
gnis@@ 1
gover@@ 1
haft 1
halts 1
haus 1
heikh 1
helpf@@ 1
heran 1
heren 1
herr@@ 1
heu@@ 1
hie@@ 1
hn@@ 1
hof 1
holl@@ 1
hr 1
hung@@ 1
ien 1
ij 1
imal@@ 1
immin@@ 1
inely 1
inflation@@ 1
inhal@@ 1
inner@@ 1
innya 1
intern 1
irmen 1
istik 1
jag@@ 1
jau@@ 1
jing 1
kab@@ 1
kam@@ 1
kampf 1
kanal 1
kateg@@ 1
kei@@ 1
kku@@ 1
kles 1
klin@@ 1
koh@@ 1
kolum@@ 1
kompet@@ 1
konsul@@ 1
kontinu@@ 1
kooper@@ 1
kop@@ 1
kos 1
kto@@ 1
ktrin 1
kumu@@ 1
lah@@ 1
lang 1
last@@ 1
lation@@ 1
leit@@ 1
lemba@@ 1
lemm@@ 1
lene 1
letz@@ 1
liches 1
lieb@@ 1
lien 1
limate 1
lli 1
lotte 1
lug@@ 1
lung@@ 1
länder 1
macht@@ 1
makro@@ 1
markt 1
mau@@ 1
meh@@ 1
melaku@@ 1
messen@@ 1
min 1
minbi 1
minist@@ 1
mittel@@ 1
mme 1
mult@@ 1
mum 1
mun 1
musli@@ 1
mussen 1
nament@@ 1
nas 1
nei 1
nen 1
nette 1
neut@@ 1
nez 1
nier 1
nil@@ 1
nir@@ 1
nitt@@ 1
nogra@@ 1
null 1
nun@@ 1
obs 1
obsta@@ 1
ollabor@@ 1
ologie 1
ompo@@ 1
opol 1
opou@@ 1
ordn@@ 1
ordon 1
organ@@ 1
orn 1
oten@@ 1
otte 1
otti 1
paket 1
parla@@ 1
partner@@ 1
pendapat@@ 1
perekono@@ 1
potenti@@ 1
precis@@ 1
privates 1
quis 1
rad 1
rag 1
rapi@@ 1
rasan@@ 1
reda@@ 1
registri@@ 1
rief 1
risch 1
risi@@ 1
robi 1
routi@@ 1
rump@@ 1
scher 1
schi 1
schnei@@ 1
schule 1
schwarze 1
sekre@@ 1
sektor@@ 1
sfun@@ 1
sie 1
sko@@ 1
smann 1
soline 1
solven@@ 1
speku@@ 1
spie@@ 1
spri@@ 1
ssen 1
ssitu@@ 1
standar@@ 1
stau@@ 1
steadi@@ 1
stell@@ 1
stig 1
stitution@@ 1
stoff@@ 1
strom 1
ström 1
stung 1
städ@@ 1
sudan@@ 1
supranation@@ 1
surpris@@ 1
sä@@ 1
tages 1
talenti@@ 1
targe@@ 1
teres@@ 1
ternali@@ 1
tero@@ 1
teur 1
thal@@ 1
thermore 1
thinkable 1
thodo@@ 1
tholi@@ 1
tier@@ 1
tig 1
tigen 1
tika 1
til 1
tinen@@ 1
tok@@ 1
tsch@@ 1
tto@@ 1
tue 1
tä@@ 1
u.@@ 1
u0027@@ 1
uba 1
ugho@@ 1
ugo 1
uld 1
undaries 1
unser@@ 1
urri@@ 1
usses 1
uta 1
veli@@ 1
verhe@@ 1
verk@@ 1
verni@@ 1
vily 1
vio 1
volution@@ 1
von@@ 1
wann 1
wans 1
wehr 1
weiser 1
werk 1
wett@@ 1
wie@@ 1
wunder@@ 1
xt 1
yi@@ 1
yna@@ 1
zun@@ 1
zw@@ 1
zza 1
¨ 1
± 1
Á@@ 1
Ã@@ 1
Ó@@ 1
Ö@@ 1
Ú@@ 1
Ü@@ 1
án@@ 1
â@@ 1
ã 1
æ@@ 1
ès 1
ì@@ 1
í 1
ò 1
ó 1
ô@@ 1
õ 1
öld 1
ø@@ 1
übel 1
über 1
ül@@ 1
ā@@ 1
Č@@ 1
č@@ 1
ē 1
ę@@ 1
ı@@ 1
ł 1
ś@@ 1
ş 1
ű@@ 1
Ž@@ 1
ȃ@@ 1
ș@@ 1
ț@@ 1
І@@ 1
Ж 1
Й@@ 1
К 1
Ф 1
Х@@ 1
Ь@@ 1
Э@@ 1
Ю 1
г 1
д 1
коном@@ 1
мү@@ 1
ф 1
ъ@@ 1
Ғ@@ 1
Ү@@ 1
Ұ@@ 1
Ө 1
Ө@@ 1
乐@@ 1
危 1
危@@ 1
幸@@ 1
灾@@ 1
祸 1
madeupword0000 0
madeupword0001 0
madeupword0002 0
madeupword0003 0
madeupword0004 0
