, 180823
. 101001
die 95099
der 89717
und 66819
in 40429
zu 32744
den 31860
von 24811
für 24055
ist 23405
nicht 20398
das 20368
des 19841
dass 19587
wir 19271
auf 18353
eine 17294
werden 17059
es 16045
ich 15793
im 15488
mit 15192
auch 14879
dem 13384
sich 12123
wird 11204
ein 11158
Ich 10583
haben 10335
Die 10233
sind 10205
Kommission 9874
@-@ 9760
hat 9469
um 8773
Herr 8701
als 8629
an 8473
zur 8466
wie 8386
- 8372
über 8299
daß 8213
sie 8024
diese 7129
einer 7067
Wir 6893
Sie 6672
uns 6667
Union 6532
bei 6506
dieser 6478
einen 6220
möchte 6107
müssen 5944
Europäischen 5913
Präsident 5621
noch 5521
vor 5430
diesem 5420
kann 5408
können 5353
so 5280
nach 5261
nur 5179
aber 5133
Es 5129
&quot; 5070
Bericht 4928
zum 4826
wenn 4789
Parlament 4733
aus 4732
Das 4652
oder 4581
: 4474
sehr 4439
sein 4292
durch 4075
! 4046
einem 3993
Mitgliedstaaten 3982
Frau 3945
dieses 3797
muss 3725
Der 3704
Rat 3522
man 3452
was 3443
wurde 3394
In 3221
er 3220
Europäische 3162
alle 3142
hier 3115
mehr 3045
? 3012
diesen 2957
Frage 2932
Europa 2887
ihre 2862
EU 2803
dies 2763
damit 2759
mich 2745
Herrn 2741
eines 2740
sondern 2706
zwischen 2692
habe 2665
gibt 2606
keine 2601
bereits 2594
europäischen 2594
gegen 2550
jedoch 2536
anderen 2528
) 2477
am 2473
dann 2465
( 2432
unsere 2411
unter 2396
heute 2394
sowie 2385
Maßnahmen 2348
denn 2265
war 2240
Vorschlag 2212
Kollegen 2198
darauf 2196
geht 2196
weil 2104
Parlaments 2099
immer 2066
Richtlinie 2049
unserer 2045
sollten 2037
vom 2012
denen 2006
dafür 1987
mir 1980
ganz 1979
Entwicklung 1972
Fraktion 1956
/ 1953
meine 1937
sollte 1883
doch 1876
sagen 1867
Wenn 1860
wurden 1844
jetzt 1838
bin 1803
da 1798
ihrer 1797
Ihnen 1795
Bürger 1766
Menschen 1740
Rahmen 1705
dazu 1691
allem 1675
Jahr 1654
Arbeit 1652
wollen 1642
muß 1634
bis 1625
Zusammenarbeit 1615
einige 1594
Zeit 1592
schon 1588
Diese 1583
allen 1575
meiner 1575
Jahren 1572
Bereich 1567
Im 1564
insbesondere 1559
würde 1549
Länder 1539
ohne 1525
soll 1519
andere 1511
Fragen 1500
also 1489
ob 1471
Recht 1467
seine 1466
Problem 1463
wäre 1435
Kommissar 1434
machen 1433
neuen 1421
neue 1394
Fall 1393
% 1380
etwas 1377
Unterstützung 1367
Zusammenhang 1362
einmal 1359
selbst 1354
worden 1344
darüber 1342
nun 1339
Meinung 1330
Rates 1329
Namen 1325
tun 1321
Deshalb 1318
Wie 1314
Euro 1304
Ländern 1303
politischen 1300
wissen 1299
geben 1296
wichtig 1295
Staaten 1276
Änderungsanträge 1276
Präsidentin 1271
besteht 1267
zwei 1267
; 1266
Abgeordneten 1264
Politik 1253
Land 1246
natürlich 1239
Bedeutung 1234
Sicherheit 1234
ihren 1230
wieder 1228
zwar 1214
Thema 1213
Änderungsantrag 1213
Probleme 1189
Was 1189
nämlich 1189
Unternehmen 1184
ja 1175
stellen 1173
viele 1169
2000 1168
Situation 1163
Mittel 1162
betrifft 1157
Debatte 1141
Regierung 1130
Ziel 1129
letzten 1125
Dies 1119
unterstützen 1104
ver@@ 1101
darf 1100
Artikel 1099
Zukunft 1091
wirklich 1088
Berichterstatter 1079
gesagt 1079
Kolleginnen 1077
Ausschuss 1071
möglich 1071
viel 1071
seiner 1069
kommen 1066
glaube 1061
Rolle 1057
nationalen 1051
Gemeinschaft 1047
Vorschläge 1045
daher 1042
Aber 1041
europäische 1032
unseren 1029
2001 1026
gegenüber 1025
Weise 1023
davon 1020
lassen 1013
daran 999
Lage 998
Ansicht 996
könnte 996
seit 996
Jahre 994
hoffe 991
un@@ 990
Punkt 981
ihr 981
stehen 970
dabei 965
Welt 961
Frauen 960
steht 949
er@@ 942
drei 938
darin 936
deshalb 936
Und 933
große 933
sowohl 927
bringen 926
liegt 921
politische 920
Ebene 915
dürfen 915
führen 912
sollen 912
kein 911
Europas 905
deren 905
Menschenrechte 902
Teil 895
welche 891
während 886
Möglichkeit 874
an@@ 869
Ausschusses 866
ab@@ 863
ersten 863
Schutz 858
Mit 857
Auch 854
Erweiterung 852
Abstimmung 849
gut 848
aller 843
einigen 839
Umsetzung 838
Weg 837
ge@@ 831
Lösung 830
waren 830
ihnen 829
handelt 826
Verordnung 822
großen 821
gerade 819
Ein 818
deutlich 816
danken 808
Eine 807
weiter 807
Beispiel 805
stellt 805
Hilfe 797
finden 796
internationalen 796
Rechte 795
Institutionen 793
gilt 785
werde 784
hatte 781
beispielsweise 780
kommt 778
Verantwortung 774
will 774
nehmen 773
sozialen 771
Art 770
erhalten 769
Aussprache 768
Nach 768
besonders 765
Hinblick 763
ebenfalls 763
Gebiet 762
Verfahren 758
gemeinsame 758
wo 755
Wirtschaft 753
solche 752
Erachtens 750
Ausdruck 747
alles 744
Regionen 743
weitere 742
ab 740
halte 739
Ihre 738
klar 738
darum 736
innerhalb 732
allerdings 731
Millionen 729
beiden 729
nichts 729
Vereinigten 728
gemeinsamen 728
Standpunkt 727
Auffassung 726
brauchen 726
sei 724
Ende 723
weiterhin 723
gehen 720
erreichen 719
Herren 718
würden 717
sehen 711
keinen 710
notwendig 709
beim 706
unser 702
dort 700
weniger 697
Jahres 694
ein@@ 690
sprechen 690
Grundlage 689
wichtige 688
meines 685
vielleicht 684
Grund 683
Vertrag 683
seinen 683
Demokratie 680
Informationen 679
be@@ 679
gemacht 677
meinen 675
Bezug 670
Ver@@ 669
Ziele 669
eigenen 669
hinsichtlich 669
verschiedenen 669
Für 666
schaffen 666
halten 663
ten 662
vielen 661
Berichts 660
Auf 659
Initiative 657
Verbraucher 657
Bei 656
Aus 651
Interesse 650
Verhandlungen 650
Antwort 649
So 646
erforderlich 646
weiß 645
Bekämpfung 642
Entschließung 642
nächsten 642
sicher 641
wirtschaftlichen 641
dessen 639
einzelnen 639
Anwendung 636
Damen 635
System 635
öffentlichen 635
Da 634
Programm 632
denke 631
hinaus 631
Entscheidung 626
besser 626
zunächst 624
Bevölkerung 623
heißt 623
Abkommen 622
ihrem 622
Region 621
hätte 621
äußerst 620
Tagesordnung 618
Kontrolle 616
Daher 614
USA 610
gestellt 610
Behörden 606
Beitrag 605
Er 604
ebenso 604
Schaffung 602
Erklärung 599
Verbesserung 599
te 598
wichtigen 597
Form 595
gehört 594
Türkei 593
genau 592
sogar 592
Auswirkungen 590
Dieser 590
erreicht 590
recht 590
unterstützt 589
bzw. 588
Notwendigkeit 587
ihm 587
dar 585
indem 583
wenig 582
bedeutet 581
Präsidentschaft 580
Bedingungen 579
Aufgabe 578
Vorschriften 576
wohl 573
Als 568
Kommissarin 568
Reihe 568
erst 567
gemeinsam 565
jeder 562
könnten 562
1 561
einfach 558
aus@@ 557
Diskussion 554
erste 554
aufgrund 553
meinem 553
2 551
seinem 551
vergangenen 550
völlig 550
ihn 549
lediglich 549
Terrorismus 548
Wort 546
Fortschritte 545
über@@ 545
angenommen 543
unserem 543
Kosten 542
Zugang 541
Schritt 540
setzen 540
Umwelt 537
gegeben 534
Ergebnis 532
Haus 532
Interessen 532
soziale 531
Gelegenheit 530
bereit 530
weit 529
1999 527
auf@@ 526
Berichterstatterin 525
Tatsache 522
gute 522
arbeiten 521
unseres 521
Beziehungen 520
Gesellschaft 519
Man 518
Regierungen 518
Dialog 512
macht 511
en@@ 510
gesamten 509
genommen 508
Richtung 507
all 503
vorgelegt 503
Abgeordnete 496
Bestimmungen 496
fragen 496
angesichts 494
Förderung 492
Hier 492
Öffentlichkeit 492
Einführung 490
derzeit 489
vorgeschlagen 489
bisher 488
weiteren 488
Entscheidungen 487
Leben 486
tragen 486
Strategie 485
gen 485
Ab@@ 483
Bereichen 483
Dank 483
Mehrheit 482
bestehen 480
Doch 479
richtig 479
vor@@ 479
Seite 478
Text 476
geführt 476
gebracht 475
Transparenz 474
Be@@ 473
Verfügung 472
jeden 472
gleichzeitig 471
sagte 470
Abschließend 469
Gesundheit 469
morgen 469
Konferenz 468
Möglichkeiten 468
bitte 468
Arbeitnehmer 467
An@@ 465
enden 465
Ein@@ 464
Rechtsvorschriften 464
Forschung 463
bestimmte 463
Gefahr 462
k@@ 462
Mitglieder 461
begrüßen 460
Angelegenheit 459
wobei 459
Sinne 456
e 456
gestimmt 455
Reform 453
tatsächlich 453
ungs@@ 452
Gründen 451
Angelegenheiten 450
Sicht 450
Zweitens 450
europäischer 450
hinweisen 450
3 449
Mitteilung 449
Nizza 449
Zeitpunkt 449
Umwelt@@ 448
Regelung 447
Zunächst 447
aufgenommen 447
bleiben 447
de 447
hatten 447
stimmen 447
Erstens 446
bekannt 445
en 445
getan 445
solchen 445
Gipfel 444
B5 443
Kinder 443
berücksichtigt 443
Gemeinsamen 442
Prozess 441
s 441
voll 441
ent@@ 439
selbstverständlich 439
Punkte 438
erster 436
sch@@ 436
Beschäftigung 435
wegen 435
zu@@ 434
Ergebnisse 431
Folgen 431
etwa 431
nutzen 431
Zu 430
begrüße 428
eindeutig 428
fordern 428
leider 428
Personen 427
Landwirtschaft 425
wirtschaftliche 425
Außerdem 424
Kampf 423
h. 423
2002 422
enthalten 422
fest 422
lange 422
zweite 422
&apos; 421
Industrie 421
großer 421
ungen 421
d. 420
gar 419
unternehmen 419
September 418
vertreten 418
4 417
Qualität 417
Erfolg 416
ter 416
Damit 415
Meine 414
leisten 414
15 413
5 413
gewährleisten 413
Markt 412
eigentlich 412
Änderung 412
Dabei 411
gemäß 410
Ausschuß 409
Um 408
Verpflichtungen 407
Zahl 407
verbessern 407
Vertreter 406
Woche 406
Uhr 405
Zum 405
Sache 404
hätten 404
Änderungsanträgen 403
Kenntnis 402
behandelt 402
akzeptieren 401
danke 401
Dinge 400
Geld 400
Hinsicht 400
bestimmten 400
bleibt 400
um@@ 400
ende 399
liegen 398
oft 398
Bürgern 397
t 397
Koordinierung 395
Themen 395
Wettbewerb 395
Forderung 394
Liberalisierung 394
Vor@@ 394
liche 393
lichen 393
Haushalt 392
Parteien 392
eingehen 392
meisten 392
Aspekte 391
Binnenmarkt 391
vorgesehen 391
ziehen 391
Zustimmung 390
gefordert 390
Stelle 389
Finanzierung 388
durchaus 388
führt 388
sorgen 388
Partei 387
genannten 387
kurz 387
vorliegenden 387
ermöglichen 386
Dieses 385
Nr. 385
obwohl 385
versuchen 385
10 384
Aufmerksamkeit 384
erinnern 384
Bemühungen 383
eben 383
fördern 383
zeigt 383
000 382
Un@@ 382
weder 382
Annahme 380
Lesung 380
gleichen 380
Sitzung 379
feststellen 378
Stellungnahme 377
beschlossen 377
zumindest 376
Frieden 374
Lissabon 374
prüfen 374
Haltung 373
hin 373
internationale 373
mein 373
t@@ 373
Monaten 370
enthält 370
Ansatz 369
Programme 369
berücksichtigen 369
demokratischen 368
ge 368
überhaupt 368
6 367
g@@ 367
verhindern 367
Meiner 365
Mitgliedstaat 365
gern 365
treffen 365
Anfrage 364
Anstrengungen 364
ins 364
vier 364
Lassen 363
Vor 363
s@@ 363
Schwierigkeiten 362
Tat 362
jedem 362
wichtiger 361
Aus@@ 360
endlich 360
Nationen 359
hingewiesen 359
a 358
zweiten 358
Sorge 356
ergreifen 355
ung 355
Gewalt 354
Position 354
f@@ 354
Präsidenten 353
findet 353
gesprochen 353
B@@ 352
Grenzen 352
gegenwärtig 352
Beihilfen 351
Bildung 351
anderer 351
beitragen 351
Richtlinien 350
konkrete 350
möchten 350
Mal 349
Fällen 348
Kriterien 348
finanziellen 348
Berichte 347
Vertrauen 347
lich 347
Freiheit 346
verfahren 346
Geschäftsordnung 345
bitten 345
guten 344
schnell 344
Seiten 343
bezüglich 343
konnte 343
entsprechenden 342
fünf 342
allein 341
fast 341
unbedingt 341
Initiativen 340
Verwaltung 340
schließlich 340
zusammen 340
Antrag 339
Ihrer 339
vergessen 339
Charta 338
zustimmen 338
heutigen 337
Organisationen 336
WTO 336
sieht 336
Landes 334
Linie 334
öffentliche 334
Aufgaben 333
S@@ 333
insgesamt 333
verstehen 333
Anerkennung 332
Integration 332
Kollege 332
festgelegt 331
scheint 331
Darüber 330
bestehenden 330
erneut 330
gab 330
gesamte 330
Opfer 329
Regelungen 329
darstellt 329
kleinen 329
stets 329
Änderungen 329
gelten 328
bekommen 327
o 327
beglückwünschen 326
spielen 326
Durchführung 325
Sektor 325
außerdem 325
statt 325
Grunde 324
Kosovo 324
Krise 324
Tag 324
verehrte 323
übrigen 323
Kraft 322
Maße 320
dringend 320
erwarten 320
Praxis 319
Vertrags 319
Ratspräsidentschaft 318
diejenigen 318
ens 318
Finanz@@ 316
einzige 316
Falle 315
Grundsatz 315
Unsere 315
bezug 315
erwähnt 315
hoffen 315
zehn 315
Ausführungen 314
Sch@@ 314
gesetzt 314
freue 312
leben 312
Investitionen 311
Tätigkeit 311
betonen 311
Daten 310
angesprochen 310
geleistet 310
politik 310
Regierungskonferenz 309
Von 309
ern 309
konnten 309
sten 309
Allerdings 308
ihres 308
Natürlich 307
dadurch 307
konkreten 307
Sanktionen 306
eingesetzt 305
erzielt 305
ändern 305
Grundrechte 304
Regeln 304
Verwendung 304
somit 304
Übereinkommen 304
Absatz 302
vorgeschlagenen 302
A@@ 301
Königreich 301
geworden 301
stelle 301
stärker 301
Dezember 300
Konvent 300
Prioritäten 300
d@@ 300
ermöglicht 300
frage 300
geschaffen 300
Armut 299
Nun 299
gewesen 299
künftig 299
liebe 299
Ort 298
eher 298
entwickeln 298
1998 297
K@@ 297
nimmt 297
20 296
Fraktionen 296
allgemeinen 296
Achtung 295
F@@ 295
Gesetzgebung 294
Instrument 294
Plenum 294
bewusst 294
gekommen 294
gestern 294
A5 293
Irland 293
kommenden 293
Denn 292
Er@@ 292
Kultur 292
Mio. 292
durchgeführt 292
versucht 292
Ratspräsident 291
jedes 291
Bereiche 290
Rede 290
bedarf 290
Rechts@@ 289
P@@ 288
lässt 288
wesentlich 288
China 287
Protokoll 287
Zweifel 287
entscheiden 287
Frankreich 286
Gebieten 286
Währung 286
anderem 286
7 285
Einbeziehung 285
Haushalts@@ 285
gehören 285
schwer 285
wären 285
Beteiligung 284
positiv 284
Augen 283
Vereinbarung 283
E@@ 282
Einrichtung 282
getroffen 282
möglichst 282
warum 282
Reformen 281
gefunden 281
ti@@ 281
zeigen 281
Staat 280
Solidarität 279
bessere 279
Behandlung 278
Hand 277
Prodi 277
Schließlich 276
Tagung 276
verpflichtet 276
30 275
Aktivitäten 275
Einhaltung 275
wichtigsten 275
8 274
Information 274
nach@@ 274
nationale 274
Dazu 273
Delegation 273
entsprechende 273
lösen 273
Internet 272
Verkehr 272
erklärt 272
ger 272
gesehen 272
i 272
Anfang 271
Gruppe 271
Raum 271
größere 271
umgesetzt 271
überzeugt 271
Folge 270
Forderungen 270
aufmerksam 270
besten 270
in@@ 270
T@@ 269
dagegen 269
sicherlich 268
Druck 267
Barcelona 266
Handel 266
Heute 266
Projekt 266
Vereinten 266
Vergangenheit 266
Worte 266
diskutieren 266
einsetzen 266
end 266
Ausbildung 265
Grund@@ 265
möglicherweise 265
notwendigen 265
trotz 265
verfolgen 265
Entschließungsantrag 264
Projekte 264
erforderlichen 264
gerecht 264
helfen 263
entsprechend 262
m@@ 262
Mitteln 261
entschieden 261
festgestellt 261
legen 261
nochmals 261
verbunden 261
zahlreiche 261
Über@@ 261
Arbeitsplätze 260
Empfehlungen 260
L@@ 260
gt 260
licher 260
tes 260
verfügen 260
Aspekt 258
kaum 258
Definition 257
maßnahmen 257
Bewertung 256
stimme 256
12 255
Brüssel 255
Osten 255
ganze 255
letzte 255
offensichtlich 255
stark 255
Durch 254
gleich 254
jede 254
neuer 254
wesentlichen 254
zurück@@ 254
50 253
Arbeits@@ 253
Entwurf 253
Inhalt 253
positive 253
Dokument 252
Instrumente 252
Nutzung 252
Sprache 252
ch@@ 252
Beginn 251
Januar 251
Leitlinien 251
Rechtsgrundlage 251
Stärkung 251
darstellen 251
sage 251
Ihr 250
beteiligt 250
Auf@@ 249
Ihren 249
Prinzip 249
Schritte 249
Wochen 249
folgt 249
französischen 249
häufig 249
11. 248
Stabilität 248
bringt 248
richtige 248
z. 248
Beschluss 247
Kritik 247
besondere 247
bietet 247
entspricht 247
zudem 247
übernehmen 247
Absicht 246
Hauses 246
Schweden 246
Um@@ 246
gegenwärtigen 246
mehrere 246
Produkte 245
Vorbereitung 245
eren 245
Deutschland 244
Einsatz 244
Wahlen 244
di@@ 244
B. 243
Republik 243
Volk 243
glauben 243
künftigen 243
BSE 242
Empfehlung 242
Juni 242
Verträge 242
Wege 242
hinter 242
komme 242
vorlegen 242
9 241
Beitritt 241
Verpflichtung 241
Wachstum 241
verschiedene 241
März 240
befassen 240
beginnen 240
geschehen 240
sämtliche 240
umfassende 240
Erfahrungen 239
G@@ 239
Gleichzeitig 239
derzeitigen 239
eigene 239
einiger 239
verfolgt 239
wollte 239
Aktionen 238
Engagement 238
la@@ 238
finanzielle 237
schützen 237
Drittens 236
Einigung 236
Haupt@@ 236
Priorität 236
Ressourcen 236
Schlussfolgerungen 236
betroffenen 236
verbessert 236
Beschlüsse 235
demokratische 235
handeln 235
schwierig 235
sen 235
vielmehr 235
Ausgaben 234
Verbindung 234
angeht 234
erfüllen 234
g 234
politischer 234
zusammen@@ 234
zweifellos 234
Diskriminierung 233
Grundsätze 233
Liste 233
fallen 233
keinerlei 233
l@@ 233
technischen 233
40 232
bereich 232
bilden 232
gelungen 232
gewährleistet 232
hohen 232
sechs 232
Monate 231
Spanien 231
ausdrücklich 231
erfüllt 231
konzentrieren 231
schwedischen 231
unter@@ 231
durch@@ 230
jene 230
Afghanistan 229
Anliegen 229
Fischerei 229
Gebiete 229
Nicht 229
Programms 229
Rechts 229
h@@ 229
nie 229
vermeiden 229
weiterer 229
Angesichts 228
Vorschlags 228
Werte 228
gleiche 228
nunmehr 228
teile 228
Lösungen 227
Politiken 227
Vorschlägen 227
bald 227
befinden 227
diskutiert 227
erzielen 227
offen 227
schen 227
Besorgnis 226
Ebenso 226
Geschichte 226
O@@ 226
bevor 226
fordert 226
Hohen 225
Laeken 225
braucht 225
politisch 225
rechtlichen 225
reden 225
Seit 224
ausgesprochen 224
gratulieren 224
nennen 224
weshalb 224
00@@ 223
Diskussionen 223
Israel 223
Parlamente 223
Stellung 223
Stimme 223
Veränderungen 223
Volksgesundheit 223
chen 223
unternommen 223
verabschiedet 223
Berücksichtigung 222
Gegenteil 222
Unter@@ 222
Wunsch 222
ar@@ 222
gestalten 222
Erhöhung 221
Flüchtlinge 221
Zeitraum 221
einverstanden 221
entwickelt 221
erkennen 221
gelangen 221
14 220
C@@ 220
Fälle 220
In@@ 220
a@@ 220
hält 220
je 220
sagt 220
st@@ 220
Afrika 219
Anforderungen 219
Den 219
Eindruck 219
Energie 219
Leider 219
ausschließlich 219
außerhalb 219
betreffen 219
denken 219
Festlegung 218
Justiz 218
erfolgen 218
setzt 218
Bedenken 217
Höhe 217
Nur 217
Verbot 217
Völker 217
direkt 217
finde 217
treten 217
25 216
Anspruch 216
D@@ 216
Gründe 216
Mitglied 216
Vorgehen 216
betrachtet 216
später 216
aufgefordert 215
el@@ 215
UN 214
Umfang 214
zufolge 214
Kollegin 213
Kontrollen 213
Problemen 213
Tiere 213
andererseits 213
de@@ 213
rasch 213
re@@ 213
van 213
zahlreichen 213
übrigens 213
2@@ 212
Dienste 212
Nahen 212
Worten 212
geschieht 212
unterstütze 212
wünschen 212
Erklärungen 211
Harmonisierung 211
Willen 211
ausschuß 211
ergriffen 211
fordere 211
Aufnahme 210
Dimension 210
Entlastung 210
Nutzen 210
Patten 210
Strukturfonds 210
dienen 210
ernst 210
hervorheben 210
ständig 210
verwendet 210
zuständigen 210
Einige 209
Minister 209
Prüfung 209
Punkten 209
ange@@ 209
hören 209
jeweiligen 209
Überlegungen 209
Überwachung 209
Ferner 208
Kompromiss 208
NRO 208
Sonder@@ 208
erklären 208
freien 208
stattfinden 208
u@@ 208
Botschaft 207
Dann 207
ausreichend 207
außer 207
nen 207
regionalen 207
technische 207
teilweise 207
vorzulegen 207
Maßnahme 206
Realität 206
einschließlich 206
ert 206
folgen 206
gemeinschaftlichen 206
genug 206
nationaler 206
trägt 206
vollständig 206
-@@ 205
Dienstleistungen 205
Wettbewerbsfähigkeit 205
baren 205
behandeln 205
betont 205
d 205
gewisse 205
Österreich 205
Übrigen 205
AKP 204
R@@ 204
anderes 204
eingereicht 204
internationaler 204
k 204
2003 203
Chance 203
Griechenland 203
Mai 203
November 203
ausgezeichneten 203
n 203
Ereignisse 202
Göteborg 202
Verständnis 202
Vielfalt 202
Waffen 202
Wert 202
Wirtschafts@@ 202
amerikanischen 202
b@@ 202
bezieht 202
einbezogen 202
gezeigt 202
klare 202
n@@ 202
o@@ 202
persönlich 202
volle 202
Abschluss 201
Krieg 201
Rechnung 201
Anfragen 200
Landwirte 200
Verkehrs@@ 200
Voraussetzung 200
Warum 200
außerordentlich 200
britischen 200
dennoch 200
liches 200
Amsterdam 199
Drittländern 199
Ge@@ 199
abgelehnt 199
anwesend 199
frei 199
nachhaltige 199
seitens 199
aussprechen 198
bar 198
gen@@ 198
ges 198
größten 198
unterschiedliche 198
zuletzt 198
zusätzliche 198
13 197
Gemeinschafts@@ 197
annehmen 197
bieten 197
hin@@ 197
lang 197
scher 197
Freiheiten 196
Rück@@ 196
al@@ 196
besonderen 196
betrachten 196
einge@@ 196
Agenda 195
Fehler 195
Fonds 195
Gesamt@@ 195
Sinn 195
Verhältnis 195
li@@ 195
sches 195
spricht 195
unabhängig 195
weltweit 195
Überprüfung 195
E 194
Organisation 194
Risiken 194
Zur 194
abgeschlossen 194
jüngsten 194
richten 194
unterschiedlichen 194
Am 193
spielt 193
wahrscheinlich 193
Mitgliedern 192
Tagen 192
Vereinbarungen 192
Voraussetzungen 192
mehreren 192
verantwortlich 192
warten 192
wesentliche 192
Überzeugung 192
1. 191
11 191
Bemerkungen 191
Europäer 191
Herausforderung 191
akzeptiert 191
ganzen 191
gelöst 191
zugunsten 191
Stoffe 190
V@@ 190
Widerspruch 190
positiven 190
Des 189
NATO 189
Rassismus 189
anschließen 189
bekämpfen 189
ere 189
mi@@ 189
schlägt 189
verweisen 189
Abend 188
Bemerkung 188
Unter 188
beide 188
geäußert 188
keiner 188
unterstreichen 188
vorliegende 188
Effizienz 187
Gruppen 187
Juli 187
Unterschiede 187
aktiv 187
bare 187
geltenden 187
ging 187
solcher 187
Ist 186
Kern@@ 186
Pflicht 186
Viele 186
Zu@@ 186
beschäftigen 186
einig 186
neu 186
soeben 186
verstärkt 186
Beweis 185
Globalisierung 185
Hause 185
kleine 185
sicherzustellen 185
sp@@ 185
wichtigste 185
zufrieden 185
Beschäftigungs@@ 184
EG 184
Italien 184
Medien 184
Vorsitz 184
betreffenden 184
größeren 184
stimmt 184
Arbeiten 183
Behörde 183
Jetzt 183
Vorhaben 183
aufzunehmen 183
einheitlichen 183
hoch 183
sehe 183
tut 183
Phase 182
Zudem 182
abstimmen 182
bemüht 182
daraus 182
konkret 182
m 182
teilen 182
Macht 181
Partnerschaft 181
Straßburg 181
Systems 181
Umweltfragen 181
Zuständigkeit 181
erfolgt 181
erhöhen 181
geändert 181
herzlich 181
sinnvoll 181
äußern 181
Freizügigkeit 180
Ihrem 180
M@@ 180
Sicherheits@@ 180
anders 180
beteiligen 180
betreffend 180
neben 180
pro 180
Stellen 179
nachhaltigen 179
vorgeschlagene 179
zurück 179
Übereinstimmung 179
Agrarpolitik 178
H@@ 178
Kindern 178
Strukturen 178
Verbrechen 178
abge@@ 178
em 178
fällt 178
größte 178
letztendlich 178
spreche 178
wichtiges 178
Entwicklungen 177
Gerichtshof 177
Märkte 177
Steuer@@ 177
Weißbuch 177
allgemeine 177
ausge@@ 177
eingeführt 177
spanischen 177
stärken 177
tätig 177
vorgelegten 177
Sozial@@ 176
Tabak@@ 176
Wahl 176
elle 176
geschlossen 176
hohe 176
solches 176
stand 176
u. 176
ß@@ 176
18 175
2004 175
Arbeitslosigkeit 175
EN 175
Konzept 175
Vergleich 175
e@@ 175
i@@ 175
reagieren 175
ter@@ 175
Fortschritt 174
Hoffnung 174
Methode 174
Wirklichkeit 174
ben 174
verlangen 174
vorgesehenen 174
z@@ 174
Analyse 173
Dennoch 173
Ja 173
anerkannt 173
bestätigt 173
dürfte 173
elektronischen 173
erfordert 173
gung 173
los 173
mit@@ 173
ä@@ 173
Bürgerinnen 172
Charakter 172
kulturellen 172
möglichen 172
p@@ 172
verurteilt 172
Abgeordneter 171
Gemeinsame 171
Mit@@ 171
Ratsvorsitz 171
Vielleicht 171
Zweck 171
gerne 171
notwendige 171
wenigen 171
Agentur 170
Formen 170
Moment 170
Verteidigungspolitik 170
beschäftigt 170
besseren 170
gefördert 170
inzwischen 170
leicht 170
niemand 170
schwierigen 170
seines 170
wiederholen 170
Milliarden 169
Re@@ 169
absolut 169
sche 169
suchen 169
welchen 169
werte 169
Anteil 168
Partner 168
begrüßt 168
betroffen 168
erfolgreich 168
genannt 168
informieren 168
men 168
stellung 168
versichern 168
Problems 167
informiert 167
kosten 167
müsste 167
sichern 167
unmittelbar 167
Angaben 166
Elemente 166
Markt@@ 166
PPE 166
Wirtschafts- 166
eingegangen 166
entstehen 166
grundlegenden 166
her@@ 166
kennen 166
seien 166
umfassenden 166
verstärken 166
Betrifft 165
Gleichgewicht 165
Mut 165
Normen 165
Umständen 165
Wasser 165
verstanden 165
Alle 164
April 164
Basis 164
Schiffe 164
Zivilgesellschaft 164
a. 164
achten 164
darunter 164
einerseits 164
ellen 164
eln 164
gte 164
Begriff 163
Großbritannien 163
Regierungschefs 163
Selbstverständlich 163
befürworten 163
benötigen 163
bestimmt 163
beziehen 163
eingeleitet 163
erfahren 163
früher 163
hoffentlich 163
ländlichen 163
praktisch 163
Abkommens 162
Balkan 162
Dem 162
Erarbeitung 162
Mir 162
cht@@ 162
den@@ 162
schwedische 162
sicherstellen 162
Ausarbeitung 161
Berichten 161
Erzeugnisse 161
Hintergrund 161
Revision 161
Unser 161
alten 161
beschränken 161
hervorgehoben 161
ken 161
länger 161
palästinensischen 161
vollkommen 161
wer 161
wirksam 161
öffentlich 161
Verwaltungs@@ 160
Während 160
diesbezüglich 160
grundlegende 160
insofern 160
möglichkeiten 160
nachdrücklich 160
Darum 159
Einwanderung 159
Element 159
FR 159
Mazedonien 159
Prinzipien 159
Treffen 159
Vorteile 159
bedeuten 159
ch 159
derartige 159
Aufbau 158
Dänemark 158
Einfluss 158
Familie 158
Herausforderungen 158
Untersuchung 158
Welt@@ 158
Zahlen 158
nachdem 158
weiteres 158
überall 158
Einklang 157
Kommissionspräsident 157
Meines 157
Obwohl 157
Offenheit 157
Russland 157
Stockholm 157
Technologien 157
alen 157
allgemein 157
anbelangt 157
belgischen 157
or@@ 157
schließen 157
umzusetzen 157
usw. 157
übernommen 157
Institution 156
Konflikt 156
Kriminalität 156
Oktober 156
Organe 156
Plan 156
Sorgen 156
Verteidigung 156
ergeben 156
erhebliche 156
stehenden 156
ts 156
verwiesen 156
wünsche 156
Antworten 155
Anzahl 155
Reaktion 155
Redner 155
Verbesserungen 155
besch@@ 155
einzigen 155
ender 155
erscheint 155
lautet 155
Ablehnung 154
Gesetze 154
Grünen 154
Sport 154
Verfassung 154
Wasser@@ 154
ale 154
angebracht 154
anzu@@ 154
aufge@@ 154
bewegen 154
erung 154
festzulegen 154
genutzt 154
großes 154
regelung 154
ste 154
th@@ 154
verlangt 154
zurückzuführen 154
Grenz@@ 153
Minderheiten 153
Prozeß 153
Sektoren 153
durchführen 153
einheitliche 153
geprüft 153
jährlich 153
miteinander 153
ra@@ 153
vorgenommen 153
vorschlagen 153
weise 153
... 152
16 152
Mar@@ 152
Prozesses 152
Status 152
abzu@@ 152
dritten 152
echte 152
französische 152
nächste 152
näher 152
offenen 152
welcher 152
y@@ 152
An 151
Forschungs@@ 151
Katastrophe 151
Lebensmittelsicherheit 151
N@@ 151
gelegt 151
ser@@ 151
weisen 151
zi@@ 151
100 150
60 150
Agrar@@ 150
Berichterstatters 150
Einrichtungen 150
H 150
Idee 150
Konsens 150
Todesstrafe 150
UNO 150
Versuch 150
Zielen 150
damals 150
der@@ 150
ene 150
ferner 150
ger@@ 150
militärischen 150
mitteilen 150
r@@ 150
wissenschaftlichen 150
1997 149
Bestandteil 149
Gedanken 149
Preis 149
Systeme 149
Wahrung 149
arbeit 149
jetzigen 149
kürzlich 149
letztlich 149
läßt 149
sonst 149
staatlichen 149
Andererseits 148
Gemeinschaft@@ 148
Lebens@@ 148
Nach@@ 148
Produktion 148
W@@ 148
allzu 148
gewährt 148
le@@ 148
se 148
speziellen 148
zugleich 148
zusammenarbeiten 148
Deswegen 147
Ent@@ 147
Entwicklungsländer 147
Februar 147
Flexibilität 147
Ordnung 147
abgestimmt 147
anstatt 147
entsprechen 147
erinnert 147
festgelegten 147
gutes 147
herrscht 147
lokalen 147
richtigen 147
verfügt 147
Befugnisse 146
Freude 146
Leute 146
Sprachen 146
Teilen 146
Verringerung 146
eingebracht 146
enen 146
falls 146
gezogen 146
institutionellen 146
mag 146
menschlichen 146
ne 146
speziell 146
Hinweis 145
Häfen 145
J@@ 145
Kon@@ 145
auffordern 145
aufnehmen 145
kam 145
niemals 145
on@@ 145
Blick 144
Entwicklungsländern 144
Kommissionsmitglied 144
Laufe 144
Problematik 144
Schluss 144
Tage 144
einzu@@ 144
festzustellen 144
gehalten 144
gerichtet 144
schlagen 144
sofern 144
ßt 144
Debatten 143
Dialogs 143
Dokumente 143
Gefahren 143
Kohärenz 143
Liberalen 143
Rechnungshof 143
ck@@ 143
ernsthaft 143
genden 143
reicht 143
umfassend 143
Funktion 142
bestimmter 142
erarbeitet 142
es@@ 142
fehlt 142
Dokumenten 141
Eisenbahn@@ 141
Hälfte 141
Internationalen 141
Modell 141
Natur 141
OLAF 141
Ohne 141
bemühen 141
eingehalten 141
verstehe 141
weist 141
überein 141
Herzen 140
Marktes 140
Mittelpunkt 140
Nachdruck 140
Nein 140
Risiko 140
Stand 140
US 140
all@@ 140
jenen 140
keineswegs 140
vorliegen 140
wollten 140
übertragen 140
Angriff 139
C5 139
Fischerei@@ 139
Gerade 139
Vielen 139
Wer 139
durchzuführen 139
entwickelten 139
fassen 139
mögliche 139
tern 139
unterbreitet 139
weitgehend 139
ß 139
3@@ 138
EZB 138
I@@ 138
Staates 138
freie 138
funktioniert 138
rechts 138
teilnehmen 138
ung@@ 138
2006 137
Anlass 137
Erfahrung 137
Gang 137
KMU 137
Platz 137
Tschetschenien 137
Versammlung 137
bestand 137
gelingt 137
generell 137
geregelt 137
gewinnen 137
mindestens 137
reichen 137
ri@@ 137
tige 137
zuständig 137
zusätzlichen 137
Anträge 136
Binnenmarktes 136
Familien 136
Mein 136
Mitarbeiter 136
Mittel@@ 136
Sicherheitspolitik 136
Zeichen 136
antworten 136
fest@@ 136
gesch@@ 136
land 136
leiden 136
se@@ 136
st 136
verhindert 136
z 136
überaus 136
17 135
Erwartungen 135
Simbabwe 135
St@@ 135
ausschuss 135
beste 135
erheblich 135
ische 135
l 135
militärische 135
solange 135
trifft 135
türkischen 135
Feststellung 134
Gegenstand 134
Gespräche 134
Krankheiten 134
Staats- 134
Unabhängigkeit 134
Ursachen 134
Verwirklichung 134
Welche 134
angemessen 134
danach 134
erwartet 134
gebieten 134
klaren 134
lernen 134
sektor 134
te@@ 134
verlieren 134
wonach 134
zahlen 134
Beseitigung 133
Konsequenzen 133
Kontroll@@ 133
Niveau 133
Präsidium 133
Weiteren 133
ei@@ 133
finanziert 133
illegalen 133
jungen 133
neues 133
portugiesischen 133
Öffnung 133
80 132
Beispiele 132
Gesetz 132
Konvents 132
Ro@@ 132
Tier@@ 132
Verbraucherpolitik 132
bewußt 132
erhöht 132
folgende 132
offenbar 132
politisches 132
sch 132
wiederum 132
Außen- 131
Europol 131
Formulierung 131
Positionen 131
Preise 131
Tieren 131
Zentralbank 131
barkeit 131
enthaltenen 131
gewissen 131
regionale 131
relativ 131
sofort 131
unverzüglich 131
w@@ 131
Ausbeutung 130
Außenpolitik 130
Marokko 130
Stunden 130
as 130
ausgezeichnete 130
befindet 130
entscheidende 130
fen 130
früheren 130
gearbeitet 130
gten 130
kurzem 130
mal 130
nehme 130
privaten 130
rechtliche 130
ursprünglichen 130
zulassen 130
Ausweitung 129
Gegensatz 129
Handels@@ 129
Konflikte 129
Ziffer 129
angemessene 129
einzuführen 129
eng 129
hauptsächlich 129
Übereinkommens 129
03@@ 128
Beachtung 128
Miß@@ 128
Person 128
Politiker 128
Portugal 128
Trotz 128
Uns 128
Vorlage 128
Wahl@@ 128
Würde 128
abschließend 128
acht 128
bestehende 128
gi@@ 128
humanitäre 128
legt 128
losen 128
spezifischen 128
Argumente 127
Groß@@ 127
Programmen 127
Solana 127
Terroristen 127
Vertretern 127
Zielsetzungen 127
auszu@@ 127
bedanken 127
bedauere 127
behaupten 127
bestätigen 127
dankbar 127
derzeitige 127
isch 127
regeln 127
starke 127
tet 127
vorhin 127
02@@ 126
Arbeitsplätzen 126
Bereitschaft 126
Irak 126
Nicht@@ 126
Signal 126
angenommenen 126
besorgt 126
dritte 126
entschlossen 126
erteilen 126
geschützt 126
globalen 126
ster 126
weitaus 126
Über 126
Ausgrenzung 125
Männern 125
Selbst@@ 125
Wirkung 125
Zeit@@ 125
ausgesetzt 125
bislang 125
erlassen 125
erwähnte 125
geehrte 125
künftige 125
ler 125
lichkeit 125
mehrfach 125
sa@@ 125
ums 125
ungsp@@ 125
verboten 125
wann 125
wirklichen 125
Aktionsplan 124
Anhörung 124
Leistungen 124
Polizei 124
Tampere 124
Verletzung 124
Vielzahl 124
Zusammenhalt 124
ation 124
beabsichtigt 124
beigetragen 124
bekräftigt 124
parlamentarischen 124
rechtzeitig 124
spezielle 124
vorsieht 124
wirksame 124
Anpassung 123
Gesellschaften 123
Gewährleistung 123
Mindest@@ 123
Volkspartei 123
Vorteil 123
Wirtschaftspolitik 123
beinhaltet 123
breite 123
det 123
erhält 123
genannte 123
gewählt 123
großem 123
hingegen 123
u 123
verdient 123
verkehrs 123
verleihen 123
verloren 123
vorschriften 123
weiter@@ 123
70 122
Anlagen 122
Einstellung 122
Ma@@ 122
Praktiken 122
Struktur 122
Zeitplan 122
f 122
formuliert 122
grundsätzlich 122
irischen 122
le 122
rein 122
schem 122
unmöglich 122
wiederholt 122
Abschaffung 121
Abstimmungen 121
Beratungen 121
Mechanismen 121
Mobilität 121
Schäden 121
Verbreitung 121
ausgehen 121
bedingungen 121
begonnen 121
dient 121
eindeutige 121
einzelstaatlichen 121
einzusetzen 121
garantieren 121
hinzufügen 121
humanitären 121
interessiert 121
leiten 121
schließe 121
vorhanden 121
wenden 121
wider@@ 121
Entwicklungs@@ 120
Faktor 120
Helsinki 120
II 120
Neu@@ 120
Sektors 120
Verhalten 120
Verordnungen 120
Vorsitzenden 120
beschränkt 120
britische 120
che 120
einstimmig 120
gebeten 120
gleich@@ 120
müssten 120
r 120
schwierige 120
sk@@ 120
wenige 120
zugrunde 120
Beamten 119
Bedarf 119
Klarheit 119
Lebensmittel@@ 119
Männer 119
Ratspräsidentin 119
Steuern 119
Teilnahme 119
Vertrags@@ 119
Vorausschau 119
Wesentlichen 119
ausgeschlossen 119
chten 119
dargelegt 119
gegenwärtige 119
kulturelle 119
ma@@ 119
soweit 119
uner@@ 119
Arbeitsmarkt 118
Auftrag 118
Beiträge 118
Gipfeltreffen 118
Schreiben 118
Standards 118
Verhandlungs@@ 118
erleben 118
gruppen 118
keinem 118
kon@@ 118
ni@@ 118
ss@@ 118
ständige 118
verabschieden 118
verkehr 118
verteidigen 118
Aktion 117
Gelder 117
Gipfels 117
Hinsichtlich 117
Modernisierung 117
Schaden 117
Schutz@@ 117
Z@@ 117
b 117
bericht 117
bezeichnet 117
grenzüberschreitenden 117
gs 117
manchmal 117
nicht@@ 117
sorgfältig 117
wirtschaftlicher 117
Arbeitsplatz 116
Aspekten 116
Bau@@ 116
Belgien 116
Beteiligten 116
Bild 116
Fahr@@ 116
Fischereipolitik 116
Handeln 116
Kürze 116
Rentner 116
Steuer 116
Strategien 116
ak@@ 116
dern 116
dienst 116
el 116
enz@@ 116
ergibt 116
geboten 116
langfristig 116
ro@@ 116
staatliche 116
vorbereitet 116
wesentlicher 116
Al@@ 115
Krisen@@ 115
Kräfte 115
Verabschiedung 115
Wiederaufbau 115
be 115
bi@@ 115
entscheidenden 115
entweder 115
falsch 115
gestatten 115
ischen 115
jedenfalls 115
letzter 115
offene 115
sozialer 115
tig 115
v@@ 115
wirkliche 115
zeit 115
überprüfen 115
90 114
Entwicklungshilfe 114
Infrastruktur 114
Kyoto 114
Noch 114
Wahrheit 114
ehemaligen 114
erinnere 114
europäisches 114
genauso 114
her 114
heutige 114
langen 114
läuft 114
schafft 114
spanische 114
strategischen 114
welchem 114
ziemlich 114
Ausnahme 113
Begründung 113
Entschlossenheit 113
GVO 113
Insbesondere 113
Renten@@ 113
Unterschied 113
Vorrang 113
abhängig 113
aufzu@@ 113
ber@@ 113
beschließen 113
betrieben 113
bildet 113
endes 113
gezwungen 113
h 113
laufen 113
unterbrochen 113
verbundenen 113
vertritt 113
überzeugen 113
1996 112
Fischler 112
Mann 112
Maul- 112
Pläne 112
Regionalpolitik 112
Rubrik 112
Untersuchungen 112
Verfahrens 112
bekanntlich 112
erte 112
fe 112
hängt 112
menschliche 112
unterbreiten 112
vorstellen 112
Äußerungen 112
24 111
Beitrittskandidaten 111
Erika 111
Glaubwürdigkeit 111
Klauenseuche 111
Luxemburg 111
Monat 111
Schutzes 111
Zuständigkeiten 111
bei@@ 111
cht 111
echten 111
folgenden 111
freuen 111
genügend 111
getragen 111
lesen 111
me 111
ten@@ 111
tiger 111
tischen 111
trotzdem 111
umsetzen 111
verurteilen 111
zentrale 111
zugestimmt 111
De@@ 110
Geist 110
Informations@@ 110
PSE 110
Recht@@ 110
Wettbewerbs@@ 110
Wissen 110
at@@ 110
befasst 110
belgische 110
entfernt 110
entgegen@@ 110
erarbeiten 110
geb@@ 110
innere 110
italienischen 110
kontrollieren 110
mittleren 110
vi@@ 110
voller 110
vollständige 110
übermitteln 110
A 109
Abfall@@ 109
Auge 109
Ausschüsse 109
Dollar 109
Erreichung 109
La@@ 109
U@@ 109
Volkes 109
auftreten 109
derer 109
erten 109
erwähnten 109
finanzieren 109
gelingen 109
ieren 109
internen 109
tem 109
uneingeschränkt 109
überwinden 109
Besuch 108
DE 108
EVP 108
Finnland 108
Flughäfen 108
Informationsgesellschaft 108
Krankheit 108
Menge 108
Standpunkte 108
Transport@@ 108
Umweltschutz 108
Zeiten 108
Ziel@@ 108
arbeitet 108
besitzen 108
erfreut 108
festlegen 108
gewähren 108
rechte 108
spolitik 108
stärkere 108
veröffentlicht 108
vorliegt 108
zählen 108
04@@ 107
22 107
Geschäfts@@ 107
Jugendlichen 107
Mitwirkung 107
Senkung 107
Subsidiarität 107
Verbraucher@@ 107
aktive 107
aktuellen 107
angewendet 107
ansprechen 107
beantworten 107
einzelne 107
fahren 107
fünfzehn 107
markt 107
on 107
si@@ 107
stattfindet 107
verlassen 107
voll@@ 107
är@@ 107
überlassen 107
Einzel@@ 106
Garantien 106
Hersteller 106
Lebensmittel 106
Parlamenten 106
Sicherheits- 106
Taten 106
Umgang 106
ausüben 106
definiert 106
denjenigen 106
ell 106
eller 106
entscheidend 106
gungen 106
miß@@ 106
richtlinie 106
schutz@@ 106
welches 106
37 105
ECHO 105
Fischer 105
Flug@@ 105
Gestatten 105
Kann 105
Kommunikation 105
Mandat 105
Methoden 105
Netze 105
Risiko@@ 105
Tisch 105
anzunehmen 105
ausführlich 105
bereitgestellt 105
betreiben 105
da@@ 105
deutschen 105
entscheidender 105
ers 105
erörtern 105
geraten 105
groß 105
kämpfen 105
mittel 105
nötig 105
spezifische 105
spät 105
strategie 105
ständigen 105
tete 105
wirtschaft 105
1995 104
27 104
Konsultation 104
Kontinent 104
Kultur@@ 104
Mittelmeer 104
Palacio 104
Perspektive 104
Ratifizierung 104
Regierungs@@ 104
Vereinfachung 104
anlagen 104
beizutragen 104
endgültigen 104
iert 104
ko@@ 104
lo@@ 104
regionaler 104
stellte 104
verwenden 104
voraus 104
vorschlägt 104
zuvor 104
Aufgrund 103
Bereitstellung 103
Binnenmarkts 103
Branche 103
Erfüllung 103
Grenze 103
Haushaltsplan 103
Kapitel 103
New 103
Personal 103
Regime 103
Spiel 103
Unserer 103
Verantwortlichen 103
Verträgen 103
Wichtig 103
anwenden 103
armen 103
befürwortet 103
besitzt 103
diesbezüglichen 103
erstens 103
jener 103
negativen 103
unterzeichnet 103
wieder@@ 103
zugute 103
23 102
Allgemeinen 102
Ansichten 102
Arbeitnehmern 102
Beitrittsländer 102
Ber@@ 102
Bis 102
Dienst 102
Entwicklungspolitik 102
Hindernisse 102
Jugend 102
Klein@@ 102
Mrd. 102
Regel 102
Schlußfolgerungen 102
Vorgehensweise 102
Zustand 102
anzuwenden 102
behörden 102
dienste 102
do@@ 102
einzubeziehen 102
fa@@ 102
garantiert 102
gegebenenfalls 102
hoch@@ 102
jegliche 102
reagiert 102
sieben 102
system 102
teilt 102
All 101
Arbeitgeber 101
Außenminister 101
Betrag 101
Emissionen 101
Fragestunde 101
Frist 101
Ideen 101
Inkrafttreten 101
Kommissions@@ 101
Kooperation 101
Minuten 101
Personal@@ 101
Polizei@@ 101
Presse 101
Rechten 101
Reduzierung 101
Schul@@ 101
Sicherung 101
Situationen 101
Sport@@ 101
Staats@@ 101
ablehnen 101
bewältigen 101
demokratisch 101
erwähnen 101
gende 101
heit 101
ker 101
mm@@ 101
oftmals 101
profitieren 101
rei@@ 101
so@@ 101
unterscheiden 101
verstärkte 101
wert 101
zutiefst 101
zweitens 101
zweiter 101
ärmsten 101
01 100
Abbau 100
Bedürfnisse 100
Chancengleichheit 100
Einwanderer 100
bereitet 100
beseitigen 100
cken 100
erläutern 100
gel@@ 100
grenzen 100
griechischen 100
gruppe 100
hervor 100
höhere 100
laufenden 100
ne@@ 100
rechnen 100
verzeichnen 100
zunehmend 100
21. 99
Abfälle 99
Aussage 99
Betrug 99
Durchsetzung 99
Gemeinschaftsrecht 99
Identität 99
Mensch 99
Urteil 99
Verlängerung 99
Wird 99
amerikanische 99
aten 99
bedauern 99
beruht 99
besonderer 99
eingeräumt 99
keinesfalls 99
konfrontiert 99
len 99
persönlichen 99
schneller 99
tigen 99
unver@@ 99
vernünftige 99
Asyl 98
Bitte 98
Dingen 98
ELDR 98
Ergebnissen 98
Kategorie 98
Menschenhandel 98
Rechtsstaatlichkeit 98
Vorstellung 98
auswärtige 98
bedauerlich 98
beraten 98
bewerten 98
dank 98
dung 98
erlaubt 98
erörtert 98
gründen 98
höchste 98
irische 98
ländliche 98
nachdenken 98
sta@@ 98
unabhängigen 98
unbe@@ 98
us 98
verändert 98
vornehmen 98
vorzunehmen 98
wenigsten 98
widmen 98
y 98
Alles 97
Alternative 97
Arten 97
Betriebe 97
Einschätzung 97
End@@ 97
Fernseh@@ 97
Herstellung 97
Maß 97
Paket 97
Ratsvorsitzes 97
Südafrika 97
Teile 97
Vertrages 97
Wohlstand 97
au@@ 97
bestimmungen 97
beteiligten 97
eingereichten 97
jemand 97
kontrolliert 97
mündlichen 97
portugiesische 97
rat 97
schlage 97
schweren 97
sobald 97
sprach 97
sson 97
Bedrohung 96
Delegationen 96
Faktoren 96
Feira 96
Funktionieren 96
Gleichstellung 96
Grundsätzen 96
Hohe 96
Preis@@ 96
Ratspräsidenten 96
Straf@@ 96
Studie 96
Wettbewerbs 96
angekündigt 96
benötigt 96
bewiesen 96
bewirken 96
effizient 96
entgegen 96
erlebt 96
gegangen 96
gestattet 96
gewisser 96
hilfe 96
messen 96
ohnehin 96
ur@@ 96
verletzt 96
wirken 96
zwei@@ 96
é@@ 96
ör@@ 96
Außen@@ 95
Bürgerbeauftragten 95
Darin 95
Fernsehen 95
Gericht 95
Ministerrat 95
Netz 95
Projekten 95
Protokolls 95
Saal 95
Schengener 95
Stellungnahmen 95
Subventionen 95
Vorredner 95
Zahlungen 95
Zunahme 95
alte 95
auswirken 95
barer 95
ben@@ 95
beträchtliche 95
beweisen 95
dieselben 95
einzig 95
gefasst 95
gehe 95
größer 95
kontrolle 95
oben 95
siert 95
tatsächlichen 95
us@@ 95
verringern 95
vieler 95
vorher 95
Ausführung 94
Freitag 94
Innovation 94
Mangel 94
Renten 94
Schulen 94
Sp@@ 94
beibehalten 94
eintreten 94
erteilt 94
ethnischen 94
froh 94
funktionieren 94
geeignete 94
lag 94
langem 94
laut 94
lose 94
mitteln 94
schaft 94
starken 94
sti@@ 94
wer@@ 94
26 93
42 93
4@@ 93
Bo@@ 93
Bolkestein 93
Dringlichkeit 93
Friedens@@ 93
Gemeinschaften 93
Gerechtigkeit 93
Gestaltung 93
Höchst@@ 93
Kinder@@ 93
Ministerpräsident 93
Produkten 93
Präsenz 93
Straftaten 93
Tempo 93
afrikanischen 93
bedeutende 93
deswegen 93
endgültige 93
ersetzen 93
gebilligt 93
gestaltet 93
illegale 93
israelischen 93
legislativen 93
mussten 93
mögen 93
nahme 93
sichergestellt 93
tritt 93
verbot 93
Angst 92
Ausmaß 92
Ausnahmen 92
Entschließungen 92
Gewicht 92
Jahres@@ 92
Kapital@@ 92
Kolumbien 92
MEDA 92
Mehr 92
Mängel 92
Produkt 92
Zwar 92
al 92
angehören 92
fortsetzen 92
gebiete 92
gemeinschaftliche 92
historische 92
kritisiert 92
lan@@ 92
legung 92
nahe 92
organisierten 92
punkt 92
scheinen 92
tra@@ 92
untersuchen 92
vollen 92
zuerst 92
zumal 92
zählt 92
Aufhebung 91
Beobachtungsstelle 91
Beschluß 91
Bestimmung 91
Betriebs@@ 91
Dienststellen 91
Ehre 91
Emissions@@ 91
Erhaltung 91
Handels 91
Militär@@ 91
Respekt 91
Verbrauchern 91
Verteilung 91
Vorfeld 91
and@@ 91
behauptet 91
direkten 91
fall 91
frei@@ 91
guter 91
hergestellt 91
hohem 91
kraft 91
landwirtschaftlichen 91
ts@@ 91
vorhandenen 91
werten 91
wissenschaftliche 91
zustande 91
ö@@ 91
5@@ 90
Dauer 90
Erwägung 90
Fremdenverkehr 90
Friedens 90
Führung 90
Gefühl 90
Haushaltslinie 90
KOM 90
Kennzeichnung 90
Kommissionsvorschlag 90
Kosten@@ 90
Morgen 90
Pro@@ 90
Regulierung 90
Schengen 90
Taliban 90
Verkehr@@ 90
abgeben 90
angehen 90
angewandt 90
beantwortet 90
bereiche 90
direkte 90
eh@@ 90
inter@@ 90
is@@ 90
jeweils 90
kamen 90
lieber 90
schrittweise 90
vereinbart 90
vorgehen 90
wiederhole 90
zwölf 90
35 89
Arbeitsgruppe 89
Berlin 89
Errichtung 89
Fassung 89
Forum 89
Freunde 89
Fähigkeit 89
Haushaltskontrolle 89
Her@@ 89
Indikatoren 89
Industrie@@ 89
Insofern 89
Randlage 89
ausschusses 89
befürworte 89
begrenzt 89
entsteht 89
erheben 89
gegenseitigen 89
konsequent 89
kt 89
obliegt 89
rück@@ 89
staaten 89
unterschiedlich 89
verursacht 89
weg 89
würdigen 89
19 88
Donnerstag 88
Drogen@@ 88
Einkommen 88
Flüchtlingen 88
Gesundheits@@ 88
Haushalts 88
Niederlanden 88
San@@ 88
Schlüssel@@ 88
Währungsunion 88
Zuge 88
amtierenden 88
anerkennen 88
ausgerichtet 88
bestimmen 88
deutliche 88
eigentlichen 88
empfehlen 88
erforderliche 88
erheblichen 88
fer@@ 88
formen 88
gesellschaftlichen 88
glichen 88
ismus 88
müsse 88
persönliche 88
ratifiziert 88
rechtfertigen 88
schreiben 88
sexuellen 88
stellungen 88
öffentlicher 88
ü@@ 88
45 87
Amerika 87
Arbeit@@ 87
Arbeitsbedingungen 87
Augenblick 87
Besonders 87
Da@@ 87
Dass 87
Erzeuger 87
Fortsetzung 87
Geld@@ 87
Herkunft 87
Kompetenzen 87
Konflikten 87
Lebens 87
Post@@ 87
Serbien 87
Sozialdemokratischen 87
Stimmen 87
Straße 87
Texte 87
Vereinigte 87
Verlauf 87
akzeptabel 87
at 87
bisherigen 87
effektiv 87
erter 87
fonds 87
gesellschaften 87
gestellten 87
hervorragende 87
infolge 87
konzentriert 87
langsam 87
lin@@ 87
tieren 87
untersucht 87
verändern 87
Öl@@ 87
28 86
Bilanz 86
Doha 86
Fristen 86
Gleichbehandlung 86
Haushaltsausschuss 86
Jugoslawien 86
Mon@@ 86
Premierminister 86
Stadt 86
Technologie 86
Vorstellungen 86
Zugangs 86
abgegeben 86
amtierende 86
begründet 86
breiten 86
drängen 86
enorme 86
erscheinen 86
geehrten 86
gerechtfertigt 86
gesichert 86
gestärkt 86
grenzüberschreitende 86
interne 86
lagen 86
lehnen 86
möge 86
stattgefunden 86
ungspolitik 86
ungssystem 86
we@@ 86
wodurch 86
2005 85
32 85
Beschäftigten 85
Betracht 85
Bürokratie 85
Drittstaaten 85
Euro@@ 85
Jahresbericht 85
Katastrophen 85
Konvention 85
Lasten 85
Minderheit 85
Nachmittag 85
Rat@@ 85
Raums 85
Schiff@@ 85
Transport 85
Vermittlungsverfahren 85
Zahlungs@@ 85
abzulehnen 85
bekräftigen 85
derartigen 85
durchzusetzen 85
ersuchen 85
gleichermaßen 85
kritisch 85
lage 85
mo@@ 85
musste 85
nahezu 85
programm 85
schutz 85
ut 85
weltweiten 85
06@@ 84
500 84
Abhängigkeit 84
Anhang 84
Argument 84
Aussch@@ 84
GAP 84
Kern 84
Nichtregierungsorganisationen 84
T 84
Tradition 84
Unfälle 84
Verstärkung 84
angesprochenen 84
beglückwünsche 84
berichten 84
geklärt 84
hal@@ 84
ke 84
niveau 84
schlecht 84
sogenannten 84
ssen 84
sver@@ 84
teten 84
vernünftig 84
wei@@ 84
wirksamer 84
zugänglich 84
überprüft 84
Akteure 83
Ausrichtung 83
Berichterstattern 83
Chancen 83
Finanzdienstleistungen 83
Gesprächen 83
Haftbefehl 83
Hinweise 83
Iran 83
Jeder 83
Kopf 83
SV 83
Se@@ 83
Sollte 83
Versicherungs@@ 83
Volks@@ 83
Wettbewerbspolitik 83
Wiederherstellung 83
am@@ 83
außen 83
cher 83
derart 83
einbeziehen 83
ell@@ 83
erleichtern 83
gefragt 83
gefährdet 83
gemeinsamer 83
genießen 83
gkeit 83
hervorragenden 83
industrie 83
interessant 83
konstruktiven 83
kten 83
leistet 83
man@@ 83
mp@@ 83
ol@@ 83
tz@@ 83
unzureichend 83
verb@@ 83
verfahrens 83
vollständigen 83
voran 83
vorzu@@ 83
zukommen 83
zukünftig 83
zusätzlich 83
2010 82
Agenturen 82
Demokraten 82
Lin@@ 82
Mo@@ 82
Parlaments@@ 82
Sehr 82
Spannungen 82
Wirtschaft@@ 82
Zoll@@ 82
Zusammen@@ 82
Zypern 82
bereiten 82
bezahlen 82
diesbezügliche 82
droht 82
effiziente 82
erhoben 82
eventuell 82
fühlen 82
gehandelt 82
kt@@ 82
nt 82
praktische 82
rau@@ 82
sierung 82
stehende 82
strenge 82
tt@@ 82
umfasst 82
unabhängige 82
vorrangig 82
wenngleich 82
äußerster 82
öffnen 82
21 81
6@@ 81
Absichten 81
Alkohol 81
Banken 81
Bewegung 81
Car@@ 81
Fremdenfeindlichkeit 81
Gleichwohl 81
Journalisten 81
Kontakt 81
Produktions@@ 81
Vordergrund 81
Wieder@@ 81
angemessenen 81
bet@@ 81
geeignet 81
gewählten 81
gs@@ 81
heraus@@ 81
historischen 81
höheren 81
j@@ 81
ktes 81
mengen 81
nützlich 81
ran@@ 81
rechtlich 81
respektiert 81
sagten 81
stolz 81
sämtlichen 81
ul@@ 81
wahren 81
äre 81
.@@ 80
20@@ 80
Allianz 80
Erwägungen 80
Finanzierungs@@ 80
Förder@@ 80
GUE 80
Gebrauch 80
Gerichtshofs 80
Immunität 80
Lärm@@ 80
Mechanismus 80
Opfern 80
Planung 80
Qu@@ 80
Subsidiaritätsprinzip 80
Trotzdem 80
Vorsorgeprinzip 80
Vorwand 80
bedenken 80
davor 80
entstanden 80
erwiesen 80
gefährlichen 80
gemeinsames 80
ha@@ 80
hierfür 80
ktion 80
kts 80
müßte 80
tiges 80
wirtschaftlich 80
zügig 80
1993 79
20. 79
Alkohol@@ 79
Arbeitsweise 79
Asyl@@ 79
Außenhandel 79
Blut@@ 79
Drogen 79
Folglich 79
Religion 79
Schiffs@@ 79
Selbst 79
Tausende 79
Tätigkeiten 79
Verfolgung 79
Vertretung 79
Vitorino 79
Wirksamkeit 79
York 79
ausreichende 79
beihilfen 79
beiträgt 79
bildung 79
ens@@ 79
ergänzen 79
gebe 79
gefährlich 79
gungs@@ 79
heraus 79
organisationen 79
parlamentarische 79
passiert 79
prä@@ 79
teil 79
umwelt@@ 79
ursprünglich 79
verdienen 79
zuge@@ 79
übermittelt 79
29 78
Bank 78
Beitrittsländern 78
Besteuerung 78
Dadurch 78
Demokratischen 78
Dort 78
Drittel 78
EUR 78
Ereignissen 78
Garantie 78
Geldwäsche 78
Gemeinschaftsrechts 78
Gen@@ 78
Kampagne 78
Luft 78
Pflichten 78
Sitzungen 78
Tests 78
Textes 78
Verzögerungen 78
Wandel 78
Welthandelsorganisation 78
ationen 78
begreifen 78
bezeichnen 78
c 78
chte 78
einhalten 78
erfolgreichen 78
erweisen 78
führte 78
gefährliche 78
hohes 78
kaufen 78
natürlichen 78
ot@@ 78
praktischen 78
schwere 78
sin@@ 78
stärksten 78
ungsverfahren 78
vereinbarten 78
vermitteln 78
verschaffen 78
wahrnehmen 78
wohl@@ 78
wozu 78
ären 78
ökologischen 78
Alt@@ 77
Betroffenen 77
Beurteilung 77
Dafür 77
Finanzen 77
Ganz 77
Gesetzes@@ 77
Kandidatenländer 77
Konflikts 77
Kräften 77
Montag 77
Sozialpartner 77
Statut 77
Tod 77
Tragödie 77
Tunesien 77
Unsicherheit 77
Verheugen 77
Veränderung 77
Vollbeschäftigung 77
Vorbehalte 77
ali@@ 77
anti@@ 77
ausgewogenen 77
beobachten 77
bt 77
derselben 77
durchsetzen 77
em@@ 77
ernsthafte 77
erzielten 77
eröffnet 77
fähigkeit 77
gelangt 77
gewiss 77
globale 77
größter 77
inakzeptabel 77
konstitutionelle 77
liefern 77
ordnung 77
os 77
paar 77
schließt 77
seinerzeit 77
senken 77
steuern 77
tische 77
umgehend 77
verehrten 77
vermieden 77
verständlich 77
wünscht 77
zwangsläufig 77
Armee 76
Ausland 76
Bush 76
Fakten 76
Fähigkeiten 76
Gegenwärtig 76
I 76
Kompromiß 76
Li@@ 76
Menschenrechtsverletzungen 76
Mittelmeerraum 76
No@@ 76
Organen 76
Redezeit 76
Ukraine 76
Umfeld 76
Vermittlung 76
Wirtschaftswachstum 76
Zwecke 76
abgesehen 76
ari@@ 76
ausgehend 76
derjenigen 76
durchgesetzt 76
elektronische 76
erfordern 76
folglich 76
gender 76
geplanten 76
gesetzgebung 76
intensiv 76
mittels 76
russischen 76
sen@@ 76
sf@@ 76
verbieten 76
verpflichten 76
vorangegangenen 76
Übernahme 76
200 75
5. 75
Anmerkungen 75
Aussagen 75
Boden 75
Christdemokraten 75
Dafürhalten 75
Ebenen 75
Entscheidungs@@ 75
Frei@@ 75
Gegen@@ 75
Gu@@ 75
Haushaltsjahr 75
Kulturen 75
Macht@@ 75
Partnern 75
Quoten 75
Rahmenrichtlinie 75
Rindfleisch 75
Tabak 75
Tatsachen 75
Tonnen 75
Vorsitzende 75
Waren 75
Wichtigkeit 75
alität 75
ausgeführt 75
bau 75
beantragt 75
bedroht 75
beunruhigt 75
chts@@ 75
demokratischer 75
effizienter 75
ehe 75
erfolgreiche 75
ergänzt 75
ernste 75
festen 75
ften 75
gefallen 75
geprägt 75
gering 75
hierbei 75
hinzuweisen 75
höchst 75
ier@@ 75
klarstellen 75
liegenden 75
manche 75
mü@@ 75
neun 75
offiziellen 75
pro@@ 75
problematisch 75
standen 75
tions@@ 75
tre@@ 75
westlichen 75
Übergang 75
älteren 75
BIP 74
Beim 74
Biotechnologie 74
Energie@@ 74
Erst 74
Gründung 74
Königreichs 74
Schwerpunkt 74
See 74
Sind 74
Verzögerung 74
Werden 74
Widerstand 74
ad@@ 74
dasselbe 74
deutlicher 74
einiges 74
elt 74
erneuerbaren 74
externen 74
fehlen 74
fälle 74
führenden 74
gef@@ 74
geplant 74
gere 74
gesetzlichen 74
gsten 74
junge 74
kompliziert 74
nahm 74
setzung 74
unterstrichen 74
verbindliche 74
versch@@ 74
vollem 74
vorzugehen 74
wirksamen 74
zunehmenden 74
Abschluß 73
Annäherung 73
Bekanntlich 73
Byrne 73
Finanziellen 73
Ho@@ 73
Jugendliche 73
Kapital 73
Klonen 73
Lateinamerika 73
Mitgliedstaates 73
Märkten 73
Nachdem 73
Neben 73
Nielson 73
Rahmenbedingungen 73
Solange 73
Sozialpolitik 73
Wissens 73
Wissenschaftler 73
dieselbe 73
eigentliche 73
einnehmen 73
einzugehen 73
erlauben 73
fand 73
ft 73
gehende 73
greifen 73
grundlegender 73
kleiner 73
lenken 73
na@@ 73
nung 73
regelmäßig 73
reisen 73
richtet 73
rufen 73
schrecklichen 73
schriftlich 73
sichere 73
stoßen 73
strategische 73
stützen 73
teren 73
terroristischen 73
ungsprogramm 73
vorgesehene 73
75 72
ALE 72
Anbetracht 72
Anwesenheit 72
Asien 72
Bi@@ 72
Entwicklungszusammenarbeit 72
Genfer 72
Heimatland 72
Jahrhundert 72
Japan 72
Mitentscheidung 72
Rahmen@@ 72
Rahmenprogramm 72
Rechtsrahmen 72
Sommer 72
Souveränität 72
Sowohl 72
Stunde 72
Umstellung 72
Vorsitzender 72
Zielsetzung 72
abzielen 72
appelliere 72
ca. 72
chs 72
chter 72
dliche 72
fahr@@ 72
gefährden 72
gelesen 72
gewünscht 72
konstruktive 72
ks 72
otti 72
punkte 72
regelungen 72
schla@@ 72
sicherheit 72
viel@@ 72
33 71
48 71
Aids 71
Anwendungsbereich 71
C 71
Dienstleistungs@@ 71
Eltern 71
Energien 71
Experten 71
Fischereiabkommen 71
Gebäude 71
Genehmigung 71
Generationen 71
Handlungen 71
Inseln 71
Kontakte 71
Ku@@ 71
Material 71
NGL 71
Not@@ 71
Papier 71
Patent@@ 71
Poettering 71
R 71
Rechtssicherheit 71
Rumänien 71
Spielraum 71
Struktur@@ 71
Swoboda 71
Titel 71
Verts 71
Viertens 71
Wähler 71
anstreben 71
auseinander 71
beschleunigen 71
bevorstehenden 71
elles 71
entwicklung 71
existiert 71
geblieben 71
geringen 71
haften 71
organisieren 71
san@@ 71
ster@@ 71
technischer 71
tin 71
versteht 71
wofür 71
zuständige 71
Allgemeine 70
Also 70
Assoziierungsabkommen 70
Ausschüssen 70
Ausübung 70
Beschwerden 70
Einheit 70
Einleitung 70
Evaluierung 70
Familien@@ 70
Flüchtlings@@ 70
Friedensprozess 70
Genugtuung 70
Grundlagen 70
Hilfen 70
Investitionsbank 70
Können 70
Leid 70
Lohn@@ 70
Milosevic 70
Nachbarn 70
Nutzer 70
Nähe 70
Palästinenser 70
Straßen 70
Unterdrückung 70
Unterrichtung 70
Vorgaben 70
Watson 70
Zone 70
alisierung 70
ansehen 70
behalten 70
betone 70
bewirkt 70
billigen 70
eigenes 70
einbringen 70
einführen 70
eingebrachten 70
einzuhalten 70
enormen 70
enttäuscht 70
enz 70
erstellen 70
erwarte 70
freut 70
gerechte 70
höchsten 70
it@@ 70
klären 70
modernen 70
private 70
rechts@@ 70
stützt 70
systems 70
tung 70
uneingeschränkte 70
vorschläge 70
x 70
zukünftigen 70
Änderungsantrags 70
14@@ 69
95 69
Alter 69
Austausch 69
Betrieb 69
D 69
Di@@ 69
Entschließungsanträge 69
Fa@@ 69
Fahrzeuge 69
Kandidaten 69
Kinnock 69
Korruption 69
Legislativ@@ 69
Nachhaltigkeit 69
Post 69
Schuld 69
Steuerzahler 69
Verfahrens@@ 69
Weil 69
abgeschafft 69
anten 69
ations@@ 69
aufgehoben 69
benutzt 69
ck 69
dahin 69
einander 69
eingerichtet 69
enger 69
erweitern 69
fähig 69
gend 69
getroffenen 69
gra@@ 69
hinweg 69
hoher 69
inner@@ 69
international 69
langfristigen 69
ner 69
normalen 69
problem 69
rechten 69
respektieren 69
struktur 69
systematisch 69
verankert 69
vorankommen 69
weitem 69
zug 69
zukommt 69
31 68
55 68
8@@ 68
Arbeitsprogramm 68
Aufforderung 68
Auto@@ 68
Brok 68
Costa 68
Existenz 68
Fluggesellschaften 68
Frieden@@ 68
Gesamtheit 68
Gremium 68
Kluft 68
Kohäsion 68
Konsequenz 68
Massen@@ 68
Menschenrechten 68
Reform@@ 68
Rückkehr 68
Straßenverkehr 68
Studien 68
Termin 68
Wille 68
Wissenschaft 68
Zivil@@ 68
ation@@ 68
ckt 68
durchgeführten 68
einsetzt 68
els 68
erläutert 68
eröffnen 68
fortgesetzt 68
friedlichen 68
gegenseitige 68
gewonnen 68
glich 68
greift 68
inwieweit 68
jährlichen 68
korrekt 68
kte 68
leichter 68
märkte 68
ob@@ 68
produktion 68
recht@@ 68
situation 68
stre@@ 68
streben 68
südlichen 68
umfangreiche 68
verbindlich 68
weg@@ 68
wenigstens 68
wirft 68
zentralen 68
zieht 68
05@@ 67
Altersversorgung 67
Amsterdamer 67
Arafat 67
Autonomiebehörde 67
Dritten 67
Fahrer 67
Genua 67
Gewährung 67
Großteil 67
Grünbuch 67
Kind 67
Land@@ 67
Meer 67
NL 67
Na@@ 67
Rahmens 67
Schottland 67
Straßen@@ 67
Tendenz 67
Unionsbürger 67
Verlust 67
Wertpapier@@ 67
aler 67
ausgegeben 67
beitrittswilligen 67
cher@@ 67
debattieren 67
erklärte 67
ga@@ 67
geehrter 67
getreten 67
gliche 67
gäbe 67
haft 67
interessante 67
ka@@ 67
komplizierten 67
lei@@ 67
lichem 67
lie@@ 67
onen 67
schwer@@ 67
selbst@@ 67
sieren 67
transeuropäischen 67
transparent 67
ungsprozeß 67
verhalten 67
verringert 67
verwirklichen 67
verwirklicht 67
werfen 67
wählen 67
überwachen 67
43 66
44 66
Aktionsprogramm 66
Alternativen 66
Amt 66
Auffassungen 66
Begrenzung 66
Beifall 66
Beitritts@@ 66
Bevölkerungsgruppen 66
Bosnien 66
Bürger@@ 66
Davon 66
EP 66
Erkenntnisse 66
Fach@@ 66
Fang@@ 66
Forsch@@ 66
Geltungsbereich 66
Hafen@@ 66
Ko@@ 66
Kor@@ 66
Liikanen 66
Maastricht 66
Mexiko 66
Monti 66
Nachfrage 66
PVC 66
Ri@@ 66
Schicksal 66
Schiene 66
Schokolade 66
Stabilitätspakt 66
Stellenwert 66
Suche 66
Tages 66
UN@@ 66
Vormittag 66
Völkern 66
aktiven 66
amtierender 66
ansonsten 66
aufrechterhalten 66
basiert 66
beweist 66
einfache 66
eingebunden 66
eingehend 66
erweitert 66
genen 66
haltung 66
kan@@ 66
kritisieren 66
minister 66
potenti@@ 66
schnellen 66
scht 66
stammen 66
stoffe 66
sucht 66
tiert 66
verschiedener 66
zerstört 66
zugelassen 66
zurzeit 66
ähnliche 66
ähnlichen 66
.00 65
36 65
6. 65
Ausbau 65
Barnier 65
Bauern 65
Beratung 65
Beschränkungen 65
Bildungs@@ 65
Cotonou 65
EIB 65
Einschränkung 65
Erfolge 65
G 65
Gra@@ 65
Größe 65
Klima 65
Menschheit 65
Seeverkehr 65
Substanzen 65
Vision 65
Votum 65
angesehen 65
aufs 65
bedeutenden 65
beginnt 65
bereichen 65
dar@@ 65
definieren 65
dürften 65
effektive 65
ersetzt 65
gelassen 65
gerechten 65
gerung 65
inneren 65
kenne 65
langfristige 65
me@@ 65
mitgeteilt 65
nachzudenken 65
nis 65
nten 65
schenken 65
schön 65
stärkeren 65
ta@@ 65
traditionellen 65
unerlässlich 65
ungssysteme 65
ut@@ 65
vorhaben 65
wahr@@ 65
werk 65
wünschenswert 65
zen 65
10@@ 64
12.00 64
1994 64
19@@ 64
38 64
Ar@@ 64
Ausgewogenheit 64
Do@@ 64
Einnahmen 64
Erinnerung 64
Fisch@@ 64
Gemäß 64
Herbst 64
Krisen 64
Lei@@ 64
Mitgliedsländer 64
Opposition 64
Politikbereiche 64
Prozent 64
Runde 64
Sach@@ 64
Sitz 64
Stabilitäts- 64
Statistiken 64
Stück 64
Süden 64
Unregelmäßigkeiten 64
Verb@@ 64
abend 64
antrag 64
are 64
ausgewogene 64
automatisch 64
bedürfen 64
bemerken 64
dauerhaften 64
einfachen 64
einziges 64
ep@@ 64
folgendes 64
fürchte 64
gespielt 64
gu@@ 64
he@@ 64
heißen 64
investieren 64
is 64
ka 64
langer 64
läßlich 64
lösung 64
lü@@ 64
mitt@@ 64
netz 64
rahmen 64
region 64
schaften 64
schuldig 64
sensiblen 64
sse 64
sterben 64
sämtlicher 64
ungs- 64
ungsmaßnahmen 64
ungsprozess 64
unterschiedlicher 64
verstärkten 64
zielt 64
überrascht 64
65 63
Anreize 63
Befürchtungen 63
Beschlüssen 63
Bestände 63
Bevor 63
Bio@@ 63
Daraus 63
Europäisches 63
Fleisch@@ 63
Großen 63
Indien 63
Konservativen 63
Kontext 63
Marktwirtschaft 63
Mitgliedstaats 63
Organ 63
Parlament@@ 63
Reise@@ 63
Sitzungsperiode 63
Somit 63
Waffen@@ 63
Währungs@@ 63
abschließen 63
anzupassen 63
ausgestattet 63
ausreichen 63
bau@@ 63
bedaure 63
befürchten 63
beinhalten 63
beitreten 63
ber 63
chen@@ 63
dahingehend 63
dlich 63
einräumen 63
et@@ 63
fällen 63
gebiet 63
gedenkt 63
gekennzeichnet 63
gestrigen 63
institutionelle 63
klar@@ 63
mechanismus 63
methoden 63
mäßig 63
op@@ 63
ordnungsgemäß 63
qualifizierte 63
quote 63
ren@@ 63
stell@@ 63
stoffen 63
technisch 63
unterliegen 63
x@@ 63
12@@ 62
1@@ 62
300 62
Arbeitszeit 62
Auslegung 62
Barón 62
Beitrittsverhandlungen 62
Belastung 62
Einwanderungspolitik 62
Ex@@ 62
F 62
Freund 62
Fußball@@ 62
Geber 62
Gewerkschaften 62
Gewinne 62
Griechenlands 62
Handlungs@@ 62
Haushaltsausschusses 62
Ihres 62
Jahrhunderts 62
Kuba 62
Lamy 62
Menschenrechts@@ 62
Missbrauch 62
Natur@@ 62
Pfeiler 62
Rand@@ 62
Sa@@ 62
Schon 62
Sports 62
Tibet 62
Werbung 62
angeblich 62
aufbauen 62
benutzen 62
bo@@ 62
demnächst 62
diensten 62
dänischen 62
erende 62
erenden 62
ersucht 62
erungen 62
gewidmet 62
hafte 62
herzustellen 62
höher 62
kurze 62
ländern 62
markt@@ 62
per 62
präzise 62
qu@@ 62
reduzieren 62
reform 62
rä@@ 62
solch 62
steigen 62
streichen 62
umso 62
verk@@ 62
vielfach 62
vorsehen 62
zer@@ 62
zunehmende 62
zuzustimmen 62
zwingen 62
üblich 62
üblichen 62
71 61
Ablauf 61
Angola 61
Anlaß 61
Beendigung 61
Beweise 61
Chemikalien 61
Co@@ 61
Entwickl@@ 61
Erzeugung 61
Gremien 61
He@@ 61
Hinter@@ 61
Luftverkehr 61
Meinungen 61
Mitgliedschaft 61
Münzen 61
Parlamentarier 61
Rechtsprechung 61
Rückgang 61
Schreyer 61
Seuche 61
Studenten 61
Technik 61
Unterzeichnung 61
Versorgung 61
Veröffentlichung 61
Zusatz@@ 61
angestrebt 61
appellieren 61
aufgegriffen 61
aufgreifen 61
aufhalten 61
bewertet 61
fer 61
geeigneten 61
geh@@ 61
genauer 61
geren 61
geschrieben 61
hei@@ 61
immerhin 61
kurzen 61
leid 61
lig 61
lokaler 61
länder 61
negativ 61
nieder@@ 61
of 61
p 61
qualität 61
schwieriger 61
sicheren 61
stoff 61
stra@@ 61
tionen 61
tätigen 61
ungeachtet 61
ungsprogramme 61
ungsprozesses 61
vorn 61
weit@@ 61
ziel@@ 61
ziele 61
ßen 61
34 60
Amerikaner 60
Asylbewerber 60
Aufrechterhaltung 60
Ausgleich 60
Ausnahmeregelung 60
Beobachter 60
Bevölkerungs@@ 60
Bezeichnung 60
Derzeit 60
Dynamik 60
Echelon 60
Eines 60
Einzelnen 60
Gefängnissen 60
Genau 60
Geschäftsverkehr 60
Grundfreiheiten 60
Haftung 60
Haushaltsverfahren 60
Intervention 60
Klärung 60
Konzentration 60
Lande 60
Mehr@@ 60
Mengen 60
Million 60
Privat@@ 60
Rednern 60
Rei@@ 60
Rente 60
Richtlinienvorschlag 60
Ru@@ 60
Solche 60
Sprach@@ 60
Strafen 60
Van 60
Werten 60
Zusätzlichkeit 60
abzielt 60
abzustimmen 60
anbieten 60
ausgewogen 60
aussehen 60
beeinflussen 60
bel@@ 60
best@@ 60
betriebe 60
deutsche 60
ehrlich 60
eingeschränkt 60
energisch 60
enge 60
erstellt 60
fairen 60
festhalten 60
friedliche 60
führung 60
haushalt 60
kurzfristig 60
könne 60
ler@@ 60
mer 60
negative 60
pf@@ 60
programme 60
rasche 60
realistisch 60
selber 60
teil@@ 60
to@@ 60
umgehen 60
unternimmt 60
verfügbaren 60
verstoßen 60
verzichten 60
war@@ 60
überlegen 60
7@@ 59
Akzeptanz 59
Algerien 59
Anreiz 59
Ban@@ 59
Beide 59
Diskriminierungen 59
Erneuerung 59
Finanzmittel 59
Gebühren 59
Gemeinden 59
Generation 59
Gesichtspunkt 59
Hoch@@ 59
Infrastrukturen 59
Instrumenten 59
Licht 59
Liebe 59
Logik 59
M 59
Mugabe 59
Par@@ 59
Presse@@ 59
Projekts 59
Redebeitrag 59
Regional@@ 59
Rindfleisch@@ 59
Umstände 59
Unrecht 59
Verwaltungen 59
Weiterhin 59
Weltbank 59
Zwei 59
ausführliche 59
beendet 59
bekunden 59
berechtigt 59
bes@@ 59
beträgt 59
bilateralen 59
chtung 59
dauer 59
derartiger 59
engagiert 59
enst@@ 59
entscheidung 59
erstmals 59
falsche 59
führende 59
gel 59
geleistete 59
gewahrt 59
gewissermaßen 59
geäußerten 59
gh@@ 59
gste 59
klarer 59
kommende 59
korrigieren 59
ms 59
oli@@ 59
regionen 59
schnelle 59
staatlicher 59
strukturen 59
tatsächliche 59
the 59
to 59
un 59
unterstreicht 59
verabschiedeten 59
vieles 59
vorzuschlagen 59
wachsen 59
willkommen 59
örtlichen 59
07@@ 58
3. 58
Anschluss 58
Bemühen 58
Dienst@@ 58
Einerseits 58
Fatuzzo 58
Fleisch 58
Glauben 58
Interoperabilität 58
Israels 58
Linken 58
Mädchen 58
Oder 58
Optionen 58
Organismen 58
Rechnungshofs 58
Richter 58
Standpunkts 58
Verfasser 58
Washington 58
Zerstörung 58
Zwischen@@ 58
ag@@ 58
ales 58
and 58
ati@@ 58
ausgegangen 58
beeinträchtigen 58
berechtigten 58
beurteilen 58
drei@@ 58
eingestellt 58
eri@@ 58
ertes 58
erweist 58
ff@@ 58
gefährlicher 58
gegebenen 58
gegenseitig 58
gene 58
genetisch 58
hilfreich 58
hr@@ 58
iel@@ 58
interinstitutionellen 58
konkreter 58
kritischen 58
lokale 58
material 58
mie 58
mitunter 58
rund 58
schätzen 58
strengen 58
teilung 58
tik@@ 58
tion 58
türkische 58
unnötig 58
ursprüngliche 58
verteilt 58
vier@@ 58
vorgelegte 58
zugeben 58
Ägypten 58
Überwindung 58
15@@ 57
31. 57
39 57
Anstieg 57
Aufstockung 57
August 57
Ausbruch 57
Ausgangspunkt 57
Auswahl 57
Behinderungen 57
Bewirtschaftung 57
Doppel@@ 57
Effektivität 57
Entschädigung 57
Erde 57
Eurojust 57
Gesetzgeb@@ 57
Hoffentlich 57
Hoffnungen 57
Kandidatenländern 57
Lärm 57
Men@@ 57
Mittelmeer@@ 57
Qualitäts@@ 57
Rechnungs@@ 57
Resolution 57
Schweiz 57
Sicherheit@@ 57
Sozialisten 57
Summe 57
Säule 57
Thematik 57
Türen 57
Ursache 57
Vergabe 57
Verschmutzung 57
Wesen 57
aktuelle 57
anhand 57
anschließend 57
bauen 57
begangen 57
bekämpft 57
beruhen 57
bewahren 57
bewegung 57
denselben 57
do 57
einzurichten 57
erkannt 57
erkläre 57
erleichtert 57
erungs@@ 57
formulieren 57
gem 57
genaue 57
gewaltige 57
gleicher 57
hier@@ 57
hängen 57
il@@ 57
knapp 57
konferenz 57
kraft@@ 57
kritische 57
leidet 57
luß 57
ma 57
manchen 57
mar@@ 57
nden 57
organisiert 57
organisierte 57
raum 57
stan@@ 57
teilgenommen 57
tere 57
tungen 57
verhandelt 57
vertrete 57
verweist 57
wachsenden 57
zeit@@ 57
Ö@@ 57
Überarbeitung 57
än@@ 57
österreichischen 57
46 56
Absch@@ 56
Anti@@ 56
Aufenthalts@@ 56
Banknoten 56
Beantwortung 56
Bereits 56
Betrugsbekämpfung 56
Crespo 56
Ereignis 56
Grenzwerte 56
Handel@@ 56
Harbour 56
Haushaltsbehörde 56
Hände 56
Inneres 56
Insgesamt 56
Inzwischen 56
Jo@@ 56
Klaren 56
Kunst@@ 56
Lernen 56
Man@@ 56
Programm@@ 56
Su@@ 56
Ta@@ 56
Tagungen 56
Themas 56
Universal@@ 56
Verbraucherschutz 56
Verkauf 56
Verletzungen 56
Vizepräsidentin 56
Wo 56
Wogau 56
Wortmeldung 56
agieren 56
aufweist 56
ausgearbeitet 56
beschlossenen 56
beträchtlichen 56
dischen 56
eigener 56
endgültig 56
erk@@ 56
fertig 56
freiheit 56
früh 56
gebunden 56
gebühren 56
geeinigt 56
gesetz@@ 56
gest@@ 56
hervorzuheben 56
ierung 56
illegal 56
integrierten 56
kleineren 56
kohär@@ 56
legte 56
lt 56
management 56
nachkommen 56
passieren 56
positiver 56
sozusagen 56
stellten 56
täglich 56
verhandeln 56
vermittelt 56
wirkt 56
womit 56
zes 56
ähnlich 56
überdenken 56
17@@ 55
49 55
Artikels 55
Asylan@@ 55
Auflagen 55
Bedauern 55
Beträge 55
EWG 55
Einfluß 55
Einigkeit 55
Gerichte 55
Gesetzgeber 55
Glück 55
Hand@@ 55
ICAO 55
Jahrzehnten 55
Jarzembowski 55
Kinderpornographie 55
Konflikt@@ 55
Menschen@@ 55
Ministerin 55
Obergrenze 55
Privatisierung 55
Produzenten 55
Prä@@ 55
Prävention 55
Rats@@ 55
See@@ 55
Spiel@@ 55
Umstrukturierung 55
Versch@@ 55
Vorbild 55
Vorsitzes 55
Wachstums 55
alter 55
angeboten 55
baus 55
beachten 55
beeinträchtigt 55
begleitet 55
bereitzustellen 55
bestanden 55
bewegt 55
entziehen 55
erfasst 55
größerer 55
halt@@ 55
innen 55
lebt 55
lehnt 55
lä@@ 55
längst 55
mechanismen 55
mittlere 55
normen 55
nutz@@ 55
preise 55
qualitativ 55
räumen 55
sam@@ 55
satz 55
sitzen 55
spe@@ 55
sprachen 55
ssektor 55
täts@@ 55
umfassen 55
verursachen 55
zeugt 55
zurückzu@@ 55
zweckmäßig 55
00 54
Abgesehen 54
Aktionspläne 54
Appell 54
Ausbildungs@@ 54
Ausnahmeregelungen 54
Belange 54
Bestreben 54
Bewältigung 54
Detail 54
Eigen@@ 54
Einsetzung 54
En@@ 54
Export 54
Fra@@ 54
Frauen@@ 54
Genf 54
Händen 54
Jedoch 54
Kategorien 54
Kommissare 54
Lebensmittelbehörde 54
O 54
Preisen 54
Schiffen 54
Schlussfolgerung 54
Soldaten 54
Süd@@ 54
Verbrennung 54
Verhaltenskodex 54
Vermittlungs@@ 54
Vorbereitungen 54
age 54
aufgezeigt 54
aufzubauen 54
auszuüben 54
behindert 54
beurteilt 54
bung 54
dauerhafte 54
einfacher 54
erfolgte 54
ers@@ 54
existieren 54
facto 54
finanziell 54
geringe 54
gewählte 54
grundsätzliche 54
gter 54
hierzu 54
höchst@@ 54
juristischen 54
ktionen 54
leg@@ 54
liberalen 54
ling 54
ment 54
mün@@ 54
müßten 54
nissen 54
obgleich 54
offiziell 54
orientierten 54
ort 54
spüren 54
stes 54
steuer 54
veranlassen 54
vorge@@ 54
ze 54
zeiten 54
zivilen 54
zurückkommen 54
0,@@ 53
400 53
Anlage 53
Au@@ 53
Auseinandersetzung 53
Bank@@ 53
Bedingung 53
Beihilfe 53
Beziehung 53
Bisher 53
Diesen 53
Einwände 53
Embryonen 53
Erdöl@@ 53
Erstellung 53
Falls 53
Finanzmärkte 53
Flotte 53
Funktionsweise 53
Ganzen 53
Gerichts@@ 53
Instanz 53
Justiz@@ 53
Kriegs@@ 53
Kurs 53
Küste 53
Lehren 53
Mitte 53
Nachtrags@@ 53
Pa@@ 53
Per@@ 53
Regimes 53
Steigerung 53
Tab@@ 53
Zusammensetzung 53
abzuschließen 53
angehört 53
anmerken 53
ausgelöst 53
belastung 53
berichte 53
berührt 53
bezogen 53
brechen 53
erlangen 53
ersuche 53
ethnische 53
flexibel 53
handel 53
hervor@@ 53
informellen 53
inhaltlich 53
irgendeiner 53
islamischen 53
kriminalität 53
ließ 53
mangelt 53
nah@@ 53
palästinensische 53
ru@@ 53
rü@@ 53
schicken 53
schnellstmöglich 53
spar@@ 53
technologischen 53
ton 53
verbinden 53
vernünftigen 53
vertraut 53
vorbereiten 53
wende 53
zeichnet 53
zieren 53
zuzu@@ 53
Änderungsvorschläge 53
äl@@ 53
9@@ 52
Acht 52
Angleichung 52
Bediensteten 52
Bedürfnissen 52
Beibehaltung 52
Bestrebungen 52
Daten@@ 52
Demokratisierung 52
Eigenschaft 52
Elektron@@ 52
Energiequellen 52
Eurozone 52
Fehl@@ 52
Finanzminister 52
Fla@@ 52
Gemeinschaftsebene 52
Generaldirektion 52
Generalsekretär 52
Gent 52
Inflation 52
Kan@@ 52
Konfliktprävention 52
Ministerpräsidenten 52
Nahrungsmittel@@ 52
Ob 52
Palästina 52
Peking 52
Polen 52
Postdienste 52
Rückverfolgbarkeit 52
Si@@ 52
Stabilisierung 52
Teil@@ 52
Telekommunikation 52
Terror@@ 52
Tobin 52
Tür 52
Umweltpolitik 52
Verbindungen 52
Verhinderung 52
Versprechen 52
Wünsche 52
Ziels 52
analysieren 52
ar 52
ate 52
außenpolitischen 52
beenden 52
begegnen 52
begrenzte 52
behörde 52
betreffende 52
brachte 52
desto 52
eingeladen 52
einzuräumen 52
erweiterten 52
externe 52
faktisch 52
fortzusetzen 52
grundlegend 52
hart 52
hen 52
herstellen 52
ie 52
ignorieren 52
italienische 52
kümmern 52
leitet 52
maß@@ 52
melden 52
mpf@@ 52
multilateralen 52
möglichkeit 52
sam 52
schwerwiegende 52
schä@@ 52
seiten 52
sierte 52
ssysteme 52
systeme 52
tin@@ 52
tragischen 52
tungs@@ 52
ub@@ 52
ven 52
verstößt 52
wesen 52
zunehmen 52
ökonomischen 52
übergehen 52
24. 51
Bar@@ 51
Berg 51
Beschlussfassung 51
Betreiber 51
Betrügereien 51
Bezüglich 51
Dan@@ 51
Diejenigen 51
Einkommens@@ 51
Einstimmigkeit 51
Evans 51
Ha@@ 51
Hafen 51
Insel 51
Kapazitäten 51
Kohäsionsfonds 51
Legitimität 51
Leistung 51
Leitung 51
Luft@@ 51
Menschenwürde 51
Mi@@ 51
Mitarbeitern 51
Mühe 51
Niemand 51
Reserve 51
Streichung 51
Unternehmens 51
Verhütung 51
Verschlechterung 51
Verwirrung 51
Zentral@@ 51
anführen 51
angemessener 51
arbeit@@ 51
arten 51
aufkommen 51
ausgenommen 51
auszuschließen 51
beruflichen 51
betrachte 51
bezogenen 51
biologischen 51
brauch 51
darlegen 51
effizienten 51
ehemalige 51
engen 51
erbringen 51
errichten 51
erstes 51
fort 51
freiwillige 51
fördert 51
gesunden 51
hinausgehen 51
holen 51
ihrerseits 51
industriellen 51
ität 51
jüngste 51
kal@@ 51
kennt 51
kriterien 51
lands 51
losigkeit 51
morgigen 51
multinationalen 51
mündliche 51
nachhaltig 51
obligatorischen 51
positives 51
schutzes 51
sichtbar 51
sierten 51
sor@@ 51
strafrechtlichen 51
strengere 51
unlängst 51
verantwortlichen 51
vereinbar 51
verschärft 51
voneinander 51
widerspiegelt 51
zielen 51
zulässig 51
Ärzte 51
übernimmt 51
13@@ 50
19. 50
99 50
Abstand 50
Aktionsplans 50
Anhebung 50
Asylpolitik 50
Aussprachen 50
Dienstag 50
EGKS 50
Erfordernisse 50
Flugzeuge 50
Fortschritten 50
Kaka@@ 50
Kommunikations@@ 50
Labour 50
Maaten 50
Mitentscheidungsverfahren 50
Mittwoch 50
Nachrichten 50
Niederlande 50
Nor@@ 50
Pakistan 50
Sellafield 50
So@@ 50
Territorium 50
Trennung 50
Unternehmens@@ 50
Zukunfts@@ 50
abzugeben 50
angeführt 50
angewiesen 50
ativ 50
ausmachen 50
bekannten 50
breit 50
bro@@ 50
denden 50
dienst@@ 50
diert 50
eben@@ 50
eingegangenen 50
eingeleiteten 50
einrichtungen 50
ex@@ 50
feste 50
finanzieller 50
gabe 50
gedacht 50
herrschen 50
hinreichend 50
ignoriert 50
israelische 50
jemals 50
kl@@ 50
kommerziellen 50
kürz@@ 50
lebenden 50
mittel@@ 50
moderne 50
mu@@ 50
netze 50
nor@@ 50
offenkundig 50
rechtlicher 50
rücken 50
sach@@ 50
sionen 50
strukturellen 50
stu@@ 50
tel 50
verkehr@@ 50
wiederaufgenommen 50
willen 50
worüber 50
ziert 50
zusammenzuarbeiten 50
zuweilen 50
Übertragung 50
übereinstimmen 50
überschritten 50
13. 49
15.00 49
16@@ 49
30. 49
9. 49
AIDS 49
Angebot 49
Buitenweg 49
COS 49
Durch@@ 49
Eingreifen 49
Einmischung 49
Erweiterungs@@ 49
For@@ 49
Friedensprozesses 49
Grad 49
Informations- 49
Kohäsionspolitik 49
Kunden 49
Kürzung 49
L 49
Landwirten 49
Lebensmitteln 49
Lebensqualität 49
Minute 49
Monopole 49
Mosambik 49
Nord@@ 49
Produkt@@ 49
Rechtsvorschrift 49
Schwerpunkte 49
Soweit 49
Stammzellen 49
Stehende 49
Süd 49
Telekommunikations@@ 49
Tragweite 49
Verschärfung 49
Vertrauens 49
Volksrepublik 49
Wortlaut 49
Wäre 49
Zwei@@ 49
Zweifellos 49
abhängen 49
anstelle 49
aufgestellt 49
ausgeht 49
bemerkt 49
benachteiligten 49
besagt 49
beseitigt 49
chung 49
demzufolge 49
denkt 49
einleiten 49
einzuleiten 49
fischen 49
forschung 49
freiwilligen 49
führ@@ 49
gehabt 49
genießt 49
gens 49
geringer 49
gesellschaftliche 49
gewaltigen 49
heutzutage 49
konsultiert 49
ktion@@ 49
meint 49
nde 49
par@@ 49
schafts@@ 49
schieben 49
schwerer 49
schwerwiegenden 49
ser 49
sogenannte 49
solide 49
stoppen 49
testen 49
tzen 49
und@@ 49
unge@@ 49
verordnung 49
verschieben 49
verschoben 49
vertretenen 49
vorschlag 49
widerspiegeln 49
würdig 49
zukunfts@@ 49
Äthiopien 49
überwacht 49
1992 48
2. 48
47 48
63 48
Angehörigen 48
Anschläge 48
Aufklärung 48
B 48
Ba@@ 48
Beamte 48
Begriffe 48
Berufs@@ 48
Beschleunigung 48
Beschäftig@@ 48
Beschäftigungspolitik 48
Diensten 48
Einbindung 48
Einwohner 48
Eisenbahn 48
Endes 48
Etikettierung 48
Export@@ 48
Fehlen 48
Grundrechtecharta 48
Grundzüge 48
Israelis 48
Je 48
Kompetenz 48
Konsultationen 48
Landwirtschafts@@ 48
Le@@ 48
Lehr@@ 48
Lo@@ 48
Mehrzahl 48
Meinungsverschiedenheiten 48
Mitgliedsländern 48
Personen@@ 48
Prozentsatz 48
Rauchen 48
Reaktionen 48
Ruhe 48
Schule 48
Sieg 48
Stadium 48
Strafsachen 48
Strom 48
Stärke 48
Tier 48
U 48
Unternehmer 48
Untersuchungs@@ 48
Verurteilung 48
Wälder 48
Zuwanderung 48
absolute 48
afghanischen 48
ap@@ 48
begründen 48
beider 48
beklagen 48
bereitstellen 48
bewaffneten 48
bürger@@ 48
deut@@ 48
dlichkeit 48
einseitig 48
ethischen 48
förderung 48
geholfen 48
geltende 48
gerichteten 48
gerufen 48
gestrichen 48
getrennt 48
gingen 48
grenz@@ 48
gründliche 48
heits@@ 48
hinnehmen 48
höre 48
klausel 48
komplizierte 48
koordinieren 48
land@@ 48
lau@@ 48
legislative 48
liste 48
men@@ 48
normalerweise 48
realen 48
schönen 48
sexuelle 48
sinn@@ 48
steigt 48
tät 48
unterrichtet 48
vorzusehen 48
zugesagt 48
zukünftige 48
zusehen 48
zwanzig 48
15. 47
23. 47
4. 47
41 47
51 47
Abschnitt 47
Aktualisierung 47
Aufstellung 47
Berlusconi 47
Besonderheiten 47
Bild@@ 47
CO@@ 47
Darauf 47
Definitionen 47
Einer 47
Einschränkungen 47
Entsorgung 47
Ergänzung 47
Familienzusammenführung 47
Fisch 47
GASP 47
Gemein@@ 47
Gewässer 47
Gewässern 47
Grundsatz@@ 47
Grundsatzes 47
Hat 47
Haushaltsmittel 47
Haushaltsordnung 47
Inhalte 47
Junglandwirte 47
Katiforis 47
Kriterium 47
Lannoye 47
Lebensbedingungen 47
Management 47
Mitgefühl 47
Nahrungsergänz@@ 47
Nationalstaaten 47
Neves 47
Orientierung 47
Plan@@ 47
Produktion@@ 47
Reden 47
S 47
Satz 47
Schwedens 47
Schwer@@ 47
Spitze 47
Staatsanwaltschaft 47
Systemen 47
Terror 47
Terrorismusbekämpfung 47
Umweltschutzes 47
Uran 47
Verluste 47
Vermarktung 47
Weiter@@ 47
Wiederaufnahme 47
Zeitung 47
alismus 47
beantragen 47
bedauert 47
bekämpfung 47
benachteiligt 47
bestraft 47
bezahlt 47
bisweilen 47
cke 47
des@@ 47
ehrgeizige 47
erachtet 47
erkennt 47
erreichten 47
gebraucht 47
geforderten 47
gendes 47
gesunde 47
griechische 47
he 47
hel@@ 47
hervorgeht 47
hundert 47
indirekt 47
individuellen 47
integriert 47
keit@@ 47
klargestellt 47
konstruktiv 47
kontrollen 47
lungen 47
namentlich 47
pi@@ 47
produkte 47
produzieren 47
ratifizieren 47
reiche 47
sektors 47
sfonds 47
sorg@@ 47
steuerlichen 47
streng 47
technologische 47
teilzunehmen 47
theit 47
vergleichen 47
verhängt 47
verteilung 47
verursachten 47
voranzubringen 47
vorzubereiten 47
wa@@ 47
wege 47
zerstören 47
zugenommen 47
Übergangs@@ 47
öl@@ 47
1990 46
Arbeitskräfte 46
Aznar 46
Berichtigungs@@ 46
Besitzstand 46
Blut 46
Drei@@ 46
Durchbruch 46
Erfordernissen 46
Europarat 46
Firmen 46
Fol@@ 46
Frühjahr 46
Funktionen 46
Gefangenen 46
Geheim@@ 46
Gehör 46
Gleich@@ 46
Haushalt@@ 46
INTERREG 46
Indi@@ 46
Konfliktverhütung 46
Krieges 46
Malta 46
Medikamente 46
Menschenhandels 46
Mission 46
Neben@@ 46
Patent 46
Posselt 46
Scheitern 46
Seattle 46
Termin@@ 46
Toleranz 46
Verfassungs@@ 46
Vertiefung 46
Vi@@ 46
WWU 46
Wei@@ 46
Wertschätzung 46
Zucker 46
angenommene 46
ats 46
ausgeübt 46
beg@@ 46
biologische 46
birgt 46
darzulegen 46
denk@@ 46
dienstes 46
ei 46
eindeutigen 46
eres 46
ernsten 46
europaweit 46
fass@@ 46
fern 46
fragt 46
gebildet 46
gleichwohl 46
grund@@ 46
haf@@ 46
intensive 46
investiert 46
juristische 46
jährigen 46
jährliche 46
koordiniert 46
kriminellen 46
landes 46
lich@@ 46
lig@@ 46
mel@@ 46
ments 46
mittlerweile 46
nationales 46
ner@@ 46
oni@@ 46
ordnen 46
prüft 46
schlechter 46
schungen 46
späteren 46
spätestens 46
strikt 46
tier@@ 46
tierte 46
transatlantischen 46
täglichen 46
umfangreichen 46
veranlasst 46
verweise 46
verwendeten 46
vorgetragen 46
vorherigen 46
vornehmlich 46
wachsende 46
wirk@@ 46
wächst 46
zeu@@ 46
zweck@@ 46
Öl 46
Ü@@ 46
äu@@ 46
16. 45
18@@ 45
Anschein 45
Befriedigung 45
Beispielsweise 45
Bundes@@ 45
Demonstrationen 45
Details 45
Diesbezüglich 45
Ei@@ 45
Fern@@ 45
Freie 45
Gemeinschaftspolitik 45
Gleiche 45
Gut 45
Güter 45
Impulse 45
Informationsaustausch 45
Ja@@ 45
Kampfes 45
Küsten@@ 45
Madrid 45
Maes 45
Menschenrechtskommission 45
Mitbürger 45
Netzes 45
OSZE 45
Perspektiven 45
Referendum 45
Soforthilfe 45
Spezi@@ 45
Strafverfolgung 45
Streben 45
Tatsächlich 45
Vermeidung 45
Versuche 45
Verteidigungs@@ 45
Wallström 45
Weiterentwicklung 45
Wiederbelebung 45
Zigaretten 45
Zusage 45
alisiert 45
angen@@ 45
angepasst 45
anzuerkennen 45
audiovisuellen 45
aufgerufen 45
beachtet 45
behindern 45
beizubehalten 45
diplomatischen 45
dlichen 45
dokument 45
eingetreten 45
einzubringen 45
einzustellen 45
empfehle 45
empfohlen 45
enorm 45
est 45
eventuelle 45
fach@@ 45
falschen 45
fehlenden 45
fließen 45
funktion 45
gemeldet 45
genehmigt 45
grenze 45
gründlich 45
herausgestellt 45
innovative 45
jeglicher 45
mußte 45
offen@@ 45
orientierte 45
pflicht 45
probleme 45
qualifizierter 45
reduziert 45
setz@@ 45
sprogramm 45
stammt 45
stehe 45
tion@@ 45
unannehmbar 45
ungefähr 45
ungss@@ 45
unmittelbaren 45
verkehrs@@ 45
verlängert 45
vertrau@@ 45
vertrauen 45
verweigert 45
vollzogen 45
vorbehaltlos 45
wider 45
worauf 45
zuwenden 45
zuzulassen 45
Übersetzung 45
ßte 45
änderung 45
üben 45
14. 44
28. 44
62 44
8. 44
Aktions@@ 44
Angriffe 44
Anmerkung 44
Aufgaben@@ 44
Ausgehend 44
Ausschuss@@ 44
Autos 44
Außengrenzen 44
BDE 44
Balkan@@ 44
Berg@@ 44
Beschränkung 44
Birma 44
Bu@@ 44
Büro 44
Darlehen 44
Dire@@ 44
Dringlichkeits@@ 44
Drittstaatsangehörigen 44
EMAS 44
Eigentum 44
Einreise 44
Erhalt 44
Fil@@ 44
Fin@@ 44
Fischbestände 44
Flüchtling@@ 44
Folgendes 44
Herangehen 44
Hierzu 44
Hilf@@ 44
Hindernis 44
Integrität 44
Interessen@@ 44
Internationale 44
Jugend@@ 44
Kenntnisse 44
Klassi@@ 44
Komitologie 44
LEADER 44
Me@@ 44
Milch@@ 44
Moratorium 44
Nacht@@ 44
Nachteil 44
Nahrungsmittel 44
Norden 44
Obgleich 44
Operationen 44
PA@@ 44
Pap@@ 44
Rande 44
Regier@@ 44
Register 44
Rentnerpartei 44
Rom 44
Schätzungen 44
Slowakei 44
Sprachen@@ 44
Stufe 44
Städten 44
Südens 44
Unterlagen 44
Vert@@ 44
Vielmehr 44
Volksabstimmung 44
Zentrum 44
auss@@ 44
bahn@@ 44
besucht 44
bevorstehende 44
bs 44
ca 44
chs@@ 44
dargestellt 44
dauern 44
diskutierten 44
ds 44
effektiven 44
eigen@@ 44
eingangs 44
einstellen 44
engagieren 44
enten 44
ents 44
erschwert 44
erzeugnissen 44
fe@@ 44
förder@@ 44
geachtet 44
geistigen 44
generellen 44
genügt 44
gesellschaft 44
grün@@ 44
handels 44
handelte 44
hil@@ 44
imstande 44
ir@@ 44
kla@@ 44
legitimen 44
lichere 44
marktes 44
mmen 44
neu@@ 44
niederländischen 44
orientiert 44
rate 44
reale 44
regel@@ 44
samkeit 44
schlechte 44
schlimmer 44
schädlich 44
sicht 44
ssi@@ 44
steuer@@ 44
tende 44
ungssystems 44
unterhalten 44
unterliegt 44
verhandlungen 44
verkaufen 44
versorgung 44
voranzukommen 44
voranzutreiben 44
vorigen 44
vorlegt 44
wagen 44
weltweite 44
wi@@ 44
wie@@ 44
zustimmt 44
Überschwemmungen 44
ändert 44
übrig 44
92 43
Abstimmungs@@ 43
Andere 43
Ansch@@ 43
Anzeichen 43
Aufenthalt 43
Bananen 43
Bestätigung 43
Bulgarien 43
Büros 43
Defizite 43
Demokratien 43
Einzelheiten 43
Erfassung 43
Ernennung 43
Erscheinung 43
Far@@ 43
Ferber 43
Fre@@ 43
Föderation 43
Führer 43
GMO 43
Gedanke 43
Gegner 43
Gespräch 43
Glückwunsch 43
Hinzu 43
Kar@@ 43
Kommissionspräsidenten 43
Kopenhagen 43
Leit@@ 43
Meinungsäußerung 43
Mittel- 43
Modalitäten 43
Mutter@@ 43
Ozon@@ 43
Paris 43
Plenarsitzung 43
Privatsphäre 43
Rahmenbeschluss 43
Rinder@@ 43
Roma 43
Schluß 43
Sitzungs@@ 43
Test@@ 43
Tierschutz 43
Tor@@ 43
Traditionen 43
Umstand 43
Unfall 43
Verbrauchers 43
Verkehrspolitik 43
Vorbeugung 43
Wa@@ 43
Wider@@ 43
Wohlergehen 43
Zusammenhalts 43
Zwangs@@ 43
af@@ 43
aller@@ 43
alt 43
angestrebten 43
anlage 43
anlässlich 43
ante 43
aufgeführt 43
aufweisen 43
bares 43
bel 43
besonderes 43
bewu@@ 43
dende 43
detaillierte 43
dete 43
dramatischen 43
drittens 43
dungs@@ 43
entscheidet 43
ern@@ 43
fehlende 43
fi@@ 43
gelt 43
geltend 43
gelung 43
geordnete 43
geplante 43
geschickt 43
geänderten 43
gratuliere 43
größeres 43
gut@@ 43
herauszu@@ 43
hilft 43
hinzu 43
istischen 43
justiziellen 43
kar@@ 43
käme 43
lebens@@ 43
lern 43
mehr@@ 43
ordnungsgemäße 43
organisation 43
plan 43
raschen 43
schi@@ 43
sei@@ 43
selten 43
sicher@@ 43
sicherer 43
sion@@ 43
ständiger 43
tau@@ 43
umfassender 43
unabdingbar 43
unmittelbare 43
verantwortungs@@ 43
vereinbaren 43
verwaltung 43
wahr 43
weises 43
weiten 43
wor@@ 43
wu@@ 43
zitiere 43
zus@@ 43
zusammengearbeitet 43
ökologische 43
57 42
Akt 42
Armen 42
Bearbeitung 42
Bewerberländern 42
Bewusstsein 42
Budget 42
Bus@@ 42
Bösch 42
Denken 42
Diskussions@@ 42
Dossier 42
EC@@ 42
Ersuchen 42
Fest@@ 42
Fischereisektor 42
Fundamentalismus 42
GALILEO 42
Gebietskörperschaften 42
Gemeinschaftspatent 42
Gemeinschaftspolitiken 42
Georgien 42
Gleichheit 42
Haft@@ 42
Haug 42
Information@@ 42
Inter@@ 42
Jedes 42
Kontinents 42
Listen 42
Lär@@ 42
Meinungs@@ 42
Menschenleben 42
Menschenrechtskonvention 42
Michel 42
Motor@@ 42
Nachteile 42
Nahrungsmittelhilfe 42
Nutz@@ 42
Osteuropa 42
Petitionen 42
Phänomen 42
Plenarsaal 42
Politik@@ 42
Resolutionen 42
Rußland 42
Schiff 42
Schulden 42
Schutzmaßnahmen 42
Schwein@@ 42
Sobald 42
Sollten 42
Sta@@ 42
Sub@@ 42
Vermittlungsausschuss 42
Vieh@@ 42
Vit@@ 42
Zigaretten@@ 42
Zweiten 42
allmählich 42
andernfalls 42
anerkannten 42
ang@@ 42
angelegt 42
ant 42
anzugehen 42
art 42
aufgetreten 42
aufzufordern 42
auseinander@@ 42
auseinandersetzen 42
bedeutsam 42
befürchte 42
behandelten 42
bereit@@ 42
berichtet 42
beschleunigt 42
beschrieben 42
beziehe 42
bisschen 42
chinesischen 42
deutlichen 42
digitalen 42
ehrgeizigen 42
eindringlich 42
empfangen 42
ener 42
entscheidungen 42
entsenden 42
enzen 42
ersch@@ 42
erzielte 42
fra@@ 42
fte 42
gehenden 42
gemessen 42
getötet 42
gründet 42
halbe 42
herbeizuführen 42
hinnehmbar 42
igen 42
interessieren 42
kra@@ 42
ku@@ 42
les 42
lichsten 42
machte 42
mangelnde 42
mil@@ 42
min@@ 42
mitzu@@ 42
modell 42
mon@@ 42
oren 42
po@@ 42
rischen 42
ruft 42
sab@@ 42
schie@@ 42
solle 42
spekte 42
speku@@ 42
sport@@ 42
ssystem 42
vergleichbar 42
vernachlässigt 42
zone 42
zufriedenstellend 42
zunichte 42
äußert 42
0@@ 41
1989 41
85 41
96 41
Aufsicht 41
Auftreten 41
Auslieferung 41
Autorität 41
Beschlusses 41
Cox 41
David 41
Dokuments 41
Du 41
Einhalt 41
Enttäuschung 41
Erwähnung 41
Folter 41
G8 41
Hei@@ 41
Ju@@ 41
Kapazität 41
Kompromisse 41
Korea 41
Kur@@ 41
Länder@@ 41
Milch 41
Nord 41
Pla@@ 41
Plath 41
Pressefreiheit 41
Randzio 41
Rats 41
Reise 41
Revolution 41
Risikokapital 41
Signale 41
Sozialdemokraten 41
Stabilitätspakts 41
Standpunktes 41
Telekommunikation@@ 41
Umgebung 41
Vernichtung 41
Wachsamkeit 41
Wegen 41
Wiederauf@@ 41
Wohn@@ 41
Zulassung 41
Zusagen 41
Zusatzstoffe 41
abgesch@@ 41
anderswo 41
anstehenden 41
au 41
aufgeworfen 41
ausreicht 41
bar@@ 41
bedeutsame 41
bekommt 41
bewegungen 41
bürokratischen 41
digen 41
druck 41
einfließen 41
entschuldigen 41
ermutigen 41
erstaunt 41
fen@@ 41
festgehalten 41
form 41
fort@@ 41
geboren 41
gehöre 41
gelernt 41
gesundheitlichen 41
ing 41
jetzige 41
ken@@ 41
kti@@ 41
lan 41
liegende 41
ließen 41
medizinischen 41
methode 41
missbraucht 41
momentan 41
mor@@ 41
moralische 41
oll@@ 41
one 41
orten 41
para@@ 41
pp@@ 41
reine 41
rufe 41
schen@@ 41
sicht@@ 41
smus 41
standes 41
stands 41
stattfand 41
stattfindenden 41
tausend 41
trag 41
treiben 41
ungsindustrie 41
unterscheidet 41
verbreitet 41
vernommen 41
verteidigt 41
vonnöten 41
vorbei 41
welch 41
wirksames 41
zufrieden@@ 41
ßten 41
é 41
überflüssig 41
02 40
150 40
22. 40
54 40
Anbau 40
Angabe 40
Anstatt 40
Ausdehnung 40
Aussicht 40
Bei@@ 40
Botschaften 40
Cor@@ 40
Danach 40
Daseinsvorsorge 40
Datum 40
De 40
Dell 40
Dienstes 40
Dritt@@ 40
Drittländer 40
Einvernehmen 40
El 40
Entsendung 40
Erzeugnissen 40
Ga@@ 40
Gegebenheiten 40
Geräte 40
Hauptziel 40
Hin@@ 40
Hu@@ 40
Instanzen 40
International 40
Kernenergie 40
Lamfalussy 40
Leuten 40
Lucas 40
Ludford 40
Macau 40
Maßstab 40
Or@@ 40
Pakets 40
Rechtsausschuss 40
Rückstand 40
Schienen@@ 40
Schwächen 40
Spiele 40
Stadt@@ 40
Stahl@@ 40
Städte 40
Tat@@ 40
Tourismus 40
Umweltbereich 40
Vollendung 40
Weltwirtschaft 40
Wettbewerb@@ 40
Zivilbevölkerung 40
Zwecken 40
abgebaut 40
ah@@ 40
alternative 40
altung 40
anforderungen 40
arbeits@@ 40
aren 40
aufgaben 40
aufhören 40
aufrichtig 40
ausgedehnt 40
ausgezeichnet 40
bedauerlicherweise 40
befugt 40
begrenzen 40
begrenzten 40
berufen 40
bestrebt 40
beträchtlich 40
bilaterale 40
chter@@ 40
debatte 40
dien@@ 40
diesmal 40
dreißig 40
drin@@ 40
einschlägigen 40
enswert 40
erischen 40
ernsthaften 40
erzeugnisse 40
est@@ 40
festgeschrieben 40
fin@@ 40
finanzierung 40
for@@ 40
fünf@@ 40
gefaßt 40
geräte 40
geschenkt 40
gesetzten 40
get@@ 40
gezahlt 40
gravierende 40
hielt 40
hindern 40
ien 40
intensiven 40
istische 40
kleinere 40
korrigiert 40
kräften 40
lassung 40
leistungen 40
län@@ 40
massiv 40
nen@@ 40
no@@ 40
nungen 40
nungs@@ 40
nü@@ 40
offizielle 40
ordnungen 40
plant 40
quelle 40
raten 40
re 40
riebene 40
seh@@ 40
sodass 40
ste@@ 40
stoff@@ 40
ströme 40
territorialen 40
ters 40
tief 40
tierten 40
umweltpolitischen 40
untereinander 40
verbände 40
verdeutlichen 40
verlaufen 40
verschlossenen 40
verschwinden 40
verzögern 40
weitergehen 40
wert@@ 40
widerspricht 40
zen@@ 40
zustellen 40
zuteil 40
ältere 40
17. 39
25. 39
Abfall 39
Akteuren 39
Ansätze 39
Außenbeziehungen 39
Belastungen 39
Bewerberländer 39
Bord 39
Charakters 39
Demonstranten 39
ECOFIN 39
Exekutiv@@ 39
Fort@@ 39
Gas@@ 39
Gemeinschaftshaushalt 39
Gesellschafts@@ 39
Gewi@@ 39
Gibt 39
Gleichgewichts 39
Hatzidakis 39
Haup@@ 39
Herzegowina 39
Hilfs@@ 39
Infrastruktur@@ 39
Kindes 39
Klausel 39
Koalition 39
Kommissars 39
Konsolidierung 39
Konvergenz 39
Laut 39
Lomé 39
London 39
Monats 39
Netz@@ 39
Not 39
Offensichtlich 39
Pro 39
Präzedenzfall 39
Rechnungshofes 39
Schulden@@ 39
Schwarzarbeit 39
Sichtweise 39
Sozialistischen 39
Streitigkeiten 39
Taiwan 39
Theato 39
Themen@@ 39
Truppen 39
Umweltschutz@@ 39
Unionsbürgerschaft 39
Verehrte 39
Verlaufe 39
Wahlkreis 39
Wann 39
Wer@@ 39
abgedeckt 39
abkommen 39
absch@@ 39
abwarten 39
abzuschaffen 39
ad 39
administrative 39
aufrechtzuerhalten 39
belegen 39
belegt 39
beruhigen 39
chts 39
demnach 39
demokratisches 39
dro@@ 39
dungen 39
ed@@ 39
eingreifen 39
ensystem 39
erhielt 39
extrem 39
faktor 39
fügen 39
gestoßen 39
gkeit@@ 39
halt 39
heben 39
heiklen 39
hinaus@@ 39
ischer 39
je@@ 39
jederzeit 39
kostet 39
lauten 39
laß 39
mann 39
mehrerer 39
mehrheitlich 39
mehrmals 39
mer@@ 39
miss@@ 39
mittel- 39
nutzt 39
pa@@ 39
pre@@ 39
qualifizierten 39
quoten 39
reformieren 39
religiösen 39
richtlinien 39
riesige 39
rin@@ 39
schaden 39
schauen 39
schreibt 39
sozial 39
sprogramme 39
staat 39
star@@ 39
tag@@ 39
unfälle 39
verdanken 39
vo@@ 39
vorgegangen 39
vorschlägen 39
wachen 39
zahlungen 39
zeitlich 39
zutreffend 39
Übereinkunft 39
überwunden 39
ül@@ 39
1.@@ 38
Adresse 38
Am@@ 38
Anregungen 38
Aufteilung 38
Bahn 38
Behinderten 38
Berufung 38
Besetzung 38
Betrieben 38
Brief 38
Dezentralisierung 38
Energieeffizienz 38
Engagements 38
Erbe 38
Etappe 38
Europa@@ 38
Fi@@ 38
Fl@@ 38
Fontaine 38
Fu@@ 38
Fundament 38
Gel@@ 38
Gelegenheiten 38
Ger@@ 38
Gesundheit@@ 38
Grau@@ 38
Güter@@ 38
Haarder 38
Hilfsmaßnahmen 38
Internet@@ 38
Investitions@@ 38
Karas 38
Klarstellung 38
Kompetenz@@ 38
Kompromisses 38
Kurz 38
Luftverschmutzung 38
MKS 38
Mail 38
Mandats 38
McKenna 38
Ne@@ 38
OS@@ 38
Ost@@ 38
Pass@@ 38
Plänen 38
Poos 38
Preisstabilität 38
Rechenschaft 38
Ruf 38
Sab@@ 38
Schlacht@@ 38
Schlüssel 38
Sowjetunion 38
Strukturfond@@ 38
Teils 38
Transit@@ 38
Umwelta@@ 38
V 38
Verarbeitung 38
Verdienst 38
Verfügbarkeit 38
Verhofstadt 38
Vertriebenen 38
Wales 38
Wi@@ 38
Y@@ 38
anfangen 38
aufgebaut 38
ausführte 38
auszudehnen 38
außerordentlichen 38
bedacht 38
befaßt 38
befugnisse 38
begrüßenswert 38
bekundet 38
bestrafen 38
bisherige 38
blockiert 38
daten 38
debattiert 38
dlicher 38
dringen 38
effektiver 38
einheitlich 38
einigung 38
einziger 38
englischen 38
ent 38
ermittelt 38
erst@@ 38
esi@@ 38
ette 38
faire 38
fassung 38
faßt 38
festgelegte 38
flu@@ 38
gangen 38
gedrängt 38
geleisteten 38
genauen 38
generelle 38
glaubwürdig 38
gravierenden 38
grundlage 38
harmonisieren 38
heitlichen 38
hervorragend 38
hinzu@@ 38
hne 38
hofft 38
höchster 38
ierten 38
istisch 38
korrekte 38
lege 38
luß@@ 38
maßnahme 38
menge 38
militärischer 38
nachgewiesen 38
natürliche 38
netzen 38
nisse 38
normal 38
orientieren 38
politischem 38
ra 38
satzes 38
spiegelt 38
stabile 38
steigern 38
stri@@ 38
systematische 38
teuer 38
tiefe 38
tisch 38
transparenter 38
trat 38
ungsin@@ 38
unten 38
untergraben 38
uß@@ 38
verbindlichen 38
vermag 38
vermutlich 38
versichert 38
veränderten 38
vollziehen 38
vorantreiben 38
vorbehalten 38
vorgeschrieben 38
wechsel 38
wehren 38
weite 38
wendet 38
wirkung 38
wo@@ 38
wär@@ 38
zeichnen 38
zeitraum 38
zt 38
zunimmt 38
zurückziehen 38
zusetzen 38
ökonomische 38
ür@@ 38
Allein 37
Analysen 37
Anpassungen 37
Assistenten 37
Aufwand 37
Ausbreitung 37
Autonomie 37
Bedauerlicherweise 37
CNS 37
Chaos 37
Damals 37
Diktatur 37
Durban 37
Durchführungs@@ 37
Entschließungsantrags 37
Erdöl 37
Erfordernis 37
Eurodac 37
Flughafen 37
Gestern 37
Grenzregionen 37
HIV 37
Haushaltsplans 37
Hier@@ 37
Hierbei 37
Jedenfalls 37
Krisenbewältigung 37
Küsten 37
LIFE 37
Luftverkehrs 37
Medien@@ 37
Naturkatastrophen 37
Nigeria 37
Nordirland 37
Option 37
Palästinensischen 37
Persönlichkeiten 37
Po@@ 37
Prei@@ 37
Quellen 37
Rechtsordnung 37
Recycling 37
Registrierung 37
Richtlinien@@ 37
SIS 37
Spielregeln 37
Sti@@ 37
Streitkräfte 37
Telefon@@ 37
To@@ 37
UEN 37
Umweltz@@ 37
Verantwortlichkeiten 37
Versicher@@ 37
Verweis 37
Völkerrecht 37
West@@ 37
Wirk@@ 37
Zeitalter 37
Zivilisation 37
Zucker@@ 37
angestrebte 37
annehmbar 37
ativen 37
aufeinander 37
auff@@ 37
ausgelegt 37
ausgewogenes 37
aussch@@ 37
auszuarbeiten 37
ba@@ 37
befugnis 37
begeben 37
begehen 37
besseres 37
decken 37
dert 37
deutet 37
dieren 37
dorthin 37
ehren@@ 37
einheitliches 37
einzutreten 37
erfassen 37
et 37
etten 37
fair 37
freiwillig 37
füllen 37
gebührt 37
gegen@@ 37
gehalt 37
gekürzt 37
geleitet 37
geographischen 37
gesenkt 37
gesetz 37
glichkeit 37
ho@@ 37
integrieren 37
interessanten 37
irgendeine 37
jugoslawischen 37
kompetenz 37
kurzer 37
lag@@ 37
landwirtschaftliche 37
len@@ 37
lige 37
linien 37
lös@@ 37
mußten 37
mäßigen 37
nachzukommen 37
nein 37
ori 37
praktiziert 37
produziert 37
quellen 37
raums 37
reise 37
richt@@ 37
sinnvoller 37
statistische 37
tief@@ 37
tigkeit 37
transparente 37
tt 37
täten 37
umfaßt 37
umgekehrt 37
unmissverständlich 37
unverständlich 37
verein@@ 37
verliehen 37
vorhandene 37
wal@@ 37
worum 37
zahlreicher 37
zivile 37
zurückgezogen 37
übertrieben 37
AR@@ 36
Auseinandersetzungen 36
Bau 36
Begriffs 36
Behauptung 36
Bel@@ 36
Beruf@@ 36
Beschluß@@ 36
Busquin 36
Dagegen 36
Dar@@ 36
ETA 36
Einsicht 36
Energieträger 36
Entlassungen 36
Entwurfs 36
Erweiterungsprozess 36
Formulierungen 36
Freilassung 36
Freisetzung 36
Fülle 36
Gefährdung 36
Gott 36
Haag 36
Hektar 36
Indonesien 36
Innerhalb 36
Irlands 36
Kanada 36
Kernkraft@@ 36
Kongo 36
Konsumenten 36
Les@@ 36
Lu@@ 36
Mails 36
Mc@@ 36
Meinungsfreiheit 36
Migration 36
Mutter 36
Ni@@ 36
Olivenöl 36
P 36
PT 36
Patentamt 36
Personals 36
Prognosen 36
Protest 36
Quelle 36
Rahmenvereinbarung 36
Rasse 36
Raum@@ 36
Realisierung 36
Rechtfertigung 36
Rechtsausschusses 36
Rest 36
Romano 36
Schritten 36
Sri 36
Stoffen 36
Strafe 36
Strafgerichtshof 36
Strafrecht 36
Streit@@ 36
Summen 36
Traum 36
Umweltausschuss 36
Unglück 36
Unzulänglichkeiten 36
Verhältnisse 36
Verstöße 36
Veterinär@@ 36
Volkswirtschaften 36
Vorsicht 36
Wahrnehmung 36
Weltmarkt 36
Wochenende 36
Zugleich 36
ach@@ 36
ansch@@ 36
anwesenden 36
aufbringen 36
auferlegt 36
aufzuheben 36
ausreichenden 36
begünstigt 36
bene 36
bereitgestellten 36
bestände 36
co 36
di 36
dortigen 36
du@@ 36
empfiehlt 36
ends 36
ente 36
entwurfs 36
erfreulich 36
erkennbar 36
ermordet 36
fall@@ 36
fizierung 36
fun@@ 36
gan@@ 36
gar@@ 36
gebrachten 36
geln 36
gemein@@ 36
geres 36
gerät 36
gesorgt 36
gesp@@ 36
gewinnt 36
gültig 36
handel@@ 36
hol@@ 36
ie@@ 36
ki@@ 36
kohärente 36
konsequente 36
kop@@ 36
krise 36
kurzfristigen 36
laden 36
leitung 36
licht 36
liefert 36
ließe 36
mache 36
mitglieder 36
mt 36
niveaus 36
nte 36
ons 36
parallel 36
rates 36
rie 36
räume 36
schlimmsten 36
ses 36
sitzung 36
solidarisch 36
stand@@ 36
strukturelle 36
ständigkeit 36
su@@ 36
taten 36
tlich 36
ungsphase 36
ur 36
v 36
verdeutlicht 36
vereinbarungen 36
verkauft 36
verknüpft 36
verzichtet 36
vierte 36
vorausgesetzt 36
vornherein 36
vorrangige 36
wahrzunehmen 36
warnen 36
weichen 36
weisung 36
wesens 36
wirtschaftliches 36
zeichen 36
zeigte 36
zentraler 36
zufällig 36
zumeist 36
zwingend 36
Überlegung 36
ßtsein 36
ón 36
überschreiten 36
52 35
53 35
56 35
61 35
Abfällen 35
Alba 35
Anbieter 35
Anti 35
Asyl- 35
Ausgestaltung 35
Beiträgen 35
Beruf 35
CO2 35
COD 35
Daran 35
Defizit 35
Diamantopoulou 35
Differenzen 35
Einen 35
Embry@@ 35
Erleichterung 35
Flucht 35
Fracht@@ 35
Fraktionsvorsitzenden 35
Frequenz@@ 35
Futtermittel 35
Ganzes 35
Gar@@ 35
Geltung 35
Geschäft 35
Gesetzen 35
Gewinn 35
Handelspolitik 35
Haushaltsp@@ 35
Humanressourcen 35
Inhalts 35
Interventionen 35
Islam 35
Klage 35
Kofinanzierung 35
Komponente 35
Lagendijk 35
Lanka 35
Luftraum 35
MacCormick 35
Mehrere 35
Mehrwertsteuer 35
Merkmale 35
Mittelausstattung 35
N 35
Nacht 35
Napolitano 35
Palästinensern 35
Personenverkehr 35
Pirker 35
Planeten 35
Prozesse 35
Quästoren 35
Reichtum 35
Rücksicht 35
Sein 35
Sen@@ 35
Sozialschutz 35
Spaniens 35
Start 35
Sy@@ 35
Teilnehmer 35
Versöhnung 35
Vizepräsident 35
Warn@@ 35
Westen 35
Wirken 35
Wohl 35
Zeitungen 35
Zusatzfrage 35
absoluten 35
abzubauen 35
ankommt 35
ans 35
beipflichten 35
berei@@ 35
berg 35
berichts 35
betrag 35
bewahrt 35
bild 35
christlichen 35
dienstleistungen 35
dliches 35
einschränken 35
eli@@ 35
erin 35
ermitteln 35
erneuerbare 35
feld 35
finanzi@@ 35
fleisch 35
geliefert 35
gerer 35
geschafft 35
gesundheit@@ 35
geteilt 35
gezielt 35
großartige 35
herausstellen 35
hingenommen 35
humanitärer 35
intensivieren 35
irgendwann 35
kollektiven 35
lehne 35
lte 35
mangel 35
medizinische 35
mitwirken 35
nennt 35
niedrig 35
nis@@ 35
nützliche 35
objektiv 35
objektive 35
or 35
ori@@ 35
osteuropäischen 35
plan@@ 35
preis 35
preis@@ 35
produkten 35
rad 35
rangi@@ 35
regelmäßigen 35
ritt 35
schwachen 35
schwan@@ 35
schädlichen 35
schätze 35
seite 35
sozial@@ 35
stände 35
ta 35
tzt 35
verbleibenden 35
vereinfachen 35
vergeben 35
verhaftet 35
verläuft 35
verschließen 35
verschärfen 35
versprochen 35
verweigern 35
volles 35
vorab 35
vorangekommen 35
zurückkehren 35
zweifel@@ 35
+ 34
1991 34
Abänderungsanträge 34
Akte 34
Anders 34
Armutsbekämpfung 34
Bes@@ 34
Besch@@ 34
Bürgerbeauftragte 34
Bürgers 34
Ch@@ 34
Chinas 34
Detail@@ 34
Dienstleistung 34
Dupuis 34
Einfuhr 34
Einfuhren 34
Eingang 34
England 34
Erst@@ 34
Erteilung 34
Flamm@@ 34
Fluggäste 34
Folge@@ 34
GFP 34
Gefängnis 34
Geiste 34
Ges@@ 34
Gesetzes 34
Gesundheitsschutz 34
Go@@ 34
Guinea 34
Hel@@ 34
Hemmnisse 34
Hochgeschwindigkeits@@ 34
IV 34
Immigranten 34
Initiativbericht 34
Jahresende 34
Klima@@ 34
Kontinuität 34
Kooperations@@ 34
Kraftfahrer 34
Kürzungen 34
Lan@@ 34
Leistungs@@ 34
Lösungs@@ 34
Lücken 34
Maij 34
Malaria 34
Mehrwert 34
Miss@@ 34
Nahrungskette 34
Neue 34
Operation 34
Peijs 34
Potenzial 34
Problem@@ 34
Ra@@ 34
Rau@@ 34
Rent@@ 34
Rentensysteme 34
Rüst@@ 34
Schließung 34
Schwierigkeit 34
Sie@@ 34
Sierra 34
Solbes 34
Stabilisierungs- 34
Tra@@ 34
Tragen 34
Velzen 34
Verdacht 34
Verk@@ 34
Verkehrs 34
Versorgungs@@ 34
Verstoß 34
Weggen 34
Weißbuchs 34
Whitehead 34
Zivilisten 34
Zufall 34
absurd 34
allgemeiner 34
amm@@ 34
angemerkt 34
angeschlossen 34
ansetzen 34
ant@@ 34
anzusehen 34
arbeitnehmer 34
ausfallen 34
ausgedrückt 34
ban@@ 34
beabsichtigen 34
bedeutsamen 34
bedingt 34
benden 34
berechtigte 34
bereitschaft 34
c@@ 34
deckung 34
denkbar 34
digung 34
dringende 34
dringliche 34
eingesch@@ 34
eins 34
elf 34
erzeuger 34
forderte 34
form@@ 34
freier 34
frühere 34
ft@@ 34
funktion@@ 34
föder@@ 34
gang 34
ganzem 34
gebührend 34
gedauert 34
gemeint 34
gerichtete 34
gerückt 34
gespräche 34
gestaltung 34
getrieben 34
gew@@ 34
grad 34
günstigen 34
halts 34
hiermit 34
hinzugefügt 34
illegaler 34
indes 34
innovativen 34
irgendwelche 34
jahr 34
kis 34
koh@@ 34
kommission 34
konzept 34
koordini@@ 34
liberale 34
liert 34
ligen 34
lächerlich 34
lüsse 34
miert 34
märkten 34
neuesten 34
nuklearen 34
pe@@ 34
person@@ 34
plötzlich 34
ration@@ 34
retten 34
rie@@ 34
sammeln 34
schein@@ 34
schlicht 34
schreiten 34
sektor@@ 34
sel 34
sele@@ 34
staat@@ 34
stecken 34
stätigkeit 34
sätzen 34
teste 34
tierung 34
tigten 34
tliche 34
tä@@ 34
unumgänglich 34
verlängern 34
verwaltet 34
vorkommen 34
vormittag 34
vorrangigen 34
waffen 34
weitesten 34
wertes 34
wertvollen 34
wissenschaftlich 34
wunder@@ 34
wundern 34
zeitlichen 34
zuversichtlich 34
Übermittlung 34
27. 33
58 33
89 33
Abänderungs@@ 33
Afrikas 33
Alter@@ 33
Arbeitnehmer@@ 33
Arzneimittel 33
Augenmerk 33
Bangladesch 33
Befugnissen 33
Deprez 33
Diesem 33
Dritte 33
Einfuhr@@ 33
Einsatzes 33
Entlastungsverfahren 33
Entschließungsentwurf 33
Entstehung 33
Ermittlungen 33
Erscheinungen 33
Europäern 33
Fischern 33
Flu@@ 33
Flugsicherheit 33
Forschungen 33
Funktion@@ 33
Galileo 33
Gesch@@ 33
Gi@@ 33
Goebbels 33
Heimat 33
Hunderte 33
Hungerstrei@@ 33
Hö@@ 33
IT 33
Kapit@@ 33
Konzepte 33
Mobbing 33
Mor@@ 33
Nachricht 33
Nahrungsmitteln 33
National@@ 33
Nichteinhaltung 33
Nit@@ 33
Pensionsfonds 33
Produktivität 33
Regelungs@@ 33
SO@@ 33
Saddam 33
Schmitt 33
Seine 33
Soll 33
Sozialistische 33
Spitzen@@ 33
Statuts 33
Steuerung 33
Stütz@@ 33
TSE 33
Tabakanbau 33
Terroranschläge 33
Troika 33
Tunnel 33
Umwelt- 33
Unabhängig 33
Ungleichheiten 33
Verfahrensweise 33
Verschiebung 33
Visa 33
Vizepräsidenten 33
Vorgehens 33
Wachstum@@ 33
Waren@@ 33
Weiterführung 33
Willens 33
Wirtschaftsraum 33
Wissenschaftlern 33
Wohlstands 33
achtet 33
aktiver 33
analysiert 33
anschau@@ 33
anstellen 33
arabischen 33
ausschließen 33
bedeut@@ 33
begleiten 33
behandlung 33
beimessen 33
bende 33
berat@@ 33
beschränkungen 33
bio@@ 33
blicken 33
branche 33
chtern 33
del 33
demselben 33
derung 33
derungen 33
deten 33
deu@@ 33
digitale 33
dramatisch 33
dänische 33
ehrgeizig 33
eingenommen 33
einhergehen 33
entle@@ 33
erische 33
errichtet 33
friedlich 33
fäl@@ 33
führten 33
gefolgt 33
geführten 33
gers 33
gestiegen 33
gewachsen 33
go@@ 33
grenzwerte 33
großzügig 33
heiten 33
herrschenden 33
händler 33
ige 33
irgendwo 33
kas 33
kern 33
kommerzielle 33
kontinuierlich 33
kriti@@ 33
kund@@ 33
lasten 33
legalen 33
logisch 33
ls 33
längere 33
mittelfristig 33
nachteilig 33
nachweisen 33
net 33
nordischen 33
offener 33
oten 33
polizeiliche 33
präsent 33
realisieren 33
religiöse 33
schaft@@ 33
schwach 33
sier@@ 33
sprozess 33
sprozeß 33
sü@@ 33
tan@@ 33
tat 33
teure 33
tten 33
unsererseits 33
unzureichende 33
vage 33
verständlichen 33
vertiefen 33
vielerlei 33
vorangetrieben 33
vorgebracht 33
wehr@@ 33
wettbewerbsfähig 33
zurückgegangen 33
zweierlei 33
zwingt 33
änderungen 33
österreichische 33
29. 32
7. 32
93 32
Abwesenheit 32
Albanien 32
All@@ 32
Ambitionen 32
Amtszeit 32
Anhänger 32
Ansatzes 32
Anschlag 32
Ansehen 32
Argumenten 32
Artikeln 32
Asylbewerbern 32
Aufnahme@@ 32
Aufträge 32
Ausgaben@@ 32
Ausnahme@@ 32
Beförderungs@@ 32
Beitritt@@ 32
Belästigung 32
Boden@@ 32
Bou@@ 32
Bullmann 32
Corbett 32
DI 32
Deutlichkeit 32
Diox@@ 32
Disziplinar@@ 32
Doping 32
Einwanderungs@@ 32
Elektro- 32
Erwerb 32
Erziehung 32
Europaabgeordneten 32
Fahrzeug@@ 32
Forstwirtschaft 32
Fusionen 32
Galeote 32
Ganze 32
Gerü@@ 32
González 32
Gor@@ 32
Grundrecht 32
Gunsten 32
Haben 32
Haushalte 32
Impuls 32
Intoleranz 32
Kat@@ 32
Klasse 32
Kombination 32
Konkurrenz 32
Kooperation@@ 32
Leone 32
Lob 32
Marktorganisation 32
Meeres@@ 32
Missachtung 32
Oliven@@ 32
Partei@@ 32
Petitionsausschusses 32
Pfund 32
Philosophie 32
Politikern 32
Potential 32
Professor 32
RA@@ 32
Rechtsakt 32
Rechtsetzung 32
Regel@@ 32
Regulierungsbehörden 32
Roten 32
Roth 32
Schal@@ 32
Schnell@@ 32
Sicher 32
Sklaverei 32
Sportler 32
Staatsanwalt 32
Stimm@@ 32
Straftat 32
Strukturreformen 32
Tan@@ 32
Tode 32
Umweltaktionsprogramm 32
Umweltverschmutzung 32
Unfällen 32
Unseres 32
Unternehmen@@ 32
Verbände 32
Verfechter 32
Vertraulichkeit 32
Verwaltungsausgaben 32
Vietnam 32
Voll@@ 32
Vorgänge 32
Vorkehrungen 32
Vorschrift 32
Vorsorgeprinzips 32
Werbe@@ 32
Wirtschaftspolitiken 32
Wissenschaftlichen 32
Zahlung 32
Zugangs@@ 32
angesetzt 32
annimmt 32
bal@@ 32
bedenklich 32
belaufen 32
bereitung 32
bloße 32
breiter 32
chtet 32
dauerhaft 32
deutliches 32
differen@@ 32
dringlich 32
eg@@ 32
einschließt 32
elung 32
ena 32
end@@ 32
erheblicher 32
erschweren 32
erschüttert 32
essen 32
eti@@ 32
exakt 32
fasst 32
frühen 32
funktionierenden 32
führer 32
gebaut 32
gedenken 32
gefahr 32
gener@@ 32
genügen 32
geschlagen 32
gesetzliche 32
gewalt 32
gewünschten 32
glücklicherweise 32
grundlegendes 32
gänzlich 32
harte 32
herum@@ 32
hi@@ 32
hierher 32
höherer 32
ier 32
integrierte 32
interinstitutionelle 32
jenem 32
kapazität 32
kontroll@@ 32
legal 32
lusses 32
länder@@ 32
mess@@ 32
mischen 32
mittelindustrie 32
mme 32
nachmittag 32
nachzu@@ 32
ors 32
pflanz@@ 32
programmen 32
quasi 32
rechtfertigt 32
rechtmäßig 32
rede 32
ren 32
ris@@ 32
scheinbar 32
schriftliche 32
schw@@ 32
sinken 32
sinnvolle 32
ssystems 32
stren@@ 32
ständen 32
sätze 32
trag@@ 32
trennen 32
trä@@ 32
umhin 32
ungerecht 32
unterzeichnen 32
unverzichtbar 32
vereinfacht 32
vermögen 32
versetzt 32
verteilen 32
voranbringen 32
vorenthalten 32
vorschlags 32
vorübergehenden 32
weitestgehend 32
widersprechen 32
zahlt 32
zei@@ 32
zugehört 32
zulässigen 32
zunehmendem 32
zurückzuziehen 32
zweimal 32
äch@@ 32
überzeu@@ 32
,5 31
01@@ 31
08@@ 31
90er 31
98 31
ASEM 31
Aktiengesellschaft 31
Alters@@ 31
Ansprüche 31
Antisemitismus 31
Ausfuhrerstattungen 31
Auskunft 31
Ausschreibungen 31
Befürchtung 31
Behrendt 31
Bewegungen 31
Bundesrepublik 31
Caudron 31
Chirac 31
Computer 31
DA 31
Danke 31
Datenschutz 31
Denk@@ 31
Diplomatie 31
Dublin 31
Einverständnis 31
Elend 31
Entfernung 31
Entscheidungsfindung 31
Entwicklungsfonds 31
Ergänz@@ 31
Erläuterungen 31
Erreichen 31
Etikett 31
Europe 31
Feuer@@ 31
Fiori 31
Frankreichs 31
Genuss 31
Gesam@@ 31
Geschwindigkeit 31
Gestalt 31
Getreide 31
Gewissen 31
Hal@@ 31
Handelsabkommen 31
Heimat@@ 31
Händler 31
Immer 31
Imp@@ 31
Initiativ@@ 31
Intensivierung 31
Jacques 31
Jede 31
Kein 31
Kongress 31
Konzepts 31
Koordination 31
Könnten 31
Kü@@ 31
Küst@@ 31
Leiden 31
Lichte 31
Luftverkehrs@@ 31
Mehrheits@@ 31
Menschenrechtssituation 31
Modelle 31
Motto 31
Name 31
Nepal 31
Ney@@ 31
Norwegen 31
Nährboden 31
Ol@@ 31
Olympischen 31
Oomen 31
Orientierungen 31
Paritätischen 31
Passagiere 31
Pfeilers 31
Pi@@ 31
Pluralismus 31
Prinzips 31
Produ@@ 31
Regelwerk 31
Regulierungs@@ 31
Rückführung 31
Savary 31
Schlag 31
Schuldener@@ 31
Selb@@ 31
Sicherstellung 31
Sitz@@ 31
Spi@@ 31
Streitbei@@ 31
Super@@ 31
Te@@ 31
Tierk@@ 31
Toulouse 31
Transporte 31
Trend 31
Umgestaltung 31
Ungarn 31
Union@@ 31
Unterscheidung 31
Verantwortlichkeit 31
Verantwortungs@@ 31
Verbrechens 31
Verkehrssicherheit 31
Verlagerung 31
Vertragsverletzungsverfahren 31
Vorfall 31
Vorrednern 31
Völkermord 31
WHO 31
Weiterbildung 31
Werk 31
Zurückhaltung 31
Zwischen 31
abfälle 31
abgelaufen 31
abgereichertem 31
administrativen 31
akzeptiere 31
allgemein@@ 31
angeregt 31
anischen 31
anzustreben 31
ard 31
ativer 31
beauftragt 31
beizu@@ 31
belassen 31
beschließt 31
besetzt 31
besprochen 31
bestünde 31
bewirtschaftung 31
billiger 31
chemischen 31
dig 31
digungen 31
direkter 31
dramatische 31
eingestuft 31
einräumt 31
eintritt 31
einzelner 31
entes 31
entfallen 31
ergriffenen 31
err@@ 31
fahrer 31
fanden 31
flü@@ 31
for 31
fü@@ 31
gang@@ 31
gebrachte 31
geforderte 31
gefäl@@ 31
geheim@@ 31
gehörigen 31
gele@@ 31
gestellte 31
gesundheits@@ 31
gipfel 31
glei@@ 31
glicher 31
gn@@ 31
gr@@ 31
groß@@ 31
größerem 31
herangezogen 31
hielten 31
hren 31
inhaftiert 31
inhaltliche 31
intermod@@ 31
jahrelang 31
junger 31
kette 31
komplex 31
komplexen 31
konstitutionellen 31
konzer@@ 31
la 31
laub 31
leitenden 31
linie 31
merk@@ 31
ministern 31
multi@@ 31
netzes 31
partei@@ 31
politiken 31
polizeilichen 31
prinzipiell 31
qui@@ 31
ritten 31
ron@@ 31
rückt 31
schadet 31
schwe@@ 31
sebene 31
sechsten 31
selben 31
sions@@ 31
sorgt 31
sozioökonomischen 31
spiel@@ 31
spolitische 31
ssitzung 31
steckt 31
stä@@ 31
transparenten 31
tri@@ 31
träge 31
tägliche 31
unabhängiger 31
unnötige 31
unverändert 31
uss 31
verabschiedete 31
verhängen 31
verleiht 31
vernichtet 31
verständliche 31
vorgestellt 31
vorsichtig 31
völlige 31
wahl 31
wahre 31
wahrgenommen 31
weis 31
weitergeführt 31
werks 31
wirkungs@@ 31
woher 31
ze@@ 31
zentren 31
zusätzlicher 31
Überblick 31
Überwachungs@@ 31
ägyptischen 31
übersehen 31
017@@ 30
1,@@ 30
12. 30
1408 30
18. 30
59 30
82 30
Ak@@ 30
Altersver@@ 30
Anträgen 30
Arbeitnehmerinnen 30
Aufschub 30
Ausfuhr 30
Aussetzung 30
Baskenland 30
Behinderung 30
Beitrags 30
Berichterstattung 30
Besitzstandes 30
Bet@@ 30
Betonung 30
Blickwinkel 30
Christen 30
Dover 30
Drogenhandel 30
Durchschnitt 30
Eingreiftruppe 30
Eisenbahnen 30
Erhebung 30
Eröffnung 30
Formel 30
Freunden 30
Gange 30
Geduld 30
Geschehnisse 30
Gesundheits- 30
Grundprinzipien 30
Gruppierungen 30
Güterverkehr 30
Handelspartner 30
Hughes 30
Häftlinge 30
INI 30
Inanspruchnahme 30
Informationssystem 30
Instruments 30
Jerusalem 30
Keine 30
Kirchen 30
Kodex 30
Kollegium 30
Landes@@ 30
Leben@@ 30
Luftfahrt@@ 30
Martínez 30
Mil@@ 30
Mittelmeerpolitik 30
Mol@@ 30
Neues 30
Osterweiterung 30
Pflanzen 30
Phasen 30
Phthalate 30
Putin 30
Rechtshilfe 30
Religions@@ 30
Religionsfreiheit 30
Richtlinienentwurf 30
SA@@ 30
Sachverständigen 30
Schaf@@ 30
Schwäche 30
Seveso 30
Statt 30
Strafrechts 30
Streit 30
Syrien 30
Teilung 30
Tuberkulose 30
Verhandlungsrunde 30
Vertreters 30
Verzehr 30
Vier@@ 30
Vorruhest@@ 30
Vorwurf 30
Wechsel@@ 30
Weder 30
Weisen 30
Wel@@ 30
Wertegemeinschaft 30
Weshalb 30
Wortmeldungen 30
ablehnt 30
ands@@ 30
angeführten 30
angepa@@ 30
angesprochene 30
ann@@ 30
anpassen 30
anregen 30
anträgen 30
anzusprechen 30
atoren 30
aufzustellen 30
ausgebaut 30
ausmacht 30
basieren 30
bekennen 30
belastet 30
bemühungen 30
bes 30
besetzten 30
bten 30
chtes 30
chtigen 30
chtungen 30
dauert 30
demokrati@@ 30
dä@@ 30
einigermaßen 30
einseitige 30
engere 30
enter 30
erfolgten 30
erleiden 30
erreichte 30
eröff@@ 30
eu@@ 30
formell 30
fühlt 30
gaben 30
galt 30
gelegentlich 30
gem@@ 30
gerechnet 30
geringeren 30
geräten 30
ges@@ 30
geschah 30
geschlossenen 30
gänge 30
günsti@@ 30
hegen 30
herausge@@ 30
hervorgerufen 30
hervorrufen 30
häufiger 30
hört 30
hüten 30
ierte 30
justi@@ 30
klu@@ 30
komplizierter 30
kor@@ 30
ktiven 30
kümmert 30
lebensbeg@@ 30
legale 30
letz@@ 30
lieren 30
loser 30
lö@@ 30
meist 30
mitzuteilen 30
mm 30
nachvollziehen 30
national 30
niedrigeren 30
not@@ 30
oberste 30
ol 30
ologie 30
onen@@ 30
pläne 30
produ@@ 30
reich 30
reitet 30
richtung 30
schreckliche 30
schuld 30
sichert 30
sitzungen 30
soziales 30
spezi@@ 30
sprinzip 30
starkes 30
stet 30
straf@@ 30
streiten 30
strenger 30
sur@@ 30
tenden 30
tens 30
tigt 30
tr@@ 30
tätigkeit 30
unterbinden 30
unterlaufen 30
unterzogen 30
ure 30
uren 30
verbänden 30
verpflichtungen 30
versetzen 30
versichere 30
vorbil@@ 30
wertvolle 30
wettbewerbsfähigsten 30
win@@ 30
wohnen 30
Äußerung 30
älter 30
öh@@ 30
überholt 30
10. 29
3,@@ 29
66 29
67 29
Aktionsprogramms 29
Amnesty 29
Andernfalls 29
Arbeitszeit@@ 29
Atmosphäre 29
Ausfuhren 29
Australien 29
Außer@@ 29
Bahn@@ 29
Befürworter 29
Begeisterung 29
Behauptungen 29
Behinderte 29
Beihilfere@@ 29
Beste 29
Bestrafung 29
Betreuung 29
Botschafter 29
Brand@@ 29
Bri@@ 29
Bürgerrechte 29
Computer@@ 29
Darf 29
ES 29
Einf@@ 29
Einwanderern 29
Entlastungs@@ 29
Errungenschaften 29
Erste 29
Erwerbs@@ 29
Erörterung 29
Expor@@ 29
Fachleute 29
Feld 29
Finanzielle 29
Freihandelszone 29
Fünftens 29
Füßen 29
Geldern 29
Generalsekre@@ 29
Gerichtsverfahren 29
Gesetzgebungs@@ 29
Gesundheitswesen 29
Gute 29
Haftungs@@ 29
Halbjahr 29
Han@@ 29
Handelns 29
Haushaltsdisziplin 29
Haushaltslinien 29
Herstellern 29
Heuchelei 29
Hoheitsgebiet 29
Human@@ 29
Häuser 29
IWF 29
Jackson 29
Kommissionsmitglieder 29
Krisenmanagement 29
Köln 29
Lang@@ 29
Lange 29
Legitimation 29
Letztendlich 29
Liberalisier@@ 29
MAP 29
Malmström 29
Menschlichkeit 29
Nah@@ 29
Nation 29
Null@@ 29
OECD 29
Parlamentarischen 29
Partnerschaften 29
Polizisten 29
Positivliste 29
Propaganda 29
Prüf@@ 29
Rahmenprogramms 29
Realitäten 29
Rechtsstaat 29
Region@@ 29
Reich 29
Ruijten 29
Rückzug 29
Schande 29
Schienenverkehr 29
Schüler 29
Seeverkehrs 29
Seitdem 29
Sekretariat 29
Sensibilität 29
Sjöstedt 29
Sozialpartnern 29
Subsidiaritätsprinzips 29
Substanz 29
Th@@ 29
Täter 29
Tätigkeits@@ 29
Umweltausschusses 29
Umweltschäden 29
Unglück@@ 29
Ursprung 29
Verhandlung 29
Verwaltungsrat 29
Vorab@@ 29
Vorfälle 29
Wettbewerbsverzerrungen 29
Widersprüche 29
Wollen 29
Währungen 29
Währungspolitik 29
Zufriedenheit 29
Zug 29
Zweite 29
Zwischenzeit 29
abfällen 29
abhängt 29
anerkennt 29
angesiedelt 29
anische 29
anz 29
ass@@ 29
aufgeworfenen 29
ausbildung 29
ausgeschöpft 29
ausgeweitet 29
ausländischen 29
auszusprechen 29
auszuweiten 29
basis 29
bedingten 29
befindlichen 29
beinahe 29
besuchen 29
betrug 29
big 29
bild@@ 29
billi@@ 29
bruch 29
chern 29
dan@@ 29
dank@@ 29
dener 29
drohen 29
eingehender 29
einheitlicher 29
eini@@ 29
endet 29
enti@@ 29
entwurf 29
erarbeiteten 29
erbar 29
erer 29
erneute 29
erre@@ 29
erweiterte 29
erzeugt 29
fahrt 29
fahrzeuge 29
festlegt 29
festzuhalten 29
finanzierten 29
geantwortet 29
gebotenen 29
gefreut 29
gefähr@@ 29
gefällt 29
gefühl 29
gelegen 29
gemeinschaft 29
gemeinschafts@@ 29
genheit 29
gere@@ 29
gerichtlichen 29
gescheitert 29
gesetzlich 29
glaubt 29
go 29
großartigen 29
grundsätzlichen 29
gtes 29
günstig 29
halben 29
hilfe@@ 29
hinarbeiten 29
hinzuzufügen 29
historischer 29
hm 29
hochrangigen 29
ht 29
intensiver 29
irgendwie 29
jeglichen 29
jemanden 29
jenes 29
jährige 29
klares 29
kommentieren 29
konferenzen 29
konsums 29
lation 29
lauf@@ 29
lebens 29
lemen@@ 29
les@@ 29
lieben 29
lle 29
lung 29
lungs@@ 29
mangelnden 29
massive 29
mati@@ 29
mithin 29
naher 29
niemandem 29
obligatorische 29
orie 29
pflichte 29
privater 29
programms 29
prü@@ 29
realisiert 29
repräsentiert 29
sabkommens 29
sah 29
schlechten 29
schmuggel 29
schottischen 29
schwei@@ 29
schwerlich 29
schwächen 29
sofortige 29
soviel 29
sozialistischen 29
spürbar 29
stellungs@@ 29
sten@@ 29
stro@@ 29
struktur@@ 29
stößt 29
terroristische 29
uneingeschränkten 29
unions@@ 29
unterbrochene 29
unternehmer 29
unterworfen 29
unterzeichneten 29
verbleiben 29
verfolgten 29
verfügbar 29
verglichen 29
verhelfen 29
verletzen 29
verständnis 29
vertreter 29
vierzehn 29
voraus@@ 29
vorkommt 29
weiterentwickelt 29
weiterzu@@ 29
wesentliches 29
willigen 29
wolle 29
ysteme 29
zeigten 29
zurückgehen 29
zusammenarbeit 29
zusammenzu@@ 29
zögern 29
Österreichs 29
Überleben 29
Übersch@@ 29
ße 29
ärz@@ 29
übergeben 29
016@@ 28
64 28
72 28
80er 28
91 28
Albaner 28
Anregung 28
Anwesenden 28
Arm 28
Artenvielfalt 28
Arzneimitteln 28
Assoziierungsabkommens 28
Auswü@@ 28
Beförderung 28
Beilegung 28
Beitrittspartnerschaft 28
Belder 28
Beschwerde 28
Bestehen 28
Betrieb@@ 28
Beunruhigung 28
Binnenmarkt@@ 28
Brüsseler 28
Dem@@ 28
Duisenberg 28
ES@@ 28
EURO@@ 28
Eingliederung 28
Einsparungen 28
El@@ 28
Entscheidungsträger 28
Ernährung 28
Ethik 28
Europ@@ 28
Fehler@@ 28
Fidschi 28
Flugzeugen 28
Frauenhandel 28
Fremden@@ 28
Früchte 28
Futtermittel@@ 28
Fünfzehn 28
GD 28
Gerichten 28
Gewinn@@ 28
Gleichberechtigung 28
Gutachten 28
Gültigkeit 28
Hol@@ 28
Hor@@ 28
Hulten 28
III 28
Informationspolitik 28
Interpretation 28
Investoren 28
K 28
Karamanou 28
Kl@@ 28
Kohle 28
Komplementarität 28
Kompro@@ 28
Lauf@@ 28
Lehne 28
Linke 28
Lissabonner 28
Manche 28
Marktordnung 28
Maxi@@ 28
Meilenstein 28
Minimum 28
Minister@@ 28
Mis@@ 28
Mitteilungen 28
Mittelmeerraums 28
Multi@@ 28
Möglicherweise 28
Netzen 28
Ost 28
Parlamentsp@@ 28
Patienten 28
Pe@@ 28
Plans 28
Rechenschaftspflicht 28
Richt@@ 28
Rinder 28
Rindern 28
Risikobewertung 28
San 28
Schuldigen 28
Sicherlich 28
Slowenien 28
Sozial- 28
Sozialmodell 28
Stauner 28
Symbol 28
Tages@@ 28
Ti@@ 28
Unions@@ 28
Urheber@@ 28
Verbrauchsteuern 28
Vernunft 28
Verspätungen 28
Vorgang 28
Werke 28
Westsahara 28
Wirkungen 28
Wohl@@ 28
Zeitraums 28
Zielvorgaben 28
Zugeständnisse 28
ablaufen 28
acht@@ 28
ak 28
alt@@ 28
alternativen 28
arbeitenden 28
aufgestockt 28
ausführen 28
ausführlichen 28
ausgewiesen 28
auszubauen 28
auszustatten 28
ay@@ 28
bemerk@@ 28
benutz@@ 28
beobachtet 28
berühren 28
beschlossene 28
besonderem 28
bestehender 28
betonte 28
betrü@@ 28
bewe@@ 28
billigt 28
bindung 28
brauche 28
bürokratische 28
ce@@ 28
chi@@ 28
dige 28
doppelten 28
dringenden 28
einheit 28
einigungen 28
einsehen 28
einzugreifen 28
ellem 28
elten 28
enthaltene 28
entnehmen 28
entzieht 28
erneuerbarer 28
erneuten 28
erschöpf@@ 28
erteile 28
erzeu@@ 28
esen 28
etz@@ 28
festgenommen 28
ffen 28
fizi@@ 28
fizierungs@@ 28
flexible 28
flexibler 28
formal 28
fragte 28
gefangen 28
gels 28
gesteckt 28
gewalt@@ 28
geöffnet 28
gischen 28
gkeits@@ 28
griffen 28
handlungen 28
harten 28
hege 28
heit@@ 28
inen 28
itäts@@ 28
justizielle 28
kapazitäten 28
klein 28
kohärenten 28
konsultieren 28
ktions@@ 28
kur@@ 28
kü@@ 28
lauf 28
leichte 28
letztes 28
licheren 28
lierung 28
liger 28
lohnt 28
mierung 28
moralisch 28
niederländische 28
nördlichen 28
optimistisch 28
ordnungsgemäßen 28
orte 28
potenziellen 28
pri@@ 28
prinzip 28
problematik 28
problemen 28
problemlos 28
pun@@ 28
radioaktiven 28
realistische 28
registriert 28
russische 28
rö@@ 28
schere 28
schweigen 28
schädliche 28
seitige 28
senden 28
seu@@ 28
sprogrammen 28
sprogramms 28
sselung 28
stag 28
stands@@ 28
status 28
stärkt 28
svor@@ 28
sä@@ 28
theoretisch 28
tiv 28
tlicher 28
traurige 28
treffend 28
tu@@ 28
tz 28
unfällen 28
unternommenen 28
unterstütz@@ 28
uß 28
ve 28
ver 28
verankerten 28
verbergen 28
verfrüht 28
verheerende 28
verliert 28
vernünftiger 28
versagt 28
verschlechtert 28
versehen 28
verständigen 28
vertrag 28
vertrauens@@ 28
verübt 28
vierten 28
vonseiten 28
voraussetzt 28
vorgezogen 28
vorhergehenden 28
vorwärts 28
vorübergehend 28
we 28
weiterleiten 28
werken 28
wes@@ 28
wä@@ 28
ys 28
ziel 28
zuhören 28
zurückzukommen 28
zusammenfassen 28
zweieinhalb 28
Übergangsfristen 28
015@@ 27
130 27
700 27
76 27
81 27
84 27
87 27
88 27
Abwicklung 27
Aktion@@ 27
Amts@@ 27
Anklage 27
Aufruf 27
Augen@@ 27
Ausstellung 27
Baringdorf 27
Berechnung 27
Bereicherung 27
Besorgnisse 27
Bewahrung 27
Binnen@@ 27
Binnengrenzen 27
Bir@@ 27
Block@@ 27
Dep@@ 27
Des@@ 27
Dimensionen 27
Dis@@ 27
Dra@@ 27
Einheitswährung 27
Einmütigkeit 27
Energieversorgung 27
Entschädigungs@@ 27
Erlauben 27
Ermittlung 27
Erwartung 27
Erzeu@@ 27
Erzeuger@@ 27
Fehlern 27
Ferr@@ 27
Finanzhilfe 27
Finanzrahmen 27
Fortführung 27
Frage@@ 27
Front 27
Fun@@ 27
Fußball 27
Generaldirektionen 27
Generalsekretärs 27
Geschlechter 27
Gesetz@@ 27
Gewalttaten 27
Glücklicherweise 27
Graefe 27
Griff 27
Haider 27
Handels- 27
Haus@@ 27
Haushaltspolitik 27
Hautala 27
Herkunfts@@ 27
Herkunftsland 27
Hussein 27
Impfung 27
Innovationen 27
Instabilität 27
Interinstitutionellen 27
Jahrzehnt 27
Kirche 27
Konvergenz@@ 27
Koordinierungs@@ 27
Krieg@@ 27
Kroatien 27
Kurzum 27
Lie@@ 27
Lkw 27
Luftfahrt 27
Luftfahrtindustrie 27
Luftraums 27
Materie 27
Monterrey 27
Morgan 27
Méndez 27
Nahrungs@@ 27
Nieder@@ 27
Ob@@ 27
Optimismus 27
Organ@@ 27
Posten 27
Profite 27
Purvis 27
Rechtsan@@ 27
Rechtsetz@@ 27
Reformierung 27
Sacharow 27
Sachver@@ 27
Schi@@ 27
Schroedter 27
Schweigen 27
Selbstverständlichkeit 27
Siedlungen 27
Skandal 27
Stahl 27
Steuerpolitik 27
Strom@@ 27
Techni@@ 27
URBAN 27
Umstrukturierungen 27
Vall@@ 27
Verbrauch 27
Verfasserin 27
Vermögen 27
Verständigung 27
Vertrauens@@ 27
Viertel 27
Vorzüge 27
Wettbewerbsbedingungen 27
Zahlreiche 27
Zinsen 27
Zusammensch@@ 27
Zusch@@ 27
Zyperns 27
aktuell 27
albanischen 27
allgemeinem 27
alo@@ 27
angefangen 27
angekündigten 27
angelegten 27
anstrebt 27
ansässigen 27
anteil 27
anwendbar 27
arbeiter 27
atte 27
aufgeben 27
ausdrücken 27
ausführlicher 27
ausspricht 27
außer@@ 27
bedanke 27
bedenkt 27
befreien 27
befürchtet 27
begann 27
beherrschen 27
bemerkte 27
benennen 27
beri@@ 27
bestand@@ 27
beziehungsweise 27
bezogene 27
blieb 27
bür@@ 27
damaligen 27
diskriminiert 27
drastisch 27
ds@@ 27
ehemaliger 27
einheiten 27
einrichten 27
eite 27
emann 27
enswerten 27
entsprechender 27
erbracht 27
ergreift 27
erzeugung 27
feststellte 27
finnischen 27
flank@@ 27
forderung 27
formulierten 27
fährt 27
gab@@ 27
gangs 27
gefassten 27
gei@@ 27
genau@@ 27
genehmigung 27
geordneten 27
geradezu 27
gericht@@ 27
geringere 27
gesetze 27
gewiß 27
gkeiten 27
gleichsam 27
glie@@ 27
griff@@ 27
gründe 27
hinein@@ 27
historisch 27
iger 27
internationales 27
j 27
jeweilige 27
kel@@ 27
komm@@ 27
konzerne 27
lanung 27
last 27
legitim 27
leit@@ 27
liberalisiert 27
lichkeiten 27
lobens@@ 27
läufe 27
lüssen 27
managements 27
mazed@@ 27
menten 27
mitberatenden 27
mäßige 27
niedrigen 27
niedriger 27
nützt 27
operativen 27
ordentlich 27
ordnet 27
orischen 27
paket 27
pflich@@ 27
phi@@ 27
prinzipi@@ 27
protestieren 27
präzisieren 27
reichsten 27
restlichen 27
resultierenden 27
same 27
sau@@ 27
schade 27
schäden 27
seinerseits 27
setze 27
sicherheits@@ 27
sichtigen 27
spi@@ 27
spiel 27
sprache 27
sprobleme 27
stanz 27
stattdessen 27
statut 27
steuerliche 27
stische 27
strikten 27
tierischen 27
traditionelle 27
unklar 27
untersagt 27
unvereinbar 27
ve@@ 27
verbundene 27
verhält 27
veränderte 27
vorbeu@@ 27
vorgebrachten 27
w 27
wachsam 27
wahrhaft 27
wander@@ 27
weicht 27
welt 27
wendung 27
wissensbasierten 27
worin 27
yer 27
ystemen 27
zeitigen 27
zentrali@@ 27
zierte 27
zonen 27
zweites 27
Übel 27
Übergriffe 27
ände 27
ère 27
0,7 26
17.30 26
2020 26
26. 26
800 26
83 26
Amerikanern 26
Ankündigung 26
Anstoß 26
Anwendungs@@ 26
Arbeits- 26
Arbeitsplatz@@ 26
Asbest 26
At@@ 26
Ausmaßes 26
Beamten@@ 26
Beihil@@ 26
Beihilfe@@ 26
Berichtes 26
Betra@@ 26
Betreibern 26
Betrugsfälle 26
Bewertungen 26
Blan@@ 26
Bourlanges 26
Bro@@ 26
Ca@@ 26
Cederschiöld 26
Datenbank 26
Delors 26
Dringlichkeitsdebatte 26
Dänemarks 26
ED 26
EEF 26
EUROPOL 26
Effekt 26
Eigentums 26
Einblick 26
Englisch 26
Entschuldigung 26
Erlass 26
Ernen@@ 26
Erstaunen 26
Europarates 26
Filme 26
Finanzkontrolle 26
Fische 26
Foren 26
Freit@@ 26
Fremd@@ 26
Fuß@@ 26
Fünf@@ 26
GO 26
Gal@@ 26
Gefühle 26
Gegenwart 26
Gemeinschaftsinitiative 26
Geschlechts 26
Gesetzgebungsverfahren 26
Großunternehmen 26
Grüne 26
Haftbefehls 26
Handelsbeziehungen 26
Haushaltsführung 26
Havarie 26
Holz 26
Hunderttausende 26
Hüterin 26
Indem 26
Informationskampagne 26
Initiativrecht 26
Interim@@ 26
Investition@@ 26
Kammer 26
Kauf 26
Kauppi 26
Klein- 26
Kommissionsvorschlags 26
Konkret 26
Kontakt@@ 26
Kriege 26
Leistungsfähigkeit 26
Leiter 26
Lernens 26
Lizenz@@ 26
Lö@@ 26
Löhne 26
Lücke 26
Mauretanien 26
Maß@@ 26
Mel@@ 26
Mich 26
Miguélez 26
Milliarde 26
Ministerkonferenz 26
Miranda 26
Mitbestimmung 26
Mitgliedsstaaten 26
Mittelmeerländern 26
Morillon 26
Mu@@ 26
Nachrichten@@ 26
Nachweis 26
Nally 26
Oostlander 26
Orten 26
Pack 26
Petitionsausschuss 26
Ph@@ 26
Plattform 26
Prämie 26
Rechtsakte 26
Rechtspersönlichkeit 26
Rechtssysteme 26
Renationalisierung 26
Ressource 26
Sachen 26
Sanierung 26
Schmid 26
Schwe@@ 26
Schwelle 26
Serben 26
Sharon 26
Sicher@@ 26
Sicherheitsmaßnahmen 26
Strukturpolitik 26
TACIS 26
TRIPS 26
TS 26
Tari@@ 26
Tarif@@ 26
Tendenzen 26
Termine 26
Tschechischen 26
Vereinheitlichung 26
Verfütterung 26
Verwertung 26
Virus 26
Vis@@ 26
Vom 26
Vorbereitungs@@ 26
Vorsch@@ 26
Wachstumspakt 26
Welthandel 26
Wettbewerbsregeln 26
Wirtschaften 26
Wort@@ 26
Wurtz 26
Wurzeln 26
Zivilluftfahrt 26
ablehn@@ 26
alkohol@@ 26
altet 26
anbetrifft 26
angestellt 26
anscheinend 26
ativ@@ 26
aufzeigen 26
aufzugreifen 26
ausbauen 26
ausgaben 26
ausländische 26
auswirkt 26
auszudrücken 26
aut 26
bedenk@@ 26
begründete 26
begünstigen 26
beigemessen 26
bekannte 26
benannt 26
bens 26
beschäftigungspolitischen 26
bestimm@@ 26
beteiligung 26
betraf 26
bewertung 26
brin@@ 26
bus@@ 26
bürgerlichen 26
chti@@ 26
dal 26
deckt 26
dementsprechend 26
dezentrali@@ 26
discher 26
dokumente 26
doppelt 26
dr@@ 26
drücken 26
durchschnittlich 26
ef@@ 26
ehen 26
eil@@ 26
eindustrie 26
einschlagen 26
einzureichen 26
einzuschränken 26
eklat@@ 26
empfinden 26
endere 26
endsten 26
enthielt 26
entschlossene 26
erfreulicherweise 26
erhielten 26
erstatten 26
erstreckt 26
ess@@ 26
eventuellen 26
explizit 26
fache 26
feststellt 26
fli@@ 26
folge 26
fri@@ 26
fuhr 26
fähigen 26
fällige 26
gedanken 26
gegründet 26
gelder 26
gelte 26
gemeinschaften 26
geraumer 26
getätigt 26
gewässer 26
global 26
gol@@ 26
größtmögliche 26
gutem 26
haltungs@@ 26
harmonisiert 26
haus@@ 26
heim@@ 26
herum 26
hindert 26
hinweg@@ 26
human@@ 26
höchstens 26
individuelle 26
ine 26
intervenieren 26
kenn@@ 26
klug 26
kolumbianischen 26
konform 26
krieg 26
krimin@@ 26
kräftig 26
kultureller 26
laufende 26
lese 26
lität 26
lten 26
läge 26
lässigkeit 26
machten 26
machung 26
makroökonomischen 26
mal@@ 26
mark@@ 26
mut@@ 26
möglicher 26
nahmen 26
nenne 26
notwendiger 26
ns 26
nötigen 26
ose 26
osen 26
pflegen 26
projekte 26
radio@@ 26
rassi@@ 26
realistischen 26
regierung 26
reich@@ 26
res@@ 26
rez 26
ritte 26
ro 26
räsidentin 26
sache 26
schaftliche 26
schaftlichen 26
scheren 26
schil@@ 26
schneiden 26
schöne 26
sel@@ 26
setzten 26
sinn 26
sitzt 26
son@@ 26
sozialem 26
spekt 26
spezifisch 26
sprachliche 26
sprüfung 26
ss 26
steigerungen 26
stellenden 26
stellern 26
strafrechtliche 26
städtischen 26
substanti@@ 26
systematischen 26
tagen 26
terten 26
tischer 26
tragische 26
tteln 26
umfassendere 26
unde 26
undi 26
unerträ@@ 26
ungstätigkeit 26
unterbreiteten 26
unterstellt 26
unverantwortlich 26
verheerenden 26
vers@@ 26
verwehrt 26
veränderter 26
veröffentlichen 26
vollkomm@@ 26
volumen 26
walten 26
wechseln 26
werter 26
wiederherzustellen 26
wissenschaftlicher 26
würdige 26
zur@@ 26
zusammengefasst 26
zuwiderlaufen 26
zwecken 26
zügi@@ 26
Änderungsvorschlag 26
Übrigens 26
ökologisch 26
ön@@ 26
120 25
94 25
Abgabe 25
Arbeitsmarkt@@ 25
Asylverfahren 25
Ato@@ 25
Ausfuhr@@ 25
Ausgang 25
Ausstattung 25
Ausweg 25
Auswertung 25
Beeinträchtigung 25
Befreiung 25
Befugnis 25
Beharrlichkeit 25
Bereichs 25
Berès 25
Bewohner 25
Bezugs@@ 25
Bonn 25
Bühne 25
CA@@ 25
Con@@ 25
Deutschen 25
Di 25
Dossiers 25
Du@@ 25
Einzelpersonen 25
Eisenbahnunternehmen 25
Elektrizitäts@@ 25
Energiemärkte 25
Entscheid@@ 25
Entscheidend 25
Entstehen 25
Erd@@ 25
Erholung 25
Erkenntnis 25
Europawahlen 25
Extremisten 25
Fangmöglichkeiten 25
Festung 25
Film@@ 25
Florenz 25
Flugzeug 25
Forschungsrahmenprogramm 25
Forst@@ 25
Geh@@ 25
Geiseln 25
Gemeinschaftsinstitutionen 25
Gemeinschaftsmethode 25
Genehmigungen 25
General@@ 25
Generalversammlung 25
Geschäfte 25
Gesicht 25
Gewissheit 25
Glückwünsche 25
Grenzkontrollen 25
Grundvoraussetzung 25
Habitat 25
Haf@@ 25
Halbinsel 25
Holz@@ 25
Hunger 25
Italiens 25
Jahr@@ 25
Jungen 25
Ka@@ 25
Kaukasus 25
Ke@@ 25
Kette 25
Kindes@@ 25
Kommunistischen 25
Kompromiss@@ 25
Konkre@@ 25
Lab@@ 25
Legislaturperiode 25
Lehre 25
Management@@ 25
Meeresumwelt 25
Meldung 25
Minderheiten@@ 25
Ministern 25
Misstrauen 25
Mitgliedsland 25
Mobilisierung 25
Monopol@@ 25
Montenegro 25
Mund 25
Muttersprache 25
Nicholson 25
Niederschlag 25
Opt 25
Patente 25
Plenartagung 25
Politikbereichen 25
Posi@@ 25
Projekt@@ 25
Protokolle 25
Präsidentschaftswahlen 25
Quoten@@ 25
Ratstagung 25
Raucher 25
Raumes 25
Rechtsrahmens 25
Referenz@@ 25
Regierung@@ 25
Reisen 25
Richtungen 25
Salafranca 25
Satelliten@@ 25
Sc@@ 25
Schattenberichterstatter 25
Schein@@ 25
Schla@@ 25
Schw@@ 25
Schön@@ 25
Seppänen 25
Sex@@ 25
Spen@@ 25
Spielzeug 25
Staes 25
Statistik 25
Ste@@ 25
Sterckx 25
Stra@@ 25
Syn@@ 25
Test 25
Tit@@ 25
Tschernobyl 25
Täti@@ 25
Umlauf 25
Umweltverträglichkeit@@ 25
Ur@@ 25
Urheberrecht 25
Verhaftung 25
Verkehrsmittel 25
Verordnungsvorschlag 25
Verursacherprinzip 25
Vigo 25
Vorbehalt 25
Wahlkampf 25
War@@ 25
Ware 25
Wert@@ 25
West 25
Wiederverwendung 25
Wissensgesellschaft 25
Zeugen 25
Zuerst 25
Zuflucht 25
Zurück@@ 25
Zuständigkeitsbereich 25
abschließende 25
alitäts@@ 25
andauernden 25
anhaltende 25
anzuregen 25
aufgedeckt 25
aufgewendet 25
aufrecht 25
aufrufen 25
auftritt 25
aussieht 25
austausch 25
automatischen 25
behält 25
beiträge 25
bekun@@ 25
bern 25
berufliche 25
beschei@@ 25
besorgniserregend 25
besserer 25
betroffene 25
billige 25
blo@@ 25
cks 25
co@@ 25
dankt 25
dau@@ 25
dens 25
ders 25
dienlich 25
din@@ 25
dritter 25
durchgeführte 25
durchzu@@ 25
ehren 25
eigner 25
einberufen 25
eingehende 25
einschließen 25
elli 25
entsorgt 25
entstehenden 25
entzogen 25
ergebenden 25
erhebt 25
exportieren 25
fazilität 25
fern@@ 25
fikation 25
finnische 25
fizierten 25
formulierte 25
fortfahren 25
fre@@ 25
fühle 25
ganzes 25
gebende 25
gegenüber@@ 25
gekämpft 25
gericht 25
geschä@@ 25
gesucht 25
getroffene 25
gie 25
güter 25
handels@@ 25
hinausgeht 25
ho 25
homo@@ 25
horizontalen 25
ig 25
ik 25
ik@@ 25
immense 25
impor@@ 25
inhaltlichen 25
inn@@ 25
interpretiert 25
isoliert 25
ist@@ 25
its 25
jeher 25
kohärent 25
komplexe 25
kompliziertes 25
konkurrieren 25
korre@@ 25
kosten@@ 25
kran@@ 25
kre@@ 25
kreisen 25
kräfte 25
ktiv 25
leugnen 25
lichste 25
loben 25
marokkanischen 25
matik 25
maximal 25
maximale 25
mission 25
niemanden 25
normale 25
notwendigerweise 25
obligatorisch 25
ore@@ 25
physischen 25
präsentiert 25
präzisiert 25
rats 25
resultiert 25
schichten 25
schlimm 25
schützt 25
setzte 25
sie@@ 25
sien 25
sparen 25
staates 25
statistischen 25
stei@@ 25
stieg 25
sto@@ 25
stünde 25
teils 25
teilten 25
teressen 25
tetes 25
tigsten 25
tiven 25
tourismus 25
tter 25
ungs 25
ungsa@@ 25
ungspflicht 25
ungspro@@ 25
ungsprobleme 25
unterrichten 25
unterschieden 25
unterstützten 25
unum@@ 25
ute 25
veranla@@ 25
verbesserte 25
verfasst 25
verfü@@ 25
versorgen 25
vertretern 25
vielfältigen 25
voraussichtlich 25
vorbringen 25
wan@@ 25
wasser 25
weis@@ 25
zollen 25
zuerkannt 25
zugang 25
zusamment@@ 25
zustimme 25
ßer 25
überla@@ 25
ün@@ 25
014@@ 24
12.@@ 24
600 24
68 24
77 24
78 24
Abänderung 24
Affäre 24
Agrarsektor 24
Alltag 24
Anleger 24
Ansonsten 24
Anwendungen 24
Arbeitslosen 24
Aussichten 24
Auswirkung 24
Auto 24
BN@@ 24
Bal@@ 24
Beamter 24
Begleitung 24
Beobachtern 24
Beratungs@@ 24
Besitz 24
Betriebsräte 24
Beweislast 24
Bilder 24
Branchen 24
Buchstabe 24
Budgets 24
Bündnis 24
Cam@@ 24
Den@@ 24
Drama 24
Dubliner 24
EURES 24
Eindämmung 24
Energiepolitik 24
Entscheidungsprozess 24
Entwicklung@@ 24
Erforderlich 24
Erkenntnissen 24
Ersatz@@ 24
FYROM 24
Feind 24
Finanzier@@ 24
Firma 24
GF@@ 24
Gedächtnis 24
Gefäl@@ 24
Gemeinschaftsvorschriften 24
Gleiches 24
Glückwünschen 24
Größenordnung 24
HIPC 24
Halb@@ 24
Hauptstadt 24
Hingegen 24
IM@@ 24
Insel@@ 24
Inspektionen 24
Inspektoren 24
Juden 24
Kanäle 24
Know 24
Kolonial@@ 24
Kommissionsmitglieds 24
Kompromissvorschlag 24
Konventionen 24
Konzerne 24
Kreise 24
Laufenden 24
Letz@@ 24
Lizenzen 24
Luftverkehr@@ 24
Manchmal 24
Marktzugang 24
Medikamenten 24
Meldungen 24
Methodik 24
Minderheitensprachen 24
Mindestmaß 24
Mitarbeit 24
Norm 24
OGAW 24
Pé@@ 24
Ramos 24
Ratsvorsitzenden 24
Rechtsstaats 24
Regieren 24
Reifen 24
Reihenfolge 24
Repräsent@@ 24
Rocard 24
Sau@@ 24
Schafe 24
Schluss@@ 24
Schokol@@ 24
Schrift@@ 24
Sei@@ 24
Sicherheitsrat 24
Sicherheitsrates 24
Sicherheitsstandards 24
Sorgfalt 24
Sozialagenda 24
Spar@@ 24
Staatsangehörigen 24
Stoff 24
Stolz 24
Suu 24
Tele@@ 24
The@@ 24
Tierhaltung 24
Ton 24
Tor 24
Toten 24
Tragödien 24
Transp@@ 24
Umweltauswirkungen 24
Ungleichgewicht 24
Universitäten 24
Veran@@ 24
Veranstaltung 24
Vergemeinschaftung 24
Verkehrssektor 24
Vermitt@@ 24
Volksvertreter 24
Wahlperiode 24
Wirtschaftsreformen 24
Wo@@ 24
Ziffern 24
Zusammenleben 24
Zuschüsse 24
abgehalten 24
abhängigen 24
ablen 24
abweichen 24
alisieren 24
anschließt 24
anzuschließen 24
arm 24
aufgeführten 24
aufgegeben 24
aufstellen 24
ausgeräumt 24
bedeutender 24
begegnet 24
begriffen 24
beimisst 24
beläuft 24
berühmten 24
betragen 24
betrieb 24
bewährt 24
bil@@ 24
buch 24
chinesische 24
chtige 24
definitiv 24
denes 24
deuten 24
digt 24
dringlichen 24
drängt 24
durchlaufen 24
echter 24
effizientere 24
eil 24
eilt 24
eindeutiger 24
einzunehmen 24
entsandt 24
entsprochen 24
erfol@@ 24
ergebnis 24
erledigen 24
ernden 24
erstrecken 24
erwecken 24
essen@@ 24
esten 24
fein@@ 24
fester 24
flich 24
folgen@@ 24
forum 24
frucht@@ 24
früh@@ 24
fungen 24
geeigneter 24
gefahren 24
genommene 24
gereicht 24
geringsten 24
gerweise 24
gerüstet 24
gesammelt 24
gestanden 24
gewisses 24
gewürdigt 24
gezielte 24
gieren 24
gre@@ 24
grenzüberschreitend 24
gütern 24
hafter 24
hieß 24
hoc 24
imp@@ 24
indirekten 24
irgendeinem 24
jüngster 24
kapital@@ 24
kat@@ 24
klarzustellen 24
kleines 24
kolle@@ 24
konflikt 24
kostengünsti@@ 24
kriminelle 24
ktoren 24
kämpf@@ 24
line 24
lla 24
lu@@ 24
machbar 24
mali@@ 24
mancher 24
meinerseits 24
missbrauch 24
mitten 24
mobilisieren 24
moralischen 24
mutigen 24
niedrigere 24
nu@@ 24
nukleare 24
nächstes 24
onischen 24
operationellen 24
organe 24
pen@@ 24
phase 24
planen 24
potenzielle 24
ps 24
punkten 24
radikale 24
radikalen 24
runde 24
schien 24
seitigen 24
selb@@ 24
selbständig 24
siven 24
sprech@@ 24
spro@@ 24
sprozesses 24
spunkte 24
ssektors 24
sser 24
stabilität 24
standards 24
strecken 24
stung 24
syntheti@@ 24
tak@@ 24
terte 24
tiere 24
ttern 24
tue 24
uk@@ 24
umfassenderen 24
umfassendes 24
umweltfreund@@ 24
unangemessen 24
unden 24
unfähig 24
ungspolitische 24
unterbrechen 24
unterdrückt 24
up 24
utz@@ 24
vel@@ 24
verbindungen 24
verbreiten 24
verbringen 24
verfolgte 24
vergangen 24
verkündet 24
vernichten 24
verschwunden 24
versprechen 24
verstecken 24
versäumt 24
verträge 24
weisungen 24
werk@@ 24
wertet 24
wettbewerbs@@ 24
widersetzen 24
wiederholten 24
wies 24
willens 24
willkürlich 24
woche 24
wohin 24
ziehe 24
zivil@@ 24
zugewiesen 24
Überwach@@ 24
är 24
ärer 24
überarbeitet 24
übereinstimm@@ 24
2,@@ 23
308 23
69 23
97 23
Ab 23
Abgrenzung 23
Abhilfe 23
Abhör@@ 23
Ad 23
Administration 23
Amtes 23
Antrags 23
Anzei@@ 23
Atlan@@ 23
Aufbaus 23
Aus- 23
Beileid 23
Benachteiligung 23
Beobachter@@ 23
Berechnungen 23
Beschreibung 23
Beschäftigungsstrategie 23
Besonderen 23
Betrugs@@ 23
Beweis@@ 23
Blak 23
Brasilien 23
British 23
Bürgerkrieg 23
DC 23
Datenschutz@@ 23
Demokratie@@ 23
Derartige 23
Deregulierung 23
Drucks 23
Dé@@ 23
EA@@ 23
Ebenfalls 23
Ehe 23
Einheiten 23
Embargo 23
Empfänger 23
Entschließungs@@ 23
Entwürfe 23
Erstes 23
Europarats 23
Ex 23
Festsetzung 23
Flächen@@ 23
Friedensabkommen 23
Fälschung 23
García 23
Gebäuden 23
Gedanken@@ 23
Gem@@ 23
Gemeinschaftsinitiativen 23
Gemischten 23
Handlungsfähigkeit 23
Hauptproblem 23
Honi@@ 23
Hän@@ 23
IKT 23
IS@@ 23
Import@@ 23
Innenminister 23
Interventions@@ 23
Investition 23
Jugoslawiens 23
Kandidaten@@ 23
Klagen 23
Klar 23
Kontakten 23
Kopf@@ 23
Kr@@ 23
Kyi 23
Körper 23
Libanon 23
Lob@@ 23
Luft- 23
Maat 23
Mach@@ 23
McCar@@ 23
Menschenverstand 23
Militärs 23
Mitentscheidungs@@ 23
Nachbarstaaten 23
Neufassung 23
Nu@@ 23
Obst 23
Osteuropas 23
Pakt 23
Palästinensische 23
Past@@ 23
Produktsicherheit 23
Pu@@ 23
Rahmenabkommen 23
Rahmenbesch@@ 23
Rapkay 23
Reeder 23
Religionen 23
Scha@@ 23
Schleus@@ 23
Schlußfol@@ 23
Schmidt 23
Schrecken 23
Seeh@@ 23
Seg@@ 23
Spektrum 23
Sprecher 23
Staatsbürger 23
Standort 23
Ster@@ 23
Sämtliche 23
Team 23
Tierversuche 23
Tote 23
Transaktionen 23
UNHCR 23
Umweltbelange 23
Unfall@@ 23
Untergang 23
Unterstütz@@ 23
Ursprungs 23
Ursprungs@@ 23
Vergessen 23
Verhältnismäßigkeit 23
Version 23
Vertagung 23
Verteidig@@ 23
Viel@@ 23
Vinc@@ 23
Vorhandensein 23
Völkerrechts 23
Waffe 23
Wasserrahmenrichtlinie 23
Wasserressourcen 23
Weit@@ 23
Wendepunkt 23
Werk@@ 23
Wett@@ 23
Wettbewerbsrecht 23
Wiederaufbau@@ 23
Wissen@@ 23
Zusammenfassung 23
abschreck@@ 23
abzuwarten 23
ambi@@ 23
anderthalb 23
angegeben 23
angeschnitten 23
ani@@ 23
ankommen 23
ano 23
anpass@@ 23
auffordert 23
aufgetretenen 23
aufnimmt 23
aufwerfen 23
auslösen 23
ausrichten 23
auszuräumen 23
aut@@ 23
bahn 23
bearbeitet 23
bedürf@@ 23
beraubt 23
bereichs 23
beruhenden 23
beschluss 23
bestands 23
besteuerung 23
bestimmung 23
betra@@ 23
bilanz 23
binden 23
blei@@ 23
blockieren 23
brauch@@ 23
bu@@ 23
bur@@ 23
chtungs@@ 23
derten 23
digten 23
diplomatische 23
doppelte 23
drückt 23
durchschnittliche 23
dün@@ 23
ehrt 23
eigenständigen 23
eingefügt 23
einwand@@ 23
eit@@ 23
emissionen 23
endem 23
englische 23
entstandenen 23
erachten 23
ermutigend 23
ernst@@ 23
ernstes 23
erschein@@ 23
erstaunlich 23
erwerben 23
existierenden 23
extremen 23
ff 23
fischerei 23
frequ@@ 23
freund@@ 23
funktionierende 23
gangene 23
gans 23
ganzer 23
garantien 23
gebrochen 23
gegenüberstehen 23
geknüpft 23
gener 23
gerungen 23
geschichte 23
gesunken 23
gewissem 23
gewährten 23
geübt 23
giert 23
gin@@ 23
gravier@@ 23
greif@@ 23
gro@@ 23
großzügige 23
grundsätze 23
gültigen 23
halb@@ 23
haltlich 23
heimgesucht 23
heran@@ 23
herrschende 23
hoh@@ 23
häufi@@ 23
höhe 23
ij 23
intern 23
kampf 23
katalog 23
kin@@ 23
komple@@ 23
konkretes 23
konsequ@@ 23
ktive 23
kürzen 23
lastet 23
leistungs@@ 23
licherweise 23
liges 23
lobenswert 23
massiven 23
maß 23
mei@@ 23
mein@@ 23
meldungen 23
ment@@ 23
met@@ 23
mitgewirkt 23
mittlung 23
mmern 23
mpft 23
mäßi@@ 23
nummer 23
objektiven 23
oper@@ 23
ots 23
ph@@ 23
phie 23
plädiere 23
praktischer 23
profitiert 23
radioaktiver 23
reiten 23
relevanten 23
schau@@ 23
schiffen 23
schlag 23
schlu@@ 23
schrei@@ 23
schrittweisen 23
schwerwiegender 23
selbständigen 23
setzbar 23
sex@@ 23
sexueller 23
sinkt 23
sonstigen 23
sprachlichen 23
stadt 23
strategischer 23
streitigkeiten 23
ständi@@ 23
sum@@ 23
svertre@@ 23
tagung 23
themen 23
therapeutischen 23
tlichen 23
trägen 23
tschetschenischen 23
täre 23
umstritten 23
undurch@@ 23
ungssystemen 23
unlauteren 23
unterschiede 23
ven@@ 23
verantwortliche 23
verfol@@ 23
vergleichbare 23
verhältnismäßig 23
vermehr@@ 23
vern@@ 23
vernachlässigen 23
versicherung 23
verständlicher 23
vollzieht 23
vorerst 23
vorgegeben 23
vorgegebenen 23
vorherige 23
vorschreiben 23
walt 23
wandte 23
wechsel@@ 23
weitreichende 23
westliche 23
wettbewerbsfähi@@ 23
wiegen 23
wirksamere 23
wirtschaftlichem 23
zehn@@ 23
zeich@@ 23
zent@@ 23
zentrum 23
zig 23
zitieren 23
zumachen 23
zusagen 23
zusammenzufassen 23
Ä@@ 23
Übertragungs@@ 23
Überzeugungen 23
äfen 23
ï@@ 23
überarbeiten 23
übergreifenden 23
überzeugend 23
,@@ 22
018@@ 22
020@@ 22
13.@@ 22
2,5 22
Abgaben 22
Absatz@@ 22
Adop@@ 22
Afghanen 22
Afghanistans 22
Akteur 22
Alpen 22
Andre@@ 22
Anschuldigungen 22
Arbeitsmarktes 22
Aung 22
Ausgang@@ 22
Aussöhnung 22
Auswahl@@ 22
Außenhilfe 22
Bananen@@ 22
Beitritts 22
Belgrad 22
Ben@@ 22
Bescheid 22
Bestand 22
Bestandsaufnahme 22
Bezugnahme 22
Billigung 22
Bis@@ 22
Blair 22
Blokland 22
Bürgermeister 22
Camp 22
Char@@ 22
Deckung 22
Diplomaten 22
Don@@ 22
Drei 22
EL 22
Eben 22
Economy 22
Eigenmittel 22
Eigentlich 22
Eigentümer 22
Einwander@@ 22
Eis@@ 22
Eng@@ 22
Erbringung 22
Erdbeben 22
Erfreulicherweise 22
Erläuterung 22
Erzeugerorganisationen 22
Fast 22
Feststellungen 22
Film 22
Flugverkehr 22
Flächen 22
Fraktion@@ 22
Frassoni 22
Frequenzen 22
Futtermitteln 22
Fuß 22
Gebiets 22
Gebot 22
Geburt 22
Geißel 22
Geldpolitik 22
Gemeinsam 22
Gemeinschaftsorgane 22
Geräten 22
Gesichtspunkten 22
Gewiss 22
Grenzwert 22
Gro@@ 22
Grundsätzlich 22
Handlungsbedarf 22
Haushalten 22
Haushaltsvorentwurf 22
Herstell@@ 22
Impfungen 22
Implementierung 22
Industri@@ 22
Informationstechnologie 22
Instrumentarium 22
Interview 22
Javier 22
Justizbehörden 22
Kairo 22
Kauf@@ 22
Khmer 22
Knochen@@ 22
Komitologie@@ 22
Kommentare 22
Kommunikation@@ 22
Komponenten 22
Konferenzen 22
Kranken@@ 22
Krimin@@ 22
Kulturer@@ 22
König 22
Lager 22
Lager@@ 22
Laos 22
Last@@ 22
Luftqualität 22
Mah@@ 22
Mal@@ 22
Male 22
Mess@@ 22
Mindestnormen 22
Mord 22
Morgantini 22
Myller 22
NA@@ 22
Nichts 22
Nuklear@@ 22
Null 22
Nummer 22
Parallel 22
Parlamentariern 22
Parteien@@ 22
Petitions@@ 22
Profi@@ 22
Pä@@ 22
Rahmenbeschlusses 22
Rand 22
Reak@@ 22
Rechtmäßigkeit 22
Rechts- 22
Resultat 22
Resultate 22
Rio 22
Sachlage 22
Schadstoff@@ 22
Scharon 22
Schichten 22
Schwach@@ 22
Schweigeminute 22
Seeleute 22
Smet 22
Staatsanwalts 22
Start@@ 22
Stattdessen 22
Störungen 22
Tagesordnungspunkt 22
Techniken 22
Teilzeit@@ 22
Theorie 22
Transports 22
Tri@@ 22
Umwel@@ 22
Umweltprobleme 22
Unruhe 22
Varela 22
Verbots 22
Verbraucherschutzes 22
Verbrauchs@@ 22
Verfassungen 22
Vergleich@@ 22
Verkehrsin@@ 22
Versicherungsunternehmen 22
Verwaltungsaufwand 22
Verzweiflung 22
Vorgänger 22
Wasserpolitik 22
Wassers 22
Weigerung 22
Weitere 22
Weltgesundheitsorganisation 22
Wien 22
Wohle 22
Wortes 22
Wu@@ 22
Wählern 22
Wünschen 22
Zus@@ 22
Zusicherung 22
Zuverlässigkeitserklärung 22
Zölle 22
ade 22
akti@@ 22
alistische 22
ama 22
ander@@ 22
aner 22
angekündigte 22
angelegte 22
art@@ 22
ast@@ 22
aufzutreten 22
aufzuzeigen 22
ausgeben 22
ausreichendem 22
ausschüsse 22
außergewöhnlich 22
außergewöhnlichen 22
außerordentliche 22
bat 22
bedeutend 22
bedienen 22
befolgt 22
beherrscht 22
beider@@ 22
berücksichti@@ 22
beschaffen 22
beschämend 22
bestehe 22
bewilligt 22
bewältigt 22
bin@@ 22
bler 22
blin@@ 22
bloß 22
breiteren 22
bs@@ 22
ca@@ 22
chse 22
ci@@ 22
dargelegten 22
demographischen 22
dreizehn 22
dringender 22
dustrie 22
eEurope 22
eck 22
einbezieht 22
einigt 22
einnahmen 22
ektor 22
elte 22
empör@@ 22
enn@@ 22
entfalten 22
entfernen 22
enthal@@ 22
entlich 22
entwickelte 22
erei 22
ergänzende 22
erklärten 22
erläu@@ 22
ersichtlich 22
erweckt 22
erweise 22
esischen 22
ethische 22
ett@@ 22
europäisch 22
fallenden 22
fan@@ 22
fiziert 22
flexiblen 22
fortgeführt 22
fremden@@ 22
freundlichen 22
förm@@ 22
führend 22
fünften 22
gangenen 22
gebenden 22
gebilligten 22
gefährdeten 22
geführte 22
gehörte 22
gek@@ 22
gemeinschaft@@ 22
geprägten 22
geschlossene 22
geschädigt 22
gespannt 22
gesundheitliche 22
getrennte 22
ginge 22
glücklich 22
gnisses 22
grau@@ 22
herauf@@ 22
here 22
hersteller 22
hinfällig 22
hochwertigen 22
hö@@ 22
ideologischen 22
ierende 22
indi@@ 22
indirekte 22
interes@@ 22
interessen 22
irakischen 22
itä@@ 22
klein@@ 22
kollektive 22
kommens 22
konservativen 22
konsum 22
konvention 22
konzentration 22
kurzfristige 22
landwirtschaftlicher 22
lassenen 22
laufend 22
lautete 22
leben@@ 22
legungs@@ 22
letztere 22
los@@ 22
löst 22
markts 22
mat@@ 22
maten 22
maßgeblich 22
menschen@@ 22
menschlicher 22
milch 22
modells 22
monat@@ 22
multilaterale 22
nachfolgenden 22
nachträ@@ 22
nachweislich 22
nd 22
netz@@ 22
nichtständigen 22
nisses 22
operationelle 22
organ 22
ou 22
pass@@ 22
passt 22
persönlicher 22
physi@@ 22
potenziell 22
ppen 22
präsentieren 22
rasan@@ 22
reformen 22
regulieren 22
rent@@ 22
ringen 22
rolle 22
sat@@ 22
schlichtweg 22
schlug 22
selt@@ 22
serbischen 22
sfähigkeit 22
siedlung 22
signalisiert 22
sische 22
son 22
sorgfältige 22
spartnern 22
staatsan@@ 22
statisti@@ 22
stein 22
stern 22
stext 22
still@@ 22
stimmte 22
stischen 22
strafen 22
strategien 22
stufe 22
stätten 22
tab@@ 22
teilungen 22
terweise 22
thilfe 22
tiefgreifende 22
tragung 22
treffenden 22
trop@@ 22
tum 22
täuschen 22
unterschätzen 22
unzulänglich 22
urteilen 22
usw 22
utter 22
verbesserten 22
verbrennung 22
veren 22
verfassungs@@ 22
verhältnis 22
verhältnisse 22
verl@@ 22
verlust 22
vert@@ 22
verträgen 22
verwunderlich 22
verzögert 22
vie@@ 22
vielfäl@@ 22
vorbe@@ 22
vorgenommenen 22
vorläufig 22
wand@@ 22
weitergeleitet 22
wen@@ 22
woh@@ 22
wohn@@ 22
wun@@ 22
xi@@ 22
zahl@@ 22
zerschlagen 22
zeß 22
ziehungs@@ 22
zusammenhängt 22
zutrifft 22
zügige 22
Übergangszeit 22
äußer@@ 22
és 22
überleben 22
übermäßige 22
übersetzt 22
übertragung 22
überwachung 22
.30 21
110 21
2008 21
21.00 21
250 21
350 21
Abfassung 21
Absicherung 21
Aktualität 21
Angehörige 21
Anschlägen 21
Anteilnahme 21
Atlantik 21
Aufenthalt@@ 21
Ausgabe 21
Automobilindustrie 21
Barrieren 21
Behandlungs@@ 21
Benutzung 21
Bil@@ 21
Billigflaggen 21
Blockade 21
Bre@@ 21
Brun@@ 21
Bruttosozial@@ 21
Buch 21
Burg 21
Bürgernähe 21
Cashman 21
Castro 21
Davies 21
Defizits 21
Dekre@@ 21
Departe@@ 21
Diplo@@ 21
EGV 21
EN@@ 21
EQUAL 21
Einberufung 21
Eingriff 21
Einheits@@ 21
Einsatz@@ 21
Energiesektor 21
Entsch@@ 21
Entschiedenheit 21
Entweder 21
Erwerbstätigkeit 21
Euratom 21
Europäischer 21
Falsch@@ 21
Fischereiabkommens 21
Fischereisektors 21
Flotten@@ 21
Freihandel 21
Furcht 21
Gebäu@@ 21
Gegen 21
Gemüse 21
Generell 21
Gerichts 21
Geschlossenheit 21
Gewaltt@@ 21
Gr@@ 21
Großkapitals 21
Grundprinzip 21
Gutes 21
Haushaltskontrollausschuss 21
Haushaltsverfahrens 21
Hilfestellung 21
Himmel 21
Hürden 21
IP@@ 21
Ideologie 21
Image 21
Inspe@@ 21
Interesses 21
Ir@@ 21
Johannesburg 21
Justiz- 21
Kampagnen 21
Kanarischen 21
Kapitals 21
Katastrophen@@ 21
Kirkhope 21
Klamt 21
Kommerzialisierung 21
Kompromis@@ 21
Konjunktur@@ 21
Konsultations@@ 21
Konsum 21
Kontrol@@ 21
Koordinatoren 21
Korrektur 21
Kredite 21
Kreis 21
Kritiken 21
Könnte 21
Landwirt 21
Lateinamerikas 21
Litauen 21
Lärmbelästigung 21
Marin@@ 21
Marktöffnung 21
Meere 21
Miller 21
Mitchell 21
Monopol 21
Munition 21
Müller 21
Nachdenken 21
Nahost 21
Neuerungen 21
Nordens 21
Nordische 21
Ober@@ 21
Organisations@@ 21
Parameter 21
Pas@@ 21
Paulsen 21
Plenar@@ 21
Positiv 21
Protektionismus 21
Prämien 21
Qualifikation 21
Redondo 21
Reformpro@@ 21
Restriktionen 21
Rohstoffe 21
Rundfunk 21
Rückschritt 21
Sackgasse 21
Salvador 21
Sar@@ 21
Schlei@@ 21
Schlüsselrolle 21
Schwerpunkt@@ 21
Selbstbestimmung 21
Sk@@ 21
Sokrates 21
Sonderbeauftragten 21
Sozialschutzes 21
Speise@@ 21
Staatsführung 21
Stiftung 21
Strecke 21
Stur@@ 21
Tei@@ 21
Tem@@ 21
Tenor 21
Tierfutter 21
Tiermehl 21
Todes@@ 21
Unfähigkeit 21
Ungleichbehandlung 21
Universität 21
Unsicherheiten 21
Vater@@ 21
Veranstaltungen 21
Verbrennungs@@ 21
Verkehrsträger 21
Verknüpfung 21
Vermittlungsverfahrens 21
Vernetzung 21
Verweigerung 21
Vetorecht 21
Visum 21
Vol@@ 21
Vorreiterrolle 21
Vorschub 21
Wand@@ 21
Wander@@ 21
Weg@@ 21
Welle 21
Wende 21
Wieder 21
Wirtschaftstätigkeit 21
Wurzel 21
Zusammenfassend 21
Züge 21
achtung 21
angedeutet 21
angeklagt 21
angrenzenden 21
anzubieten 21
arischen 21
artik@@ 21
ary 21
ative 21
aufrichtigen 21
ausch 21
ausend 21
ausgelö@@ 21
ausgeprä@@ 21
ausreichender 21
aussage@@ 21
ausübt 21
autono@@ 21
ba 21
bedauer@@ 21
beginne 21
begrüß@@ 21
belast@@ 21
beschäftigung 21
besorgnis@@ 21
bestellt 21
bestimmtes 21
betreibt 21
bie@@ 21
billig 21
blü@@ 21
brachten 21
bürokratisch 21
ches 21
christ@@ 21
d.h. 21
daten@@ 21
dene 21
derartig 21
derjenige 21
derte 21
detailli@@ 21
dichte 21
dimension 21
diplomati@@ 21
disch 21
dreimal 21
dürfe 21
echtes 21
eit 21
ello 21
emp@@ 21
entdeckt 21
entscheidendes 21
entschiedene 21
enttäuschend 21
erforder@@ 21
erinnen 21
erkenn@@ 21
erlangt 21
erlaube 21
ermuntern 21
erregenden 21
erzeugen 21
ethnischer 21
ey@@ 21
fang@@ 21
fangen 21
fehl 21
fei@@ 21
firmen 21
folgender 21
folgerichtig 21
freundlich 21
früchte 21
frühzeitig 21
fu@@ 21
fundierten 21
furchtbaren 21
fügt 21
gehandhabt 21
geheim 21
geld 21
gelenkt 21
genauestens 21
gentur 21
geprü@@ 21
geschwächt 21
geschäfte 21
geschätzt 21
gesonderte 21
gestoppt 21
gewandt 21
gewillt 21
gewusst 21
gleicht 21
gleichwer@@ 21
globalisierten 21
greifenden 21
grünen 21
hilfen 21
hinter@@ 21
här@@ 21
immensen 21
interessierten 21
irgend 21
ja@@ 21
jahres 21
juristisch 21
jähriger 21
kinder 21
klin@@ 21
konkretisieren 21
konstatieren 21
konstru@@ 21
ktiv@@ 21
ktives 21
kultur 21
langwieri@@ 21
leb@@ 21
legitime 21
leichten 21
leistung 21
lieferungen 21
lingen 21
logische 21
lücken@@ 21
mach@@ 21
mas 21
mente 21
mmer 21
mobilisiert 21
nachgedacht 21
nächster 21
nötige 21
organis@@ 21
ot 21
ott 21
partner 21
personen 21
personenbezogener 21
pion@@ 21
position 21
prozess 21
präzisen 21
prüfung 21
qualitativen 21
rech@@ 21
regelmäßige 21
regelt 21
reinen 21
relativen 21
risiko 21
rist@@ 21
rop@@ 21
sachen 21
samen 21
sames 21
saubere 21
schriftlichen 21
schwache 21
schwieriges 21
schän@@ 21
schätzt 21
sein@@ 21
seits 21
seriös 21
sinnlos 21
sion 21
situationen 21
spflicht 21
spielte 21
sport 21
sproblem 21
sprüchen 21
sta 21
stabilen 21
stechni@@ 21
stellende 21
stisch 21
strä@@ 21
sub@@ 21
subventioniert 21
teilte 21
terer 21
terin 21
terroristischer 21
ther@@ 21
therapeutische 21
tiefer 21
tiefgreifenden 21
trags 21
transporte 21
trete 21
tts 21
tödlichen 21
umzu@@ 21
unab@@ 21
unbegründet 21
unerfreu@@ 21
unerträglich 21
unglaublich 21
ungsprogramms 21
ungssektor 21
verband 21
verbren@@ 21
vereint 21
verschafft 21
versuche 21
vertieft 21
verwundert 21
vision 21
voran@@ 21
vorangebracht 21
vorgeworfen 21
vorwiegend 21
weiterzuentwickeln 21
wiederhergestellt 21
wieso 21
wirkungen 21
wirtschaft@@ 21
yp@@ 21
zeug 21
zeugen 21
ziehung 21
zugestehen 21
zurückgewiesen 21
zurückliegenden 21
zweifelsohne 21
zwischenstaatliche 21
züge 21
Ö 21
à 21
ält 21
übergreifende 21
übermäßigen 21
0,5 20
1,5 20
11.00 20
152 20
1986 20
79 20
Abteilung 20
Agrarausgaben 20
Aktivität 20
Alternativ@@ 20
Anlauf@@ 20
Antragsteller 20
Arbeitsmethoden 20
Armenien 20
Asylrecht 20
Atom@@ 20
Aufschwung 20
Auslands@@ 20
Ausländer 20
Bedrohungen 20
Begleit@@ 20
Beobachtung 20
Berichtsentwurf 20
Besuchs 20
Betrachtung 20
Bewertungs@@ 20
Blei 20
Bür@@ 20
Chemikalien@@ 20
Chile 20
Clinton 20
Cunha 20
Diam@@ 20
Dilemma 20
Diskussion@@ 20
Dr. 20
ER@@ 20
Eingriffe 20
Einmal 20
Einwanderungs- 20
Einwohnern 20
Elementen 20
Empörung 20
Entführung 20
Ermittlungs@@ 20
Erzeugern 20
Exekutive 20
FOR 20
Fle@@ 20
Flüchtlingsstatus 20
Gas 20
Geber@@ 20
Gefangene 20
Gefähr@@ 20
Genitalverstümmelung 20
Gesundheitsfürsorge 20
Gewalt@@ 20
Gipfeltreffens 20
Governance 20
Großbritanniens 20
Grundversorgung 20
Grundzügen 20
Gütern 20
Handhabung 20
Hauptanliegen 20
Heraus@@ 20
Herz 20
Importe 20
Innen@@ 20
Innovations@@ 20
Intervention@@ 20
Italiener 20
Je@@ 20
John 20
Jur@@ 20
Kal@@ 20
Kambodscha 20
Klimawandel 20
Kommunalwahlen 20
Komp@@ 20
Konsultation@@ 20
LI@@ 20
Laden 20
Landminen 20
Lebens- 20
Leinen 20
Letzten 20
Lippenbe@@ 20
Mass@@ 20
Massaker 20
Medina 20
Meinen 20
Meinungsaustausch 20
Menschenrechtspolitik 20
Migranten 20
Migrationsströme 20
Min@@ 20
Minen@@ 20
Mini@@ 20
Missverständnis 20
Mitentscheidungsverfahrens 20
Morde 20
Motor 20
Mulder 20
Nachbarländern 20
Nationalismus 20
Nebenprodukte 20
Netto@@ 20
Netzwerke 20
Nordkorea 20
Nordsee 20
Online 20
Opti@@ 20
Ordnungs@@ 20
Osttimor 20
Pan@@ 20
Para@@ 20
Pflanzen@@ 20
Pilot@@ 20
Por@@ 20
Pri@@ 20
Privileg 20
Produkts 20
Profit 20
Profit@@ 20
Präsidentschaften 20
Präsidiums 20
Quote 20
Radwan 20
Rentabilität 20
Ribeiro 20
Roh@@ 20
Roll@@ 20
Rothley 20
Russlands 20
Rüstungs@@ 20
Schle@@ 20
Schlussabstimmung 20
Schlüsselelement 20
Schmuggel 20
Schulz 20
Schwere 20
Sekunden 20
Sevilla 20
Sofortmaßnahmen 20
Sommerpause 20
Sozialversicherung 20
Spieler 20
Staatsangehörigkeit 20
Stabilisat@@ 20
Stabilität@@ 20
Steuer- 20
Strafgerichtshofs 20
Strafgesetz@@ 20
Stufen 20
Säulen 20
Tot@@ 20
Tran@@ 20
Transfer 20
Treibhausgasen 20
Träger 20
US@@ 20
Umsetz@@ 20
Ungeachtet 20
Ungerechtigkeit 20
Ungleichheit 20
Unionsbürgern 20
Verarbeitungs@@ 20
Verbündeten 20
Vereinigung 20
Vergehen 20
Vergnügen 20
Verordnungsentwurf 20
Verpflichtungsermächtigungen 20
Verschwendung 20
Versorgungssicherheit 20
Vertreterin 20
Vertretungen 20
Viel 20
Vollstreckung 20
Volumen 20
Vorsorge 20
Wat@@ 20
Wirbel@@ 20
Wunder 20
Währungsgebiet 20
Zuwanderer 20
abhalten 20
ableiten 20
abschaffen 20
absehbarer 20
ags 20
ah 20
akzeptablen 20
alisten 20
allmähliche 20
ana 20
angeb@@ 20
angegriffen 20
anhaltenden 20
anhören 20
anna@@ 20
anschauen 20
anspruchsvoll 20
arbei@@ 20
ard@@ 20
arme 20
atur 20
auer 20
aufgeteilt 20
ausdrückliche 20
ausgezahlt 20
ausschlaggebend 20
baskischen 20
bearbeiten 20
befördern 20
befürwor@@ 20
begründeten 20
beihilfe 20
belie@@ 20
bescheiden 20
beschrän@@ 20
bestreiten 20
betrie@@ 20
beunruhigende 20
bezi@@ 20
bildenden 20
brenn@@ 20
chard 20
chteten 20
ckte 20
daraufhin 20
del@@ 20
demonstrieren 20
demonstriert 20
derter 20
digende 20
digte 20
diverse 20
eigen 20
einseitigen 20
einzuladen 20
einzuwenden 20
ele@@ 20
elektron@@ 20
elementaren 20
elen 20
empfinde 20
entlassen 20
erender 20
erfährt 20
erg@@ 20
erklärung 20
erledigt 20
erneuern 20
erwachsen 20
erwarteten 20
ete 20
exakte 20
facher 20
fang 20
felder 20
festgesetzt 20
fiel 20
fließt 20
formellen 20
freiwilliger 20
fs 20
fundament@@ 20
fung 20
fälschung 20
fän@@ 20
führungs@@ 20
fünfzig 20
geahndet 20
gegriffen 20
gelaufen 20
gemeinschaftlicher 20
gemeinwirtschaftlichen 20
geographische 20
gerei@@ 20
geschle@@ 20
geschätzten 20
gestehen 20
gestört 20
gesund 20
gewiesen 20
gewöhnlich 20
gif@@ 20
gigan@@ 20
gleichberechtigten 20
gleichgültig 20
gleichzeitiger 20
gramm 20
gründlichen 20
güter@@ 20
haltende 20
harmonisierten 20
hebt 20
heftig 20
herange@@ 20
hervorragendes 20
hinein 20
hinterlassen 20
hochrangige 20
hochwertige 20
horizontale 20
how 20
hän@@ 20
höchstem 20
ierenden 20
initi@@ 20
jahren 20
ji@@ 20
ju@@ 20
kapitalistischen 20
kauft 20
kehren 20
kers 20
klassischen 20
knappen 20
ko 20
kontraproduktiv 20
kräftige 20
lans 20
leitende 20
leute 20
ligkeit 20
loo@@ 20
luss@@ 20
makroökonomische 20
materielle 20
meldung 20
mem@@ 20
merken 20
mierten 20
minister@@ 20
mischt 20
mitgliedern 20
mug@@ 20
mäßiger 20
nachher 20
nachvollziehbar 20
nehmern 20
nez 20
nä@@ 20
nützen 20
onien 20
optimalen 20
ort@@ 20
out 20
partner@@ 20
personellen 20
prioritären 20
produkt 20
que 20
reformiert 20
reiben 20
reibungslosen 20
relevant 20
rägen 20
räum@@ 20
sche@@ 20
scheitern 20
schiffe 20
schlepp@@ 20
see@@ 20
sensible 20
sfähig 20
siertes 20
sis 20
skeptisch 20
sonstige 20
sozi@@ 20
spartei 20
spezifischer 20
stalten 20
statt@@ 20
stichhal@@ 20
stimm@@ 20
stimmung 20
strafrechtlich 20
strikte 20
strittig 20
stürzen 20
takt 20
tari@@ 20
technologi@@ 20
teilhaben 20
terne 20
teuren 20
tigungs@@ 20
traf 20
transp@@ 20
umweltfreundliche 20
unbefriedigend 20
ungsprozesse 20
ungünsti@@ 20
unterhalb 20
unterschätzt 20
unterwerfen 20
unvermeidlich 20
unzureichenden 20
uro 20
ush@@ 20
ust 20
verbracht 20
verbrau@@ 20
verdoppeln 20
vergangene 20
vergrößern 20
verhütung 20
verlagern 20
vermuten 20
verschmu@@ 20
verständ@@ 20
vertret@@ 20
verursachte 20
verwalten 20
verwaltungs@@ 20
verzeihen 20
veröffentlichten 20
vorangehen 20
vorher@@ 20
vorzuziehen 20
wartet 20
wehr 20
weiterführen 20
weitreich@@ 20
wem 20
wichti@@ 20
wirtschaftspolitischen 20
wohlgemerkt 20
wovon 20
währ@@ 20
wü@@ 20
xe 20
zeitraums 20
zeugnisse 20
zielgerichtet 20
zufügen 20
zulegen 20
zustehenden 20
zuviel 20
zwecke 20
zweier 20
zwischen@@ 20
zü@@ 20
ärm 20
öfter 20
üb@@ 20
überdies 20
übermäßig 20
27@@ 19
60er 19
86 19
Abschottung 19
Abwä@@ 19
Adoptionen 19
Agrarhaushalt 19
Andersson 19
Arbeitslosenquote 19
Assoziier@@ 19
Attentate 19
Aufenthal@@ 19
Auff@@ 19
Ausgangs@@ 19
Bean@@ 19
Bedarfs 19
Bedürfnis 19
Begegnung 19
Berufsgruppen 19
Beschluss@@ 19
Beschäftigungsmöglichkeiten 19
Bestandteile 19
Betru@@ 19
Bevölkerungen 19
Bezeichnungen 19
Bomben 19
Bos 19
Brenner 19
Brennstoffe 19
Briten 19
Butter 19
Bücher 19
CE 19
Carl@@ 19
DA@@ 19
Darstellung 19
Dasselbe 19
Deckmantel 19
Duff 19
Durchführ@@ 19
Durchführungsmaßnahmen 19
EC 19
Eink@@ 19
Embargos 19
Entfernungen 19
Enttäu@@ 19
Erbes 19
Erkrankungen 19
Ermessen 19
Ernsthaftigkeit 19
Ernährungs@@ 19
Erster 19
Erträge 19
Erwägungsgrund 19
Erzeugnis 19
Erzielung 19
Essen 19
Etwas 19
Existenz@@ 19
Experten@@ 19
Flagge 19
Flexibilisierung 19
Fläche 19
Flü@@ 19
Folgemaßnahmen 19
Fortschritts 19
Fru@@ 19
Garanti@@ 19
Gast@@ 19
Gebern 19
Gegensätze 19
Geldes 19
Gemeinschaftspat@@ 19
Gewal@@ 19
Gibraltar 19
Glaubens@@ 19
Grundrechten 19
Hab@@ 19
Handlung 19
Haushaltsentwurf 19
Heranführungs@@ 19
Hervor@@ 19
Hoh@@ 19
Hätte 19
Integration@@ 19
Internets 19
José 19
Karibik 19
Kernkraftwerke 19
Kli@@ 19
Kommunen 19
Konfliktlösung 19
Kreisen 19
Kulturpolitik 19
Kämpfer 19
Langen 19
Lehrer 19
Lulling 19
MO@@ 19
Mark@@ 19
Martin 19
Materialien 19
Maßstäbe 19
Mehrheitsentscheidungen 19
Menschenrecht@@ 19
Menschenrechtslage 19
Mercosur 19
Mindeststandards 19
Mindestvorschriften 19
Mineral@@ 19
Mineralien 19
Mittag 19
Modells 19
Muscardini 19
Mö@@ 19
München 19
Mütter 19
NE@@ 19
Nachbar@@ 19
Nap@@ 19
Netzwerk 19
Nichtsdestotrotz 19
Nie@@ 19
Niko@@ 19
Noti@@ 19
Orden 19
Palette 19
Paraguay 19
Parlamentsmitglieder 19
Pil@@ 19
Plenums 19
Polemik 19
Prof@@ 19
Programmplanung 19
Proje@@ 19
Proteste 19
Präzi@@ 19
Rauchens 19
Rechtsmittel 19
Redebeiträgen 19
Res@@ 19
Respektierung 19
Rezession 19
Robert 19
Russen 19
Rücken 19
Sagen 19
Sak@@ 19
Sal@@ 19
Schock 19
Schwellenwerte 19
Selbstregulierung 19
Ser@@ 19
Sicherheitskräfte 19
Sicherheitsrats 19
Sonntag 19
Sozialschutz@@ 19
Spannung 19
Spei@@ 19
Sprichwort 19
Staatschefs 19
Standard 19
Stat@@ 19
Steuereinnahmen 19
Stich@@ 19
Stil@@ 19
Still@@ 19
Streitkräften 19
Synergie@@ 19
Szenario 19
TA@@ 19
Task 19
Terr@@ 19
Thors 19
Tochter 19
Tur@@ 19
Turmes 19
UNICEF 19
Umwandlung 19
Unterfangen 19
Unternehmer@@ 19
Unterschieden 19
Unzufriedenheit 19
Verankerung 19
Vereinigungen 19
Verhandl@@ 19
Vermittler 19
Verordnungs@@ 19
Versteigerung 19
Vertrag@@ 19
Voraus 19
Vorhabens 19
Vorkommnisse 19
Vorwürfe 19
Vorzug 19
Völkergemeinschaft 19
Wahrscheinlich 19
Wald@@ 19
Welthandels 19
Wettbewerbsverzerrung 19
Will 19
X 19
Zehn@@ 19
Zi@@ 19
Zumindest 19
Zusammen 19
Zusatz 19
Zustandekommen 19
Zweckmäßigkeit 19
ableh@@ 19
agi@@ 19
aktualisieren 19
aktualisiert 19
alle@@ 19
alleinige 19
allemal 19
alternativer 19
alu@@ 19
ams 19
anen 19
anerkenn@@ 19
angeprangert 19
antworte 19
antwortet 19
anz@@ 19
arbeitende 19
aufgeb@@ 19
aufgestellten 19
aufwand 19
ausführ@@ 19
ausnahmslos 19
ausschließliche 19
ausschließt 19
auszusetzen 19
autaire 19
beachtliche 19
beantrage 19
beauftragten 19
beeinflusst 19
begrenz@@ 19
beheben 19
behör@@ 19
bekämpf@@ 19
belasten 19
benötigten 19
berechti@@ 19
berichterstatter 19
beschreiten 19
besprechen 19
bestärkt 19
betrieblichen 19
beunruhigend 19
bevölkerung 19
bra@@ 19
bricht 19
brutalen 19
chste 19
deckten 19
definierten 19
deli@@ 19
detaillierten 19
dische 19
distanzieren 19
dokum@@ 19
drastische 19
dul@@ 19
dus 19
dynamischsten 19
edo 19
effekte 19
ehr@@ 19
einfa@@ 19
einnimmt 19
einreisen 19
einsch@@ 19
einschätzen 19
einsätze 19
einvernehm@@ 19
einzel@@ 19
elemente 19
empf@@ 19
engeren 19
enheit 19
enormer 19
entere 19
entsorgung 19
entwickel@@ 19
erachte 19
ereignet 19
erschien 19
ese@@ 19
etwaige 19
evalu@@ 19
extreme 19
exzellenten 19
festigen 19
fik@@ 19
fisch 19
fläche 19
fol@@ 19
fon@@ 19
forderten 19
fortsetzt 19
freigelassen 19
fs@@ 19
fundierte 19
furcht@@ 19
förderlich 19
gebenen 19
gebührende 19
gegebener 19
geholt 19
gehörenden 19
gehörige 19
geistige 19
gekauft 19
geldern 19
genan@@ 19
genannter 19
gerechter 19
gerichtliche 19
gesprächen 19
gewinn@@ 19
gewissenhaft 19
geworfen 19
gleichberechtigt 19
glück@@ 19
gna 19
gutheißen 19
haltenen 19
har@@ 19
herrschte 19
höheres 19
hör@@ 19
inform@@ 19
interesse 19
irakische 19
istischer 19
just 19
katastrophalen 19
kel 19
klassische 19
kommis@@ 19
kommun@@ 19
kontrollierte 19
konventionellen 19
konzepts 19
konzipiert 19
koordinierten 19
kostenlos 19
ktu@@ 19
kultur@@ 19
kung 19
lagern 19
lang@@ 19
lassungen 19
lebenslange 19
mah@@ 19
mals 19
massen@@ 19
medi@@ 19
menschliches 19
mentari@@ 19
mili@@ 19
mische 19
mitglied 19
mmt 19
modern@@ 19
mpro@@ 19
nachgekommen 19
nachhaltiger 19
nahme@@ 19
nahmen@@ 19
negativer 19
niedrige 19
nör@@ 19
oh@@ 19
oll 19
ols 19
optimal 19
ordentliche 19
ordnungs@@ 19
ordnungspolitischen 19
pakets 19
pflanzen 19
physische 19
plädieren 19
plädiert 19
por@@ 19
preisen 19
präziser 19
pus 19
radikal 19
reib@@ 19
reibungs@@ 19
religiöser 19
ressourcen 19
rische 19
ruhi@@ 19
ruhig 19
runden 19
schei@@ 19
schmerz@@ 19
schnellere 19
schock@@ 19
schul@@ 19
schwin@@ 19
sech@@ 19
sechs@@ 19
seln 19
sensibel 19
serklärung 19
sicheres 19
sichtliche 19
sinnvollen 19
sinstrumente 19
sinstrumenten 19
siv 19
sogleich 19
solidarische 19
soliden 19
sparung 19
spekten 19
sper@@ 19
spolitischen 19
ssen@@ 19
stagungen 19
stal@@ 19
stel@@ 19
steten 19
stex@@ 19
stitu@@ 19
streit@@ 19
strukturi@@ 19
subsidi@@ 19
systemen 19
säu@@ 19
tat@@ 19
tbar 19
tender 19
teter 19
tor@@ 19
trau@@ 19
tze 19
tö@@ 19
umge@@ 19
umzugehen 19
unerlässliche 19
ungeeignet 19
ungspläne 19
ungspolitischen 19
unschuldige 19
unterziehen 19
unweigerlich 19
val@@ 19
vari@@ 19
vehement 19
verbin@@ 19
verbrannt 19
verfassen 19
vergleichbaren 19
verknüpfen 19
verlor@@ 19
verständigt 19
verständlicherweise 19
vertraue 19
vertre@@ 19
vertretbar 19
vertrieben 19
verwickelt 19
verzerren 19
vierzig 19
voranschreiten 19
vorbeugende 19
vordrin@@ 19
vorgesch@@ 19
vorgetragenen 19
vorläufigen 19
vortragen 19
vorziehen 19
vorzuschreiben 19
wahrlich 19
wel@@ 19
werdenden 19
wertung 19
wettbewerbsfähigen 19
widmet 19
wirklicher 19
wünschte 19
zentral 19
zentrales 19
zucht 19
zugehörigkeit 19
zugestanden 19
zulässige 19
zusichern 19
zwecks 19
zwischenstaatlichen 19
Ängste 19
Ära 19
Übersetzungs@@ 19
ó@@ 19
öffentliches 19
öffnet 19
öpfung 19
ösen 19
übereinstimmt 19
überflüssi@@ 19
überlegt 19
übertrag@@ 19
üt@@ 19
137 18
4,@@ 18
AB@@ 18
Abga@@ 18
Absprachen 18
Abstimmungsstunde 18
Abänderungen 18
Acquis 18
Aktionsp@@ 18
Alpen@@ 18
Amtsantritt 18
Amtssprachen 18
Antiterror@@ 18
Arbeitsmärkte 18
Archi@@ 18
Architektur 18
Att@@ 18
Ausmerzung 18
Ausrottung 18
Ausrüstung 18
Baumwoll@@ 18
Befra@@ 18
Beit@@ 18
Belgiens 18
Bendit 18
Bit@@ 18
Bonino 18
Bra@@ 18
Brie@@ 18
Buch@@ 18
Busse 18
Böge 18
Börsen@@ 18
Cohn 18
Daneben 18
Demonstration 18
Demzufolge 18
Direktor 18
Dorf 18
Drin@@ 18
Drittland 18
EDD 18
EL@@ 18
Eigenschaften 18
Einflussnahme 18
Einreise@@ 18
Elektro@@ 18
Elite 18
Eltern@@ 18
Emission 18
Enth@@ 18
Entschädigungen 18
Entwicklungsp@@ 18
Erweiter@@ 18
Europaabgeordnete 18
Eurostat 18
Extremismus 18
Fah@@ 18
Festigung 18
Finanzmitteln 18
Flotten 18
Flugverkehrs@@ 18
Forums 18
Fran@@ 18
Färm 18
Föderalismus 18
Führungsrolle 18
Gebir@@ 18
Gebühr 18
Gegenleistung 18
Gehalt 18
Genauso 18
General 18
Geno@@ 18
Gerichtsbarkeit 18
Gesprächspartner 18
Gesundheitspolitik 18
Getreide@@ 18
Gla@@ 18
Gleichgültigkeit 18
Grundwerte 18
Hum@@ 18
Hus@@ 18
Hör@@ 18
IA@@ 18
Il@@ 18
Illusion 18
Im@@ 18
Inflations@@ 18
Inform@@ 18
Innenpolitik 18
Intensität 18
Interessengruppen 18
Kab@@ 18
Kohäsions@@ 18
Kommunismus 18
Kompliment 18
Kompromissen 18
Konfli@@ 18
Kontrollsystem 18
Kooperationsabkommen 18
Kraft@@ 18
Kredit@@ 18
Lern@@ 18
Letztlich 18
Linderung 18
Mark 18
Marok@@ 18
Materials 18
Mau@@ 18
Medizin 18
Menschenrechtsfragen 18
Met@@ 18
Mikro@@ 18
Militarisierung 18
Militär 18
Milli@@ 18
Misserfolg 18
Missstände 18
Missverständnisse 18
Moldawien 18
Müll@@ 18
Nachhinein 18
Nationalität 18
Nationalversammlung 18
Nunmehr 18
Oft 18
Ohren 18
Oli@@ 18
Oslo 18
Paritätische 18
Pauschal@@ 18
Pes@@ 18
Plat@@ 18
Preises 18
Pressekonferenz 18
Präzisierung 18
RK 18
Ratsvorsitzender 18
Realismus 18
Rebellen 18
Rechtss@@ 18
Reding 18
Referendums 18
Reihen 18
Rund@@ 18
Rundfunk@@ 18
Rä@@ 18
Sachkenntnis 18
Sachverhalt 18
Saudi 18
Schatten 18
Schlag@@ 18
Schranken 18
Schulung 18
Schweine 18
Schwächung 18
Sechsten 18
Seen 18
Seminar 18
Senegal 18
Sicherheiten 18
Sicherheitsniveau 18
Sor@@ 18
Sou@@ 18
Spaltung 18
Stillstand 18
Strategiep@@ 18
Strenge 18
Ständigen 18
Sympathie 18
Sü@@ 18
Tausenden 18
Territoriums 18
Texten 18
Tiertransporte 18
Todesfälle 18
Togo 18
Trinkwasser 18
Umsetzungs@@ 18
Ungleichgewichte 18
Urheber 18
Urlaub 18
Vari@@ 18
Vater 18
Verbrechensbekämpfung 18
Vereine 18
Verfü@@ 18
Verkehrs- 18
Vermittlungsausschusses 18
Versprechungen 18
Versuchung 18
Verzicht 18
Vogel@@ 18
Wahrscheinlichkeit 18
Wandels 18
Weihnachten 18
Weisheit 18
Weiß@@ 18
Weltordnung 18
Wie@@ 18
Wiederholung 18
Winter 18
Wirtschaftss@@ 18
Wor@@ 18
Währ@@ 18
Währungsfonds 18
Zahlungsermächtigungen 18
Zeitplans 18
Zinssätze 18
Zonen 18
Zugehörigkeit 18
Zusammenwirken 18
Zuweisung 18
abfinden 18
abgeändert 18
akten 18
alisierungen 18
ambition@@ 18
anbieter 18
ane 18
ang 18
ange 18
angegangen 18
angehoben 18
angelegenheiten 18
angerichtet 18
angesch@@ 18
anstalten 18
anten@@ 18
anwendet 18
anzuheben 18
apier 18
app@@ 18
as@@ 18
aten@@ 18
auffor@@ 18
aufnahme 18
aufpassen 18
aufzuhalten 18
ausgehandelt 18
ausgerechnet 18
ausgesch@@ 18
baut 18
befreit 18
begeistert 18
begnügen 18
behilflich 18
beige@@ 18
beigefügt 18
beispiel@@ 18
beit@@ 18
beitrag 18
bergen 18
beruhende 18
beschriebenen 18
best 18
bestmöglichen 18
biomet@@ 18
bloßen 18
chemische 18
dend 18
desselben 18
dicht 18
diesjährigen 18
dire@@ 18
disk@@ 18
diversen 18
doppel@@ 18
drehen 18
dy@@ 18
egal 18
ehrgeiziges 18
ehrlichen 18
eindrucks@@ 18
einzelstaatliche 18
einzubinden 18
elekt@@ 18
elektronischer 18
empfin@@ 18
empfunden 18
endgül@@ 18
energi@@ 18
enermaßen 18
entgegenzuwirken 18
erfunden 18
erischer 18
erkenne 18
erklär@@ 18
erklärungen 18
erwartete 18
expor@@ 18
fahrzeugen 18
fechten 18
fikationen 18
fliehen 18
flächen 18
flüge 18
folgend 18
forderungen 18
formationen 18
fraglichen 18
friedenser@@ 18
fruchtbare 18
fällig 18
föderalen 18
für@@ 18
gear@@ 18
geglaubt 18
gehörten 18
genehmigen 18
gepf@@ 18
gereist 18
gerin 18
gerten 18
geschlachtet 18
gesellschaft@@ 18
gesetzgeber@@ 18
gestartet 18
gesteuert 18
getestet 18
gewarnt 18
geweckt 18
gewünschte 18
gier 18
gigen 18
gliches 18
grundsätz@@ 18
größtenteils 18
gueira 18
günstige 18
halb 18
handlungs@@ 18
heranzu@@ 18
herausgreifen 18
hinauslaufen 18
hinausläuft 18
hinweise 18
identifizieren 18
imm@@ 18
industrielle 18
ins@@ 18
insoweit 18
institutioneller 18
irgendwelchen 18
israelisch 18
kampagnen 18
kapit@@ 18
kapitel 18
kari@@ 18
keines 18
kenntnisse 18
ker@@ 18
klagen 18
knüpfen 18
kommissarin 18
kommunistischen 18
kontinuierliche 18
konzep@@ 18
kro@@ 18
kräftigen 18
ktur@@ 18
kun@@ 18
landen 18
lebende 18
lehr@@ 18
leiden@@ 18
leitungen 18
lini@@ 18
lösungen 18
mangel@@ 18
mediterranen 18
mehl 18
meinte 18
meistern 18
mg 18
militärisch 18
ministerin 18
ministerium 18
mitteilung 18
mitzuwirken 18
modernisieren 18
mund@@ 18
nebeneinander 18
neutral 18
niedrigsten 18
nutzung 18
ober@@ 18
ologische 18
onnenen 18
operieren 18
optimale 18
organ@@ 18
per@@ 18
planung 18
plat@@ 18
pra@@ 18
priorit@@ 18
privati@@ 18
produkts 18
produzenten 18
rahmens 18
rauen 18
recher@@ 18
reibern 18
reibung 18
reibungen 18
reibungslos 18
reichende 18
reises 18
richtungen 18
rief 18
rit@@ 18
räsidenten 18
sachlich 18
scha@@ 18
scharf 18
scharta 18
schlüssi@@ 18
schnellst@@ 18
schreck@@ 18
seitdem 18
seri@@ 18
setzungen 18
sicherheit@@ 18
sichtig 18
sindustrie 18
sive 18
sozialistische 18
spin 18
sprüfungen 18
ssitzungen 18
staatlich 18
stabil 18
stattungen 18
steigende 18
strafe 18
stärkerem 18
swert 18
tage 18
teri@@ 18
termin@@ 18
tern@@ 18
teu@@ 18
text 18
ther 18
traditionell 18
transportiert 18
unbefrie@@ 18
undenkbar 18
unerwünschte 18
ungerechtfertigt 18
ungewöhnlich 18
ungsmittel 18
ungspolitiken 18
ungsprogrammen 18
union 18
unzulän@@ 18
unüber@@ 18
uten 18
verantwortung 18
verbirgt 18
verehrter 18
verfallen 18
verlagert 18
vermehrt 18
vermisse 18
vernehmen 18
vernünf@@ 18
verpflich@@ 18
versäumen 18
vertik@@ 18
verwechseln 18
verwer@@ 18
vielfalt 18
vollständiger 18
vorbeugenden 18
vorweg@@ 18
völliger 18
wahn@@ 18
weiterentwickeln 18
weiterzuführen 18
werke 18
woran 18
ws 18
zahl 18
zeitliche 18
zien 18
zogen 18
zurückgreifen 18
zurückweisen 18
zy@@ 18
Ärmsten 18
Österreicher 18
Überdies 18
Übergangs 18
Übergangszeitraum 18
Überweisungen 18
á@@ 18
ähnlicher 18
ärmeren 18
ätigkeiten 18
äußere 18
ò@@ 18
übrige 18
1979 17
2009 17
2015 17
3,5 17
73 17
74 17
Absichtserklärung 17
Abstimmungsergebnis 17
Ad@@ 17
Aktionäre 17
Aller@@ 17
Allgemein@@ 17
Alters 17
Amtsblatt 17
Analphabetismus 17
Angriffen 17
Anhörungen 17
Ant@@ 17
Antibiotika 17
Antrag@@ 17
Anwalt 17
Arbeitgebern 17
Arbeitsgruppen 17
Arbeitskosten 17
Arbeitsp@@ 17
Argumentation 17
Armuts@@ 17
Auflistung 17
Ausbild@@ 17
Auslaufen 17
Bekräftigung 17
Benennung 17
Berat@@ 17
Berei@@ 17
Bereit@@ 17
Berliner 17
Besitz@@ 17
Besucher@@ 17
Bildungswesen 17
Brenn@@ 17
Brü@@ 17
Buchstaben 17
Christ@@ 17
Dolmetscher 17
Donner@@ 17
Dritter 17
Drittstaatsangehörige 17
Drohungen 17
Durchführungsbefugnisse 17
Einkünfte 17
Einreichung 17
Einspruch 17
Einsätze 17
Eisenbahnverkehrs 17
Energies@@ 17
Engli@@ 17
Entscheidungsprozessen 17
Entsprechend 17
Erfolgs@@ 17
Erlaubnis 17
Ersatz 17
Erwachsenen 17
Etiket@@ 17
Europaparla@@ 17
FO 17
Fairness 17
Flugzeug@@ 17
Fo@@ 17
Force 17
Forschungsraum 17
Fortbildung 17
Französischen 17
Führungs@@ 17
Fünfjahres@@ 17
Gefüge 17
Geheimdienste 17
Geldgeber 17
Geste 17
Gewinnen 17
Gottes 17
Große 17
Gründungs@@ 17
Gut@@ 17
Guten 17
Har@@ 17
Heim@@ 17
Hoher 17
Härte 17
IMO 17
Individu@@ 17
Innovation@@ 17
Inten@@ 17
Inwieweit 17
Irr@@ 17
Jahrzehnte 17
Karl 17
Kenn@@ 17
Kennzeichen 17
Kil@@ 17
Kilometer 17
Kindersoldaten 17
Kol@@ 17
Kommissionsmitgliedern 17
Kompli@@ 17
Kongresses 17
Konjunktur 17
Kontrollin@@ 17
Konzertierungs@@ 17
Korrekturen 17
Kosmetika 17
Kranken 17
Kurden 17
Kurzstreckenseeverkehr 17
LKW 17
La 17
Lancker 17
Last 17
Legislativvorschläge 17
Leidenschaft 17
Lä@@ 17
Länge 17
Managements 17
Marge 17
Massenentlassungen 17
Meeresverschmutzung 17
Migrationspolitik 17
Mittelbindungen 17
Mittelmeers 17
Nationalen 17
Nehmen 17
Neugestaltung 17
Neutralität 17
Nutzern 17
OPEC 17
Obergrenzen 17
Ohnmacht 17
Ortuondo 17
Ostsee 17
Oz@@ 17
Palästinenser@@ 17
Partner@@ 17
Perry 17
Pfei@@ 17
Politi@@ 17
Portugals 17
Privatisierungen 17
Präsentation 17
Quadras 17
Qualifikationen 17
Quantität 17
Rechtsa@@ 17
Rechtsschutz 17
Rechtsstaates 17
Redebeiträge 17
Reis 17
Repression 17
Reserven 17
Rin@@ 17
Rob@@ 17
Räume 17
Rübig 17
Schlachthö@@ 17
Schlich@@ 17
Schröder 17
Schwachstellen 17
Schwermet@@ 17
Seien 17
Sende@@ 17
Sensibilisierung 17
Sicherheitsvorschriften 17
Skepsis 17
Sozi@@ 17
Soziales 17
Spirale 17
Staatsangehörige 17
Staatsbürgerschaft 17
Standpunkten 17
Stimmung 17
Straffreiheit 17
Strafre@@ 17
Straftat@@ 17
Straßenverkehrssicherheit 17
Strukturfonds@@ 17
Sudan 17
Sánchez 17
TES 17
Thunfisch@@ 17
Trakatellis 17
Transfer@@ 17
Tre@@ 17
Treffens 17
Tschad 17
Turco 17
UCK 17
Umfangs 17
Umschichtung 17
Umweltinformationen 17
Umweltre@@ 17
Uni@@ 17
Unterbrechung 17
Urteile 17
Val@@ 17
Verantwortungsbewusstsein 17
Verbesserungs@@ 17
Verbrauch@@ 17
Verbrecher 17
Verhaltensweisen 17
Verkürzung 17
Verwalt@@ 17
Vidal 17
Visa@@ 17
Visionen 17
Vo@@ 17
Volksgruppen 17
Wachstums@@ 17
Wal@@ 17
We@@ 17
Website 17
Werften 17
Whis@@ 17
Wirtschaftswachstums 17
Wit@@ 17
Zentralbanken 17
Zerti@@ 17
Zusätzlich 17
Zweifel@@ 17
abgewickelt 17
ade@@ 17
adi@@ 17
afghanische 17
aku@@ 17
albanische 17
alkoh@@ 17
angewandten 17
angezeigt 17
anhängi@@ 17
ankündigen 17
anlaufen 17
annähernd 17
anzuhören 17
anzumerken 17
anzurufen 17
asi@@ 17
asiatischen 17
asse 17
atischen 17
aufzugeben 17
ausarbeiten 17
ausgeglichen 17
ausgeliefert 17
ausgerichteten 17
ausgewogener 17
ausgewählt 17
aussetzen 17
austauschen 17
auszurichten 17
außen@@ 17
außerordentlicher 17
barbarischen 17
beabsichtigte 17
beauftragen 17
beein@@ 17
befragt 17
befördert 17
begangenen 17
begrenzung 17
behaupte 17
bekann@@ 17
beklagt 17
bens@@ 17
besagen 17
bescheidenen 17
beschleunigte 17
beschäftigten 17
bestens 17
bestmögliche 17
betriebliche 17
bevorzugen 17
bewer@@ 17
bewertungen 17
bezeichnete 17
beziehungen 17
bezog 17
bilateraler 17
bittet 17
board 17
bour@@ 17
brauchs 17
bre@@ 17
breites 17
bringe 17
bringung 17
bru@@ 17
brü@@ 17
burg 17
chsen 17
cks@@ 17
dacht 17
dachte 17
dachten 17
denz 17
dere 17
destoweniger 17
dienstleist@@ 17
diskutierte 17
draußen 17
dulden 17
durfte 17
ebnen 17
edi@@ 17
ehmen 17
eien 17
einführung 17
eingehenden 17
einhellig 17
einhergeht 17
einmischen 17
einzelstaatlicher 17
einzudämmen 17
einzuholen 17
einzumischen 17
ele 17
empfohlenen 17
ener@@ 17
enteren 17
enth@@ 17
entran@@ 17
ereignen 17
ergebnisse 17
ergänzenden 17
erhobenen 17
erhöhten 17
erkennung 17
ernannt 17
erregend 17
erschüt@@ 17
erteilte 17
erwähne 17
erörterten 17
ethisch 17
europas 17
fach 17
fel@@ 17
fene 17
finanz@@ 17
finanzierte 17
fle@@ 17
flug@@ 17
fo@@ 17
fortführen 17
fortzuführen 17
frieden@@ 17
fungieren 17
fusion 17
fühls 17
fürchten 17
ga 17
gan 17
gedient 17
gegebene 17
gehender 17
gehindert 17
geist 17
gekomm@@ 17
gemä@@ 17
geopfert 17
geredet 17
geregelten 17
geringfügige 17
geringste 17
gerischen 17
gestal@@ 17
globaler 17
gravierend 17
greife 17
gremien 17
griff 17
haltenden 17
hand 17
herausgegeben 17
herzlichen 17
hinterher 17
hoffnungs@@ 17
hte 17
innenpolitischen 17
inner 17
intensiviert 17
ir 17
irgendein 17
irre@@ 17
itiativen 17
jedermann 17
jenigen 17
kau@@ 17
kenntnis 17
klärt 17
kol@@ 17
kontin@@ 17
kontrollierten 17
korrekten 17
kos 17
ktors 17
kulturen 17
kurdischen 17
kurz- 17
küh@@ 17
künstlich 17
lags 17
lantate 17
letzteren 17
lichung 17
lächer@@ 17
länen 17
läß@@ 17
massiver 17
materiellen 17
merkt 17
merkwürdig 17
mes 17
mis@@ 17
missachtet 17
missionen 17
mittelfristigen 17
morgige 17
mutige 17
mächtigen 17
münden 17
nehmer 17
näh@@ 17
näher@@ 17
nützlichen 17
olet@@ 17
ollen 17
ologischen 17
ost@@ 17
ots@@ 17
oxi@@ 17
perfekt 17
pest 17
plätzen 17
prakti@@ 17
praktizieren 17
projekten 17
qualitative 17
quantit@@ 17
radi@@ 17
rassistischen 17
real 17
region@@ 17
regional 17
reichenden 17
reit@@ 17
repräsent@@ 17
res 17
respektiere 17
restriktiv 17
riesigen 17
risiken 17
räu@@ 17
sabkommen 17
satz@@ 17
sauberes 17
schalten 17
schlechtes 17
schließ@@ 17
schnelles 17
schuli@@ 17
schwarze 17
schwarzen 17
schwerwie@@ 17
schwerwiegend 17
schwächsten 17
senkung 17
serlaubnis 17
set 17
sfrei 17
sförderung 17
sichten 17
sichtlichen 17
sing 17
sinstrument 17
sinteressen 17
sitzende 17
sodann 17
sofortigen 17
sorgungs@@ 17
sphase 17
spolitiken 17
spraxis 17
spruch 17
ssa@@ 17
ssituation 17
ssprache 17
staaten@@ 17
stens 17
stiften 17
strategisch 17
strebt 17
strukturiert 17
sträger 17
stunden 17
stän@@ 17
substan@@ 17
tagtäglich 17
technologischer 17
terstat@@ 17
tierungs@@ 17
tigem 17
tigerweise 17
tigung 17
tiv@@ 17
transnationalen 17
traurig 17
trinken 17
tschetschen@@ 17
tzung 17
uli@@ 17
ult@@ 17
umgeht 17
ungehindert 17
ungleich 17
unglück@@ 17
unheil@@ 17
uni@@ 17
unmittel@@ 17
unmittelbarer 17
unterhält 17
untersagen 17
unterschrieben 17
untrennbar 17
unverhältnismäßig 17
unzählige 17
va@@ 17
verantworten 17
verarbeitenden 17
verbesser@@ 17
verbietet 17
verbindlicher 17
verbrech@@ 17
vereinen 17
verhängnis@@ 17
verkünden 17
verluste 17
verschiedensten 17
verschwendet 17
vertretene 17
verwandeln 17
verwies 17
vornimmt 17
vorsch@@ 17
vorzubeugen 17
vorzubringen 17
völligen 17
wanderung 17
wechs@@ 17
weigert 17
weilen 17
weitgehende 17
welt@@ 17
wendeten 17
werbung 17
wertvoll 17
wettbewerb@@ 17
wettbewerbsfähige 17
wick@@ 17
widersprüchlich 17
wies@@ 17
wiesen 17
wil@@ 17
wir@@ 17
wort 17
wünschen@@ 17
würfen 17
ya 17
zahlen@@ 17
zeichnung 17
zin@@ 17
zuallererst 17
zugesichert 17
zulässt 17
zurufen 17
zurückge@@ 17
zurückhaltend 17
zurückzukehren 17
zutage 17
zuwider 17
zuzuhören 17
zögert 17
Öko@@ 17
Öltan@@ 17
án 17
äh@@ 17
ätern 17
æ@@ 17
è@@ 17
ø@@ 17
übereinkommen 17
überwiegend 17
überzäh@@ 17
übliche 17
übt 17
ühle 17
012@@ 16
013@@ 16
299 16
Abstimmungsverhalten 16
Abständen 16
Alarm@@ 16
Ali@@ 16
Alibi 16
Alkoholkonsum 16
Arabien 16
Arbeiter 16
Arbeitsk@@ 16
Arbeitsmarkts 16
Arbeitsorganisation 16
Art. 16
Aufsichts@@ 16
Ausschluss 16
Autoren 16
Barak 16
Basel 16
Basi@@ 16
Beg@@ 16
Begründungen 16
Beistand 16
Beleidigung 16
Benchmarking 16
Beschwerde@@ 16
Beschäftigte 16
Beschäftigungs- 16
Bestand@@ 16
Bestes 16
Beteili@@ 16
Bewer@@ 16
Bewunderung 16
Bezahlung 16
Bier 16
Bildungs- 16
Bildungssysteme 16
Bindungen 16
Br@@ 16
Bundeskanzler 16
Burundi 16
Carlos 16
Che@@ 16
Chi@@ 16
Chichester 16
Collins 16
Cornillet 16
Dach 16
Datenbanken 16
Deli@@ 16
Derivate 16
Diesmal 16
Differenzierung 16
Dig@@ 16
Dolmetsch@@ 16
Doyle 16
Dro@@ 16
ED@@ 16
Eck@@ 16
Ehrgeiz 16
Eile 16
Einigungs@@ 16
Einzelne 16
Elektrizität 16
Elles 16
Endab@@ 16
Endergebnis 16
Energieeinsparung 16
Ernst 16
Erscheinungs@@ 16
Ersten 16
Erweiterungen 16
FIFA 16
Fachleuten 16
Farce 16
Fernsehens 16
Festlegungen 16
Fischen 16
Fischereiflotte 16
Flut 16
Forscher 16
Fortbestand 16
Frageb@@ 16
Fraktions@@ 16
Früh@@ 16
Föderalisten 16
Fünften 16
Gebiets@@ 16
Geheimnis 16
Gene 16
Gener@@ 16
Genüge 16
George 16
Gesichtspunkte 16
Gesundheitswesens 16
Griechen 16
Grün@@ 16
Haager 16
Hass 16
Herausbildung 16
Hierarchie 16
IN@@ 16
Immerhin 16
Informationskampagnen 16
Informationstechnologien 16
Irischen 16
Jung@@ 16
Kabul 16
Kadmium 16
Kalten 16
Klu@@ 16
Koexistenz 16
Kohle@@ 16
Komplexität 16
Konkurrenz@@ 16
Konsu@@ 16
Kontrollmechanismen 16
Koordinator 16
Koordinierungsmethode 16
Kop@@ 16
Kore@@ 16
Korri@@ 16
Krankenhaus 16
Kreditin@@ 16
Kriegen 16
Kriminellen 16
Käl@@ 16
Kämpfe 16
Körper@@ 16
Künstler 16
Küstenregionen 16
Lamassoure 16
Landschaft 16
Langzeit@@ 16
Laufzeit 16
Lebenserwartung 16
Lebensunterhalt 16
Liberale 16
Liberalisierungs@@ 16
Linien 16
Lohn 16
Lord 16
MEDIA 16
Machenschaften 16
Maßnahmenpaket 16
McCarthy 16
Messung 16
Migrations@@ 16
Miguel 16
Militära@@ 16
Minderjährigen 16
Missionen 16
Moslems 16
Mus@@ 16
Muss 16
Muster 16
Mutterschaft 16
Müssen 16
Nahrungsmittelsicherheit 16
Nicol@@ 16
Notwendigkeiten 16
Nö@@ 16
Offenbar 16
Opf@@ 16
PH@@ 16
Paasilinna 16
Papier@@ 16
Pension@@ 16
Pent@@ 16
Peres 16
Peru 16
Pie@@ 16
Porto 16
Positives 16
Prostitution 16
Provinzen 16
Provokation 16
Präferenz@@ 16
Radikalen 16
Reaktoren 16
Rechtsgrundlagen 16
Ree@@ 16
Rehabilitation 16
Richtig 16
Russischen 16
Rücken@@ 16
Rückhalt 16
Rücktritt 16
Rücküberweisung 16
Sachverständigen@@ 16
Schlachtung 16
Schlepp@@ 16
Schutzniveau 16
Sechste 16
Senat 16
Seuchen@@ 16
Sicherheitsfragen 16
Sohn 16
Sonderbericht 16
Spe@@ 16
Sprung 16
Staat@@ 16
Stau@@ 16
Stimmen@@ 16
Straß@@ 16
Straßenverkehrs@@ 16
Strecken 16
Südosteuropa 16
Terroranschlägen 16
Thomas 16
Tierarten 16
Timor 16
Trau@@ 16
Trocken@@ 16
Tunnels 16
Typ@@ 16
Umweltaktion@@ 16
Vereinbarkeit 16
Verkehrsträgern 16
Verpackungs@@ 16
Verschie@@ 16
Verschuldung 16
Versicherungen 16
Verspätung 16
Verstößen 16
Verwaltungs- 16
Verwaltungsverfahren 16
Veterin@@ 16
Vorbehalten 16
Vorgehensweisen 16
Waffenstillstand 16
Wallis 16
Wegfall 16
Weltkrieg 16
Weniger 16
Wesentliche 16
Widerstands 16
Wiederver@@ 16
Winter@@ 16
Wirtschaftlichkeit 16
Wirtschaftsentwicklung 16
Wähler@@ 16
Zah@@ 16
Zeitpläne 16
Zeitrahmen 16
Zersplitterung 16
Zertifizierung 16
Zeuge 16
Zins@@ 16
Zug@@ 16
Zukunft@@ 16
Zusammenkunft 16
Zustrom 16
Zweit@@ 16
abbau 16
able 16
abschließenden 16
ac@@ 16
adäqu@@ 16
afrikanische 16
agiert 16
aket 16
akt 16
aktivere 16
aktivitäten 16
allesamt 16
alljährlich 16
altungen 16
amerikanischer 16
ami 16
amin@@ 16
andauern 16
angeben 16
annehmbaren 16
anpacken 16
anstehen 16
anzustellen 16
appelliert 16
arbeitete 16
arbeiteten 16
arbeitungs@@ 16
assozi@@ 16
atori@@ 16
auen 16
aufgefallen 16
aufgreift 16
aufsichts@@ 16
auftra@@ 16
aufzeigt 16
ausgearbeiteten 16
ausgefallen 16
ausgehenden 16
ausgewählten 16
ausräumen 16
ausweiten 16
außenpolitische 16
außergewöhnliche 16
baldige 16
bedient 16
bedingte 16
bedrohten 16
beeindruckt 16
befolgen 16
befrem@@ 16
befrie@@ 16
behoben 16
beiseite 16
belangen 16
beleuchten 16
beratung 16
beru@@ 16
berühmte 16
beschneiden 16
beschuldigt 16
beschäftig@@ 16
beschäftigungs@@ 16
beträchtlicher 16
beunruhigen 16
bevor@@ 16
bewährten 16
bezeichneten 16
bleibe 16
blick 16
breit@@ 16
breitere 16
bte 16
business 16
chtig 16
commun@@ 16
dahinter 16
datum 16
dazu@@ 16
dd@@ 16
definierte 16
detailliert 16
deter 16
deutschland 16
diente 16
differenzierte 16
dlichkeiten 16
drin 16
dringlicher 16
drungen 16
ebene 16
ec@@ 16
ehme 16
eichen 16
eignen 16
eilen 16
eilte 16
eingeht 16
eingeschlagen 16
einhält 16
einkommen 16
einmalige 16
einmü@@ 16
einzulegen 16
eiten 16
embryonalen 16
energie@@ 16
engagierte 16
ente@@ 16
enteilung 16
erfahr@@ 16
ergänz@@ 16
erhebung 16
erlei 16
ernster 16
erreichbar 16
erschienen 16
erschreckend 16
erspart 16
erworben 16
erwägen 16
erzählt 16
esische 16
eten 16
fahrt@@ 16
fairer 16
faktoren 16
feh@@ 16
fil@@ 16
fisch@@ 16
fla@@ 16
fortschreit@@ 16
fortschritt@@ 16
fro@@ 16
fähi@@ 16
fähige 16
geber 16
geflo@@ 16
geg@@ 16
gemischte 16
gemischten 16
genehmi@@ 16
genommenen 16
geri@@ 16
geringem 16
gert 16
geschaffenen 16
geschätzte 16
gestützt 16
gewartet 16
gewährte 16
gleichberechtigte 16
gleichheit 16
glich@@ 16
glob@@ 16
grenzüberschreitender 16
größtmöglichen 16
grünes 16
gänger 16
gültige 16
günstigsten 16
hab@@ 16
halber 16
halten@@ 16
harmonisierte 16
heikle 16
herausgearbeitet 16
herausgenommen 16
herbeiführen 16
herunter@@ 16
hervorruft 16
het@@ 16
hilfrei@@ 16
ia 16
identi@@ 16
iele 16
ill@@ 16
im@@ 16
indonesischen 16
initiative 16
institutionelles 16
interpretieren 16
iranischen 16
irgend@@ 16
jahrel@@ 16
jedwede 16
karten 16
katastrophale 16
kehrt 16
kins 16
klauseln 16
kompatibel 16
konflikte 16
konsequenten 16
kontrolli@@ 16
koordinierte 16
kritischer 16
ktiver 16
kurz@@ 16
kündigen 16
künfte 16
künften 16
küste 16
lass@@ 16
last@@ 16
lationen 16
legitimiert 16
legten 16
leichtfertig 16
leitlinien 16
letzt@@ 16
lichkeits@@ 16
liest 16
linken 16
links 16
lossene 16
läne 16
längeren 16
längerfristigen 16
läu@@ 16
mahnen 16
marktordnung 16
mehrjährigen 16
mes@@ 16
mieren 16
mord@@ 16
multifunktion@@ 16
mutig 16
mäl@@ 16
nachlassen 16
namentliche 16
natürlicher 16
nei@@ 16
nern 16
nischen 16
nos 16
ntes 16
nützliches 16
ona@@ 16
operative 16
opti@@ 16
optimis@@ 16
ordentlichen 16
oten@@ 16
periode 16
pla@@ 16
plänen 16
plün@@ 16
pos 16
positions@@ 16
ppe 16
ppt 16
psych@@ 16
quer 16
rassistische 16
rechtmäßige 16
redu@@ 16
regi@@ 16
regiert 16
regul@@ 16
reichlich 16
reißen 16
rem 16
renn@@ 16
respon@@ 16
richtiges 16
rigen 16
rt 16
ruf 16
räder 16
rüstung 16
sand@@ 16
sc@@ 16
schickt 16
schlechthin 16
schlimm@@ 16
schlimmen 16
schmutz@@ 16
scho@@ 16
schockiert 16
schreiber 16
schuld@@ 16
schulden 16
schuldige 16
schwieri@@ 16
schwierigkeiten 16
schwierigsten 16
schätzungsweise 16
sechste 16
seg@@ 16
seither 16
sender 16
sensi@@ 16
sent@@ 16
separ@@ 16
sern 16
sicherung 16
sichtbare 16
sichtige 16
sied@@ 16
sierungs@@ 16
sitzenden 16
sk 16
skla@@ 16
skosten 16
solidarischen 16
sorganisationen 16
sozialdemokratischen 16
spartner 16
spezielles 16
sprochene 16
spru@@ 16
spruchs@@ 16
stabili@@ 16
stadium 16
starker 16
stoß@@ 16
strategi@@ 16
strengeren 16
stungen 16
stöß@@ 16
subvention@@ 16
tatenlos 16
tel@@ 16
tendes 16
teres 16
thema 16
tierische 16
tigere 16
tok@@ 16
tragenen 16
transpar@@ 16
tun@@ 16
tätsp@@ 16
töten 16
umfangrei@@ 16
una 16
unbestreit@@ 16
undzwanzig 16
unendlich 16
unentgel@@ 16
ungerechtfertigte 16
unnö@@ 16
unterlassen 16
unterminieren 16
unterst@@ 16
unterzeichnete 16
unumkehr@@ 16
uss@@ 16
verantwortungsbewusst 16
verantwortungsvolle 16
verantwortungsvollen 16
verbindet 16
verdä@@ 16
vereinbarung 16
vermissen 16
verschlechtern 16
vo 16
vollwer@@ 16
vorsätz@@ 16
vorteilhaft 16
vorzustellen 16
wecken 16
weigern 16
weites 16
wen 16
werdende 16
west@@ 16
wichtigere 16
willkürliche 16
windigkeits@@ 16
wäl@@ 16
wörtlich 16
würdi@@ 16
zieh@@ 16
zierung 16
zivilisierten 16
zugegen 16
zugrunde@@ 16
zugs@@ 16
zusch@@ 16
zuverlässige 16
zweit@@ 16
zwin@@ 16
zwun@@ 16
zähle 16
Álvarez 16
Är@@ 16
Übergangsfrist 16
Übernahmen 16
Überschneidungen 16
älterer 16
äußerte 16
öse 16
ück@@ 16
09 15
11.30 15
111 15
196@@ 15
1987 15
22@@ 15
70er 15
Abgeordneten@@ 15
Absichtserklärungen 15
Adres@@ 15
Agrar- 15
Agrarbereich 15
Angeklagten 15
Anreizen 15
Anwälte 15
Arbeitszeitrichtlinie 15
Argentinien 15
As@@ 15
Athen 15
Auffor@@ 15
Aufklärungs@@ 15
Aufnahmel@@ 15
Auftraggeber 15
Aufzählung 15
Ausgleichs@@ 15
Ausrüstungen 15
Ausschreibung 15
Ausweisung 15
Azoren 15
Ballungs@@ 15
Baroness 15
Baumwolle 15
Bedar@@ 15
Beschul@@ 15
Besitzstands 15
Bestandser@@ 15
Bestürzung 15
Betro@@ 15
Bin@@ 15
Bislang 15
Bru@@ 15
Buchführung 15
Cappato 15
Chris 15
Destabilisierung 15
Deutschlands 15
Devisen@@ 15
Diesel@@ 15
Dor@@ 15
Drogenhandels 15
Durcheinander 15
Dutzend 15
Einem 15
Einheitlichkeit 15
Einwand 15
Eisenbahnverkehr 15
Energi@@ 15
Entla@@ 15
Entwicklungshilfe@@ 15
Epidemie 15
Erb@@ 15
Ermessen@@ 15
Ernähr@@ 15
Errungenschaft 15
Ersetzung 15
Erwerb@@ 15
Erwägungs@@ 15
Estland 15
European 15
Europäi@@ 15
Evaluierungs@@ 15
Exporte 15
Fahrzeug 15
Familienangehörigen 15
Faschismus 15
Fischfang 15
Flei@@ 15
Forschungsraums 15
Freiheits@@ 15
Freistellung 15
Früher 15
Futter 15
Gan@@ 15
Gaza 15
Gedenken 15
Gefängnis@@ 15
Geldbußen 15
Geldstrafen 15
Gentechnik 15
Gericht@@ 15
Gerin@@ 15
Gesamthaus@@ 15
Gewinnung 15
Grundpfeiler 15
Gänze 15
Gö@@ 15
Haft 15
Hauptak@@ 15
Heiligen 15
Herab@@ 15
Herrschaft 15
Herz@@ 15
Hierfür 15
Hinrichtungen 15
Hoheits@@ 15
Häufig 15
Höhepunkt 15
Indikator 15
Industrie- 15
Informationssystems 15
Jahrhunderten 15
Jon@@ 15
Junglandwir@@ 15
Kabeljau 15
Kampf@@ 15
Kap@@ 15
Kernwaffen 15
Kin@@ 15
Kinderarbeit 15
Kla@@ 15
Klon@@ 15
Kollegi@@ 15
Komplex 15
Kompromissänderungsanträge 15
Konstru@@ 15
Konstruktion 15
Konto 15
Kontrollmaßnahmen 15
Krebs 15
Krisensituationen 15
Kunst 15
Köni@@ 15
Landwirtschaftsausschusses 15
Lar@@ 15
Lastkraftwagen 15
Lebensräume 15
Lebewesen 15
Legislativvorschlag 15
Lektüre 15
Lettland 15
Liber@@ 15
Markts 15
Masse 15
Mazed@@ 15
Maßgabe 15
Maßnahmen@@ 15
Meer@@ 15
Menschen- 15
Minderung 15
Mindestanforderungen 15
Mittelmeerländer 15
Mittelweg 15
Mobilfun@@ 15
Montreal 15
Moral 15
Moskau 15
Nachbarländer 15
Nationale 15
Natura 15
Neuauf@@ 15
OL 15
Patri@@ 15
Pensions@@ 15
Periode 15
Pf@@ 15
Portugiesen 15
Premierministers 15
Privatpersonen 15
Rassi@@ 15
Raumfahrt 15
Rechtsinstrument 15
Rechtssystem 15
Rede@@ 15
Refor@@ 15
Reg@@ 15
Relevanz 15
Repräsentanten 15
Rom@@ 15
Ruanda 15
Rubriken 15
Römischen 15
SE@@ 15
ST@@ 15
Sammlung 15
Sanktions@@ 15
Schieds@@ 15
Schluß@@ 15
Schutze 15
Schwarz@@ 15
Schäd@@ 15
Sehen 15
Selbstverwaltung 15
Sol@@ 15
Sollen 15
Sonnen@@ 15
Sozialfonds 15
Sozialmodells 15
Sozialversicherungs@@ 15
Sper@@ 15
Stabilitäts@@ 15
Stellen@@ 15
Steuerharmonisierung 15
Strafverfahren 15
Straßenverkehrs 15
Stre@@ 15
Stro@@ 15
Strö@@ 15
Studien@@ 15
Stärken 15
Szenarien 15
Terrorakte 15
Tierschutz@@ 15
Titley 15
Todesur@@ 15
Tonne 15
Tourismus@@ 15
Transpor@@ 15
Tä@@ 15
Umverteilung 15
Unbehagen 15
Universa@@ 15
Unklarheiten 15
Unternehm@@ 15
Unternehmergeist 15
Unterschriften 15
Valencia 15
Verband 15
Verbringung 15
Vergabe@@ 15
Verhandlung@@ 15
Verhandlungstisch 15
Verhältnisses 15
Verschwinden 15
Verstümm@@ 15
Versuchen 15
Verteidigungsminister 15
Vertrieb 15
Verursacher 15
Verwaltungspraxis 15
Verwaltungsvorschriften 15
Verwendungs@@ 15
Vor- 15
Vorbedingung 15
Vorgän@@ 15
Vorsorge@@ 15
Waffenhandel 15
Wahlbeoba@@ 15
Wahlbeteiligung 15
Wasserqualität 15
Wein 15
Weiter 15
Wichtigste 15
Wiedervereinigung 15
Win@@ 15
Wir@@ 15
Wynn 15
Wärme 15
Würden 15
X@@ 15
Zentren 15
Zie@@ 15
Zusatzfragen 15
Zustände 15
Zwänge 15
abgeschlossenen 15
abgibt 15
abstimmung 15
ach 15
agenturen 15
ahl 15
alistisch 15
anbietet 15
anerkannte 15
anfällig 15
angebot 15
angebotenen 15
angelangt 15
angenehm 15
angetastet 15
annehmbare 15
anspruchs@@ 15
ansprüche 15
apiere 15
aro@@ 15
ativität 15
attra@@ 15
atz@@ 15
aufgeschoben 15
aufheben 15
aufzuerlegen 15
aufzuholen 15
ausgeglich@@ 15
ausgeh@@ 15
ausgenutzt 15
ausgerichtete 15
ausgewogen@@ 15
ausländischer 15
auszugeben 15
auszugleichen 15
auszus@@ 15
auto@@ 15
baldmöglichst 15
befriedigend 15
befunden 15
beginn@@ 15
begriff 15
behandelte 15
behinderte 15
behinderten 15
bek@@ 15
beliebigen 15
bemerkenswert 15
bemerkenswerte 15
benachbarten 15
benachteiligen 15
bend 15
benötigte 15
beratenden 15
bereichern 15
berichterstat@@ 15
beschwören 15
beschä@@ 15
bezweifeln 15
bischen 15
brauchten 15
brei@@ 15
bungen 15
by 15
bücher 15
büros 15
cheren 15
chet 15
chtigt 15
chungen 15
cor@@ 15
darzustellen 15
debatten 15
demographische 15
derartiges 15
dienststellen 15
direktem 15
dru@@ 15
durchführt 15
ehlt 15
eht 15
eim@@ 15
eingereichte 15
eingeschätzt 15
einheimischen 15
einladen 15
einschlägige 15
einzeln 15
endete 15
enes 15
engem 15
entdecken 15
entlasten 15
entwickl@@ 15
erfolgreicher 15
erfreu@@ 15
erheblichem 15
erlitten 15
ermutigt 15
erstattet 15
erwogen 15
erwor@@ 15
este 15
esti@@ 15
ethi@@ 15
euer 15
europaweite 15
europäischem 15
ev@@ 15
existierende 15
explo@@ 15
fachen 15
federführenden 15
fehl@@ 15
feindlichen 15
ferenz 15
fertig@@ 15
festhält 15
festzuschreiben 15
fft 15
fliegen 15
frastrukturen 15
frau@@ 15
fremden 15
freundliche 15
früherer 15
fälligen 15
füge 15
fünfte 15
gebie@@ 15
gebundenen 15
gedeckt 15
gefälle 15
gegeneinander 15
gegensätz@@ 15
gekoppelt 15
gekostet 15
gela@@ 15
gelegenen 15
gelitten 15
gemah@@ 15
genauere 15
geneigt 15
genes 15
geografischen 15
geordneter 15
gerau@@ 15
gerettet 15
geringerem 15
gerü@@ 15
gesandt 15
gesetzte 15
gesteckten 15
gestrige 15
gesunder 15
gewaltsamen 15
gewerbe 15
gewi@@ 15
gewinne 15
gewollt 15
gezählt 15
gliedert 15
greifend 15
gän@@ 15
haltene 15
ham 15
heb@@ 15
hef@@ 15
heftige 15
hemm@@ 15
herr@@ 15
hervorgehen 15
hielte 15
hinzuwirken 15
hten 15
hung 15
häl@@ 15
ierungs@@ 15
ine@@ 15
informelle 15
ings 15
inierten 15
jah@@ 15
jahr@@ 15
jugoslawische 15
juristischer 15
kanische 15
kern@@ 15
kes@@ 15
klarmachen 15
kleinsten 15
kolumbi@@ 15
konfli@@ 15
konstati@@ 15
kosme@@ 15
kturen 15
körper 15
lages 15
laggen 15
lasse 15
lassene 15
lattform 15
lebenswichtig 15
leeren 15
leich@@ 15
leid@@ 15
leist@@ 15
liberalisierten 15
lik@@ 15
lin 15
lindern 15
mangelhafte 15
mangelnder 15
mechan@@ 15
melde 15
messe 15
mexikanischen 15
mien 15
mindustrie 15
mini@@ 15
missbräuch@@ 15
mächtige 15
nachteiligen 15
nachzuweisen 15
namens 15
nebenbei 15
nel 15
neoliberalen 15
neten 15
nichts@@ 15
ogen 15
olle 15
orisch 15
otten 15
passen 15
plans 15
polizei 15
pou@@ 15
problematischen 15
professionellen 15
protokoll 15
provis@@ 15
quo 15
ras 15
rauch 15
raum@@ 15
realisierbar 15
recyc@@ 15
redet 15
reibungslose 15
repressiven 15
richte 15
rinzips 15
rischer 15
rän@@ 15
ré@@ 15
sa 15
sar@@ 15
schaf@@ 15
schaff@@ 15
scheinend 15
schläge 15
schlü@@ 15
schrecklich 15
schwä@@ 15
sh@@ 15
sichts@@ 15
sinnig 15
sischen 15
siv@@ 15
skiz@@ 15
soli@@ 15
solidari@@ 15
sozioökonomische 15
sparteien 15
sperren 15
spezieller 15
spie@@ 15
spon@@ 15
sposition 15
spürbare 15
sse@@ 15
standard 15
standhalten 15
steh@@ 15
steigerung 15
stellend 15
steller 15
stellvertretenden 15
strafrecht@@ 15
stran@@ 15
strit@@ 15
strömen 15
studieren 15
supranationalen 15
sweise 15
swerte 15
swerten 15
tag 15
tagt 15
tariat 15
terr@@ 15
teurer 15
the@@ 15
tiefen 15
tiefes 15
ting 15
tisierung 15
tive 15
tnissen 15
tolerieren 15
tot 15
tragenden 15
traten 15
trauen 15
treff@@ 15
tribüne 15
tätige 15
umzuwandeln 15
unabdingbare 15
unangebracht 15
unangen@@ 15
ungelö@@ 15
ungsinitiative 15
ungsplan 15
ungspoliti@@ 15
ungsproble@@ 15
untermauert 15
unterwegs 15
unverzügliche 15
ura 15
usti@@ 15
verbraucher 15
vereinfachte 15
verkörpert 15
verkürzen 15
verlän@@ 15
vernachlässi@@ 15
versagen 15
verschmutzungen 15
verspätet 15
vertraglichen 15
verwen@@ 15
ves 15
voranzu@@ 15
vorausschau@@ 15
vorgeben 15
vorlagen 15
völ@@ 15
wachsenen 15
wacht 15
wandern 15
wandt 15
weisenden 15
wiederherstellen 15
willi@@ 15
wirksamsten 15
wirtschaftspolitische 15
wissensbasierte 15
yss@@ 15
ziellen 15
ziger 15
zuführen 15
zugehen 15
zugelassenen 15
zulasten 15
zusammenarbeitet 15
zögerlich 15
Öffent@@ 15
Überalterung 15
Überfischung 15
Überlastung 15
Überprüfungs@@ 15
Übersetzungen 15
ähnliches 15
änderten 15
í@@ 15
überfällig 15
übergegangen 15
übermittelten 15
überra@@ 15
überweisen 15
überwiegende 15
&amp; 14
019@@ 14
175 14
2007 14
220 14
5,@@ 14
7,5 14
Aber@@ 14
Abschlus@@ 14
Abschnitte 14
Absätze 14
Ag@@ 14
Air@@ 14
Alavanos 14
Alegre 14
Amm@@ 14
Analy@@ 14
Angebote 14
Angestellten 14
Ankündigungen 14
Anschließend 14
Anweisungen 14
App@@ 14
Arabischen 14
Arbeitsverhältnisse 14
Arzt 14
Assoziations@@ 14
Assoziationsabkommen 14
Asylsuchenden 14
Attent@@ 14
Aufbauwerks 14
Aufgabenbereich 14
Auftragsvergabe 14
Ausgleichszahlungen 14
Ausschreitungen 14
Auszahlung 14
BBC 14
Balance 14
Banken@@ 14
Beauftra@@ 14
Beh@@ 14
Beitrags@@ 14
Bekenntnis 14
Bele@@ 14
Beleg 14
Benachteili@@ 14
Besatzungs@@ 14
Betrie@@ 14
Bevölk@@ 14
Bewusstsein@@ 14
Bezugspunkt 14
Bor@@ 14
Bushill 14
Chinesen 14
Club 14
Comm@@ 14
Dankes 14
Dauer@@ 14
Deleg@@ 14
Der@@ 14
Dessen 14
Diktatoren 14
Diktaturen 14
Disziplin 14
Doping@@ 14
Druckmittel 14
Dschihad 14
Dun@@ 14
ESVP 14
EU@@ 14
Ecofin 14
Ehr@@ 14
Einnahme 14
Emotionen 14
Energieerzeugung 14
Entscheidungsfreiheit 14
Erdbe@@ 14
Erfindungen 14
Erforschung 14
Eritrea 14
Eskalation 14
Fan@@ 14
Fehlentwicklungen 14
Finanzhilfen 14
Finanzinstru@@ 14
Fischereiausschuss 14
Flug 14
Flüge 14
Forschungspolitik 14
Fortgang 14
Franz 14
Freihandelsabkommen 14
Freundschaft 14
Fusions@@ 14
Fänge 14
Führern 14
G7 14
GPS 14
Geburts@@ 14
Gegenden 14
Gegenzug 14
Gemeinde 14
Gemeinschaftshaushalts 14
Gerät 14
Geschi@@ 14
Geschlecht 14
Geschäften 14
Gesundheitsschutzes 14
Getränke 14
Glaubens 14
Gleichermaßen 14
Gol@@ 14
Golf@@ 14
Grundstein 14
Gü@@ 14
Haltungen 14
Handlungsspielraum 14
Handwerk 14
Hauptziele 14
Hed@@ 14
Herkunftsländern 14
Hi@@ 14
Hilfsmittel 14
Hinter 14
Hintertür 14
Hochachtung 14
Hochschulen 14
Hoffen 14
Holocaust 14
Human 14
Hy@@ 14
Hygiene@@ 14
Häft@@ 14
Höchstmaß 14
Illeg@@ 14
Import 14
Inflationsrate 14
Infolge 14
Initi@@ 14
Inkraftt@@ 14
Inlands@@ 14
Inselregionen 14
Interes@@ 14
Internation@@ 14
Island 14
Isolierung 14
Izquierdo 14
Jean 14
Juristen 14
Kapitalismus 14
Katalog 14
Klassen 14
Kohlen@@ 14
Kolonialismus 14
Komitologieverfahren 14
Komm@@ 14
Kommunal@@ 14
Konfrontation 14
Kontroll- 14
Kra@@ 14
Krankenhäuser 14
Kreativität 14
Kurz@@ 14
Landwirtschaftsausschuss 14
Landwirtschaftspolitik 14
Lebend@@ 14
Lebensmittel- 14
Leist@@ 14
Lenkungs@@ 14
Leu@@ 14
Lobby@@ 14
Luxemburger 14
Machen 14
Madeira 14
Manipulation 14
Margallo 14
Martí@@ 14
Maschinen 14
Massenvernichtungswaffen 14
Matthews 14
Milcher@@ 14
Mischung 14
Mitarbei@@ 14
Mobilfunk@@ 14
Motivation 14
Motoren 14
Myanmar 14
Nachbarschaft 14
Nahost@@ 14
Nassauer 14
New@@ 14
Notwendige 14
OM 14
ON 14
Offen 14
Offensive 14
Papiere 14
Parish 14
Parlamentarische 14
Passage 14
Paul 14
Persönlichkeit 14
Peter 14
Planungs@@ 14
Primär@@ 14
Privatunternehmen 14
Profil 14
Prozessen 14
Prüfungs@@ 14
Ram@@ 14
Raumfahrt@@ 14
Rechtslage 14
Rechtsnormen 14
Rednerin 14
Reformp@@ 14
Reformprozess 14
Rentenalter 14
Reparatur@@ 14
Richtern 14
Riesen@@ 14
Risikomanagement 14
Ruin 14
Rückgabe 14
SA 14
Sammel@@ 14
Satzung 14
Schadstoffe 14
Schlagzeilen 14
Schmerz 14
Schulbildung 14
Schuldenerlass 14
Schweizer 14
Schwung 14
Schä@@ 14
Seele 14
Selbstverpflichtung 14
Sh@@ 14
Siedl@@ 14
Simbabwes 14
Soziale 14
Spenden 14
Stad@@ 14
Stahlindustrie 14
Steuergeldern 14
Steuerzahl@@ 14
Steuerzahlern 14
Stilllegung 14
Sto@@ 14
Strafverfolgungsbehörden 14
Sturm 14
Superstaat 14
Symbol@@ 14
Söder@@ 14
TEN 14
Teilnehmer@@ 14
Tibe@@ 14
Times 14
Touristen 14
Trauer 14
Tschechische 14
Tun 14
Tö@@ 14
Umfrage 14
Umso 14
Umweltin@@ 14
Umweltverträ@@ 14
Unabhängi@@ 14
Unionsebene 14
Unterdrück@@ 14
Untersuchungsausschusses 14
Variante 14
Verhandlungsposition 14
Verkehrsnetze 14
Vermögens@@ 14
Versagen 14
Versicherung 14
Vertragsparteien 14
Vertriebs@@ 14
Verurteilungen 14
Visum@@ 14
Voggenhuber 14
Volksabstimmungen 14
Voraus@@ 14
Vorbeitritts@@ 14
Vorentwurf 14
Vorgängen 14
Vorrednerin 14
Vorteilen 14
Väter 14
Wald 14
Warnungen 14
Wechselkurs@@ 14
Welchen 14
Weltgipfel 14
Wesent@@ 14
Westeuropa 14
Wind 14
Woh@@ 14
Wohnsitz 14
World 14
Wunsch@@ 14
Zana 14
Zugänglichkeit 14
Zur@@ 14
Zusammenbruch 14
Zuständigkeits@@ 14
Zwischenbericht 14
abi@@ 14
abzudecken 14
aden 14
aktiv@@ 14
akzeptable 14
alem 14
alistischen 14
alkoholi@@ 14
alls 14
alters 14
ammer 14
amo 14
analog 14
andern 14
angehörenden 14
angekommen 14
angepackt 14
anre@@ 14
ansatz 14
anta 14
anwen@@ 14
appar@@ 14
artig 14
atik 14
ats@@ 14
atten 14
attraktiv 14
aufbaut 14
aufen 14
aufgesch@@ 14
aufklären 14
auftretenden 14
aufwirft 14
aufzustocken 14
ausgeglichenen 14
ausgehöhlt 14
ausgewirkt 14
ausgleich 14
ausgleichen 14
ausnutzen 14
ausschlaggebender 14
aussenden 14
austauschs 14
auszugehen 14
az@@ 14
bahnen 14
bauern 14
beabsichtige 14
beabsichtigten 14
beamte 14
beamten 14
beanspruchen 14
beantra@@ 14
bedürftigen 14
befragen 14
behandel@@ 14
beides 14
berischen 14
beruft 14
beschnitten 14
beschreibt 14
besetzen 14
besiedelten 14
bestenfalls 14
bestätigte 14
besu@@ 14
betreten 14
beträchtliches 14
bewaffnete 14
bilität 14
brau@@ 14
bremsen 14
bren@@ 14
briti@@ 14
buches 14
bün@@ 14
bürgerliche 14
bürokrati@@ 14
ce 14
chtlinie 14
cra@@ 14
deckte 14
dergleichen 14
destabilisieren 14
differenzierten 14
dri@@ 14
dringendsten 14
durchbrechen 14
dynamischen 14
effektivere 14
ehrgeizi@@ 14
einfordern 14
eingeleitete 14
eingesetzten 14
eingestehen 14
einholen 14
einleitenden 14
einreichen 14
eischen 14
eland 14
ella 14
enderen 14
endlos 14
ensen 14
enswerterweise 14
ensystems 14
entfällt 14
ential 14
entlang 14
entsetz@@ 14
entstand 14
erarbeitete 14
erstmalig 14
ersu@@ 14
erwies@@ 14
erzählen 14
esischer 14
ett 14
europaweiten 14
facht 14
fal@@ 14
fehler 14
feierlichen 14
feldern 14
fikations@@ 14
fischer 14
flichten 14
formale 14
fortgeschritten 14
fortgeschrittenen 14
französischer 14
freigesetzt 14
fres@@ 14
fruchtbaren 14
fundamentalistischen 14
fähiger 14
för@@ 14
führe 14
führungen 14
gangs@@ 14
gebene 14
gebühr@@ 14
geeignetes 14
gehaltenen 14
geheimen 14
gehofft 14
gelang 14
gerin@@ 14
geringerer 14
geringfü@@ 14
gesammelten 14
gesamtes 14
gesamteuropäischen 14
geschi@@ 14
geschil@@ 14
geschweige 14
getau@@ 14
getrennten 14
gewalttätigen 14
gewicht 14
gewinnung 14
gewissen@@ 14
gewöhnlichen 14
geäußerte 14
gieri@@ 14
gierung 14
gig 14
glaubten 14
glaubwürdige 14
gon 14
grei@@ 14
gst 14
hand@@ 14
handele 14
handwerk@@ 14
harter 14
haushalts 14
hervorragender 14
hinterfragen 14
hinweist 14
hinzunehmen 14
identisch 14
iens 14
ierungen 14
illi@@ 14
importiert 14
innehat 14
intensi@@ 14
isches 14
istisches 14
itäten 14
jahres@@ 14
jemandem 14
jüdischen 14
kampagne 14
kan 14
kaner 14
km 14
kompet@@ 14
koreanischen 14
krat 14
kriegen 14
kräf@@ 14
lab@@ 14
lateinamerikanischen 14
lebe 14
lebenslangen 14
lebenslanges 14
legislativer 14
leidenden 14
leitend 14
letztgenannten 14
logi@@ 14
logischerweise 14
loses 14
macher 14
maßen 14
mb@@ 14
menischen 14
mist 14
mitgetragen 14
mitglied@@ 14
mul@@ 14
mung 14
mus@@ 14
mäßigkeit 14
mögliches 14
nachlässi@@ 14
nah 14
nament@@ 14
nannte 14
nete 14
nische 14
obersten 14
oberster 14
ordn@@ 14
organi@@ 14
organisatorischen 14
parall@@ 14
personal 14
plurali@@ 14
politi@@ 14
prinzips 14
profession@@ 14
profi@@ 14
programm@@ 14
prop@@ 14
protestiert 14
präven@@ 14
qualifiziert 14
quantitative 14
realisti@@ 14
reist 14
rentabel 14
reproduktive 14
restri@@ 14
resultieren 14
resultierende 14
revidieren 14
richter 14
richtiger 14
rissen 14
rumänischen 14
rückläufi@@ 14
rührt 14
sahen 14
saktionen 14
sauberer 14
schar@@ 14
schenkt 14
schießen 14
schle@@ 14
schließung 14
schnellstens 14
schulen 14
schwankungen 14
schär@@ 14
seltsam 14
sens 14
seriöse 14
setzungs@@ 14
sfähigen 14
sicherte 14
sierungen 14
sir 14
sist@@ 14
skandinavischen 14
skar 14
skollegen 14
skrupell@@ 14
sozialpolitischen 14
spann@@ 14
spart 14
sparungen 14
spenden 14
splan 14
sprodu@@ 14
sprojekt 14
sprojekte 14
späten 14
spürbaren 14
sst 14
staats@@ 14
stat@@ 14
sthemen 14
stischer 14
stor@@ 14
stoßes 14
strah@@ 14
strecke 14
stöße 14
stück@@ 14
stür@@ 14
substanzielle 14
svorsorge 14
tage@@ 14
tal@@ 14
tarif@@ 14
technik 14
technisches 14
territoriale 14
terst@@ 14
teur 14
tex@@ 14
thil@@ 14
trage 14
tragisch 14
transportieren 14
traurigen 14
trock@@ 14
trü@@ 14
tur@@ 14
ulieren 14
unbestreitbar 14
unentbehrlich 14
unermüdlich 14
ungerechtfer@@ 14
ungsproblem 14
unkte 14
unpartei@@ 14
unrealistisch 14
unsinnig 14
untermauern 14
unterminiert 14
unterstellen 14
untätig 14
unvollständig 14
verblei@@ 14
verfahrens@@ 14
verfäl@@ 14
vergabe 14
vergehen 14
verkauf 14
vermark@@ 14
vermerkt 14
vermisst 14
verschiedentlich 14
verschlimmern 14
verschlimmert 14
verschwendung 14
verseu@@ 14
versi@@ 14
verstär@@ 14
vertrat 14
vertretung 14
verwaltungen 14
vestitionen 14
vieren 14
viert 14
vis@@ 14
vol@@ 14
vollstre@@ 14
voranschreitet 14
vorei@@ 14
vorläufige 14
vorrangiges 14
vorstellbar 14
vorteil@@ 14
völker@@ 14
wachstum 14
ware 14
warn@@ 14
weibliche 14
weitermachen 14
westen 14
widersprüchlichen 14
widri@@ 14
wiedergegeben 14
wirksamste 14
wiss@@ 14
womöglich 14
wunden 14
wälten 14
xen 14
yb@@ 14
zaghaf@@ 14
zahlreich 14
zeichnete 14
zipation 14
zipi@@ 14
zität 14
zoll@@ 14
zugegeben 14
zunutze 14
zusammengekommen 14
zusammenhän@@ 14
zusammenhängenden 14
zustimm@@ 14
zwang 14
zweifeln 14
zäh@@ 14
Äl@@ 14
Änderungsvorschlägen 14
Äquatorialguinea 14
Überschrift 14
Übersicht 14
Überzeugungs@@ 14
ßi@@ 14
äußerten 14
ça 14
ökologischer 14
ökonomischer 14
öl 14
übergangen 14
übernommenen 14
überzugehen 14
üh@@ 14
.... 13
03 13
0er 13
1000 13
115 13
18.30 13
1970 13
1980 13
1988 13
8,@@ 13
Absprache 13
Abtreibung 13
Akten 13
Anbau@@ 13
Ander@@ 13
Angebots 13
Ank@@ 13
Ankunft 13
Anpassungsfähigkeit 13
Anwachsen 13
Arbeitskräften 13
Arbeitsleben 13
Arbeitsprogramms 13
Arbeitswelt 13
Arbeitszeiten 13
Assozi@@ 13
Assoziierungs@@ 13
Aufdeckung 13
Aufregung 13
Aufträgen 13
Aufwendungen 13
Ausgleich@@ 13
Auskünfte 13
Außenministerin 13
Außenwelt 13
Ay@@ 13
BSP 13
Barbarei 13
Beabsichtigt 13
Bedürf@@ 13
Befähi@@ 13
Befürwortung 13
Belangen 13
Benutzer 13
Berufsausbildung 13
Beschlag@@ 13
Beschneidung 13
Besonderheit 13
Besu@@ 13
Betrachtet 13
Bewerber@@ 13
Black 13
Bleibt 13
Bombar@@ 13
Bonde 13
Bos@@ 13
Bowis 13
Bruttoinlandsprodukts 13
Budge@@ 13
Budget@@ 13
Béguin 13
DS 13
Dele@@ 13
Demnach 13
Demonstra@@ 13
Direkt@@ 13
Direktori@@ 13
Diversifizierung 13
Drogensucht 13
Dä@@ 13
Dürre 13
Effekte 13
Ehe@@ 13
Eifer 13
Eingreif@@ 13
Einschätzungen 13
Einschüchterung 13
Elen@@ 13
Empfän@@ 13
Enron 13
Entwicklungs- 13
Entwicklungsrück@@ 13
Entwicklungsstand 13
Erfin@@ 13
Erheb@@ 13
Erschöpfung 13
Erweiterungsprozesses 13
Erwiderung 13
Etappen 13
Eth@@ 13
Etwa 13
Exil 13
FAO 13
Fahrplan 13
Fahrzeugen 13
Fanatismus 13
Fans 13
Ferne 13
Fertigstellung 13
Festland 13
Festnahme 13
Feu@@ 13
Feuer 13
Figueiredo 13
Finanzinstrumente 13
Finanzmärkten 13
Finger@@ 13
Fischereitätigkeit 13
Fluggesellschaft 13
Flüchtlingslager 13
Forschungs- 13
Fortschrittsbericht 13
Freiwilligkeit 13
Fusion 13
GATT 13
Geberländer 13
Gebhardt 13
Gebote 13
Gefolge 13
Gegengewicht 13
Gespräch@@ 13
Gesundheitsbereich 13
Gipf@@ 13
Gleichstellungs@@ 13
Glie@@ 13
Grossetête 13
Großmächte 13
Grünbuchs 13
Guatemala 13
HA@@ 13
Hafendienste 13
Halten 13
Hartnäckigkeit 13
Hauptgründe 13
Hauptverantwortung 13
Hauptz@@ 13
Haushaltskontrollausschusses 13
Havel 13
Hemm@@ 13
Heran@@ 13
Herr@@ 13
Heutzutage 13
Hilfsorganisationen 13
Hindernissen 13
Hochschul@@ 13
Hof 13
Holland 13
Hungersnot 13
Hut 13
ICA@@ 13
Identifizierung 13
Identitäts@@ 13
Inhaftierung 13
Inhaltsstoffe 13
Instand@@ 13
Interinstitutionelle 13
Interne@@ 13
Inverkehrbringen 13
Iren 13
Islamischen 13
Isler 13
Jahrhunderte 13
Jahrzehnts 13
Justi@@ 13
Kabinett 13
Kamer@@ 13
Kapitalverkehr 13
Katalonien 13
Kennzeichn@@ 13
Klimaänderungen 13
Kno@@ 13
Komment@@ 13
Kommentar 13
Kommission@@ 13
Kommissionsvorschläge 13
Kommunisten 13
Kontinenten 13
Konzertierung 13
Kouchner 13
Kriegsverb@@ 13
Kriegsverbrechen 13
Kunden@@ 13
Lagern 13
Lambert 13
Landwirtschaft@@ 13
Langfristig 13
Laufbahn 13
Lebensstandard 13
Lebensweise 13
Liga 13
Lobby 13
Lotsen@@ 13
Löhnen 13
Maghreb 13
Mak@@ 13
Mandela 13
Marques 13
Mauer 13
Medi@@ 13
Mei@@ 13
Meinungsumfragen 13
Mensch@@ 13
Minde@@ 13
Minder@@ 13
Minen 13
Ministerrats 13
Ministers 13
Mitbürgern 13
Miteinander 13
Mitteleuropa 13
Mängeln 13
Mün@@ 13
NO@@ 13
Nato 13
Negativ@@ 13
Neuerung 13
Nichtdiskriminierung 13
Non 13
Nä@@ 13
Opportun@@ 13
Ortega 13
Parlamentsab@@ 13
Partnerschaftsabkommen 13
Passiv@@ 13
Patentierung 13
Peters@@ 13
Poli@@ 13
Politische 13
Prakti@@ 13
Pres@@ 13
Produktivitäts@@ 13
Programmplanungszeitraum 13
Prop@@ 13
Prot@@ 13
Provinz 13
Prozent@@ 13
Prü@@ 13
Prüfungen 13
Publi@@ 13
RA 13
Radio@@ 13
Rechnungslegungs@@ 13
Rechnungsprü@@ 13
Regulierungsbehörde 13
Rettungs@@ 13
Rhetorik 13
Rohstoff@@ 13
Rohstoffen 13
Ruhezeiten 13
Rui@@ 13
Rücknahme 13
Rückstände 13
Sachverstand 13
Samstag 13
Sant@@ 13
Schaff@@ 13
Schattenberichterstattern 13
Schicks@@ 13
Schwan@@ 13
Schwangerschaft 13
Selbstmordattent@@ 13
Sendungen 13
Sicherheitsk@@ 13
Siedlungs@@ 13
Simp@@ 13
Sin@@ 13
Sitzungsp@@ 13
Sodann 13
Spielräume 13
Staatssekretär 13
Stammzellenforschung 13
Standardisierung 13
Stein@@ 13
Steuergelder 13
Stick@@ 13
Strang 13
Strukturfondsmittel 13
Strukturmaßnahmen 13
Studierenden 13
Sä@@ 13
Säuber@@ 13
Südafri@@ 13
Tabakan@@ 13
Tiergesundheit 13
Todesopfer 13
Transatlan@@ 13
Transfers 13
Tribüne 13
Trilog 13
Tro@@ 13
Tun@@ 13
UNMIK 13
UR 13
Umweltkosten 13
Umweltminister 13
Unruhen 13
Unsinn 13
Unterentwicklung 13
Urteil@@ 13
Utop@@ 13
Verdä@@ 13
Verfahrensweisen 13
Verfass@@ 13
Vergeltungs@@ 13
Verhaltensko@@ 13
Verhandlungsführer 13
Vermarktungs@@ 13
Verweise 13
Verzerrungen 13
Veto 13
Vieles 13
Viertel@@ 13
Volkswirtschaft 13
Vorurteile 13
Wachstumspakts 13
Wahlrecht 13
Wasserversorgung 13
Wechsel 13
Weltmaßstab 13
Wirtschaftsakteure 13
Wirtschaftslage 13
Worauf 13
Worum 13
Wur@@ 13
Zehntausende 13
Zentralisierung 13
Zer@@ 13
Zerstörungen 13
Zeu@@ 13
Zusammenhänge 13
Zuteilung 13
Zw@@ 13
Zwischenfälle 13
Zü@@ 13
Zügen 13
abgest@@ 13
abler 13
abläuft 13
acquis 13
adul@@ 13
afrikanischer 13
akter 13
alisierte 13
alisierungs@@ 13
alistischer 13
alleine 13
allgemeines 13
alli@@ 13
analyse 13
angeblichen 13
angen 13
angestren@@ 13
ank@@ 13
anspruchsvollen 13
anstehende 13
anträge 13
antwortete 13
ares 13
argumentieren 13
arismus 13
arr@@ 13
artikel 13
attraktiver 13
audiovisuelle 13
aufenthal@@ 13
aufgebracht 13
aufgeschlossen 13
aufwendi@@ 13
aufzählen 13
ausgehandelten 13
ausgerei@@ 13
ausgerottet 13
ausgezeichnetes 13
auslaufen 13
ausnahmsweise 13
aussagen 13
ausstehenden 13
auszulösen 13
back 13
bank 13
bauf@@ 13
beacht@@ 13
bedeutendes 13
bedeutungs@@ 13
bedingungs@@ 13
bedro@@ 13
bedroh@@ 13
befanden 13
befindliche 13
befristete 13
begünstigten 13
beigetreten 13
beits@@ 13
belohnt 13
bels 13
beoba@@ 13
beruf@@ 13
beruhigt 13
besa@@ 13
beschaffung 13
beschloss 13
beschlüsse 13
beschränkte 13
betraut 13
beträge 13
beu@@ 13
beunruhi@@ 13
bildungs@@ 13
blind 13
boote 13
bot 13
box 13
bräuchten 13
cer 13
chers 13
chsten 13
cia 13
con@@ 13
cs 13
dbare 13
deck@@ 13
delegation 13
dem@@ 13
deutigkeit 13
deutscher 13
dikatoren 13
distanziert 13
dlern 13
dokumenten 13
dokumentiert 13
domin@@ 13
dop@@ 13
drän@@ 13
drück@@ 13
dur@@ 13
durchdacht 13
durchführbar 13
durchschnittlichen 13
echni@@ 13
effizientes 13
[...]
